#version: 0.2
Ġ t
Ġ a
h e
i n
r e
Ġt he
Ġ o
e r
o n
a t
Ġ s
e n
Ġ c
e s
Ġ w
n d
i s
o r
i t
Ġ p
e d
Ġo f
a l
Ġ b
Ġ f
a n
Ġ in
in g
a r
Ġ m
Ġa nd
o u
i c
Ġt o
i on
Ġ d
r o
l e
a s
Ġ h
en t
Ġt h
c t
Ġ e
i l
Ġ re
Ġ l
v e
s t
o m
Ġ n
l y
Ġb e
at ion
Ġ is
Ġ T
s e
o l
Ġ g
i m
i d
c e
r a
u t
e t
Ġ A
c h
u r
o t
Ġf or
o w
Ġ S
Ġ C
i g
Ġth at
Ġo n
Ġ u
v er
â Ģ
Ġ I
Ġs t
i r
u l
a m
a y
Ġp ro
e l
Ġa s
he r
it h
Ġc on
a d
Ġ M
Ġa n
Ġa re
Ġw ith
Ġ 1
Ġw h
Ġ (
Ġ y
Ġo r
t er
i f
Ġ it
Ġ P
Ġa l
ĠT he
m ent
t s
o d
i es
o p
g e
t h
er s
Ġd e
at e
e re
u s
it y
Ġ B
e ct
Ġ H
Ġe x
a b
il l
u re
o re
u m
o s
es s
Ġb y
a nd
is t
Ġ he
r i
Ġc om
e m
l d
ro m
es t
Ġs u
Ġa t
a c
p p
a in
i ve
Ġy ou
Ġw as
q u
Ġ v
u d
i v
Ġ D
Ġ E
Ġf rom
Ġ W
ig h
Ġh a
n t
Ġ R
k e
Ġ F
o c
Ġs e
re s
Ġ 2
Ġn e
Ġ N
u n
Ġc h
Ġ r
Ġ G
Ġn ot
i al
an t
ic al
or t
Ġ le
Ġ L
0 0
Ġha ve
Ġc an
Ġs h
Ġ en
Ġs p
o g
al l
ar t
T he
ou ld
r ou
ic h
Ġth is
Ġ J
t her
g h
âĢ Ļ
a p
' s
Ġw or
d u
at ed
ion s
ar d
ou r
Ġa b
el l
om e
o st
e ar
i a
Ġp l
f f
a ct
Ġin t
ou t
Ġ im
Ġthe ir
Ġw e
Ġ U
an s
Ġ O
in e
a ge
e w
igh t
Ġ âĢ
Ġwh ich
p t
Ġu s
Ġd is
p er
Ġcon t
r u
as t
p l
e c
i z
ĠI n
a g
ou s
a re
Ġ "
id e
Ġ k
c c
i b
at er
ve l
Ġw ere
ation s
u st
Ġal l
Ġw he
a k
ar y
Ġm ore
or m
Ġin c
Ġthe y
on g
Ġa d
en d
i p
Ġre s
Ġh as
Ġ1 9
Ġp er
Ġcom p
u al
i re
Ġd o
o od
Ġb ut
Ġo ther
s o
r y
an ce
il d
Ġw ill
Ġc l
Ġm an
e p
en ce
Ġ j
ab le
a ch
o se
k s
Ġa r
res s
ĠT h
ul t
as s
Ġa pp
Ġon e
a ce
Ġm e
as e
Ġim p
re at
Ġe v
or d
ct ion
in d
Ġu n
ig n
Ġal so
Ġ K
Ġh is
ic e
a u
âĢ Ŀ
ou nt
a v
Ġin f
Ġwh o
or y
is h
Ġs o
Ġo ut
ent s
en s
i an
b er
Ġcom m
ĠC h
am e
Ġp re
ĠS t
Ġp art
Ġs c
it e
it ion
a ke
u b
im e
Ġab out
ac k
) .
Ġt e
re e
c es
ver y
ol og
or s
Ġs y
Ġth an
ou nd
on e
Ġbe en
Ġyou r
Ġthe m
Ġu p
Ġre c
Ġm ay
i le
Ġy ear
Ġp e
an g
Ġs ome
Ġthe re
u e
Ġit s
ow n
at es
r ic
Ġa g
o k
Ġst ud
a il
ĠâĢ ľ
m er
on s
l ow
Ġ qu
Ġint o
Ġbe c
i ke
nd er
Ġh ad
o ver
Ġd es
Ġ ro
ou gh
ay s
ter n
Ġ V
rou gh
Ġt ra
ing s
i e
l ic
Ġwor k
re n
er v
vel op
p h
ĠI t
it ies
op le
he d
le ct
o b
if f
ver s
Ġ 3
m s
l ud
Ġ -
j ect
Ġa ct
al ly
Ġthe se
Ġo ver
Ġg en
Ġbe t
Ġcon s
t e
Ġ ra
Ġt w
Ġw ould
on d
ation al
Ġk n
Ġne w
w e
r it
Ġwhe n
o ve
Ġu nder
ment s
Ġ2 00
Ġs a
Ġre p
st em
l l
Ġt ime
y s
if ic
ir st
Ġe ff
w n
au se
Ġsu ch
Ġpe ople
Ġc ol
Ġu se
Ġm ost
ĠTh is
Ġan y
re d
ĠU n
Ġh ow
i ent
c ess
i ous
l es
Ġd iff
at ive
Ġre l
Ġa cc
Ġb l
Ġn o
c ed
n ing
Ġinc lud
Ġde velop
Ġ Y
Ġpro v
Ġof f
Ġa m
os s
is s
Ġl ike
Ġpro du
ri b
Ġch ild
Ġe m
o v
Ġsp ec
Ġp h
) ,
Ġtw o
Ġt r
am p
Ġon ly
Ġth rough
Ġne ed
Ġ if
ul ar
Ġo b
i ed
Ġre g
at ing
ut ion
o ok
Ġf irst
ĠH e
Ġs ur
Ġex p
ar ch
u c
Ġman y
Ġo ur
f ter
Ġ2 0
rou nd
at ure
Ġ 4
Ġa c
in t
al th
a w
Ġus ed
ur ing
er m
Ġde c
Ġsy stem
Ġw ater
Ġwh at
as ed
r an
ar k
he n
al s
il ity
o ol
Ġin d
we en
Ġsu b
g ra
is ts
ic s
Ġsh ould
Ġyear s
Ġp ol
er t
it ed
Ġp r
at h
c y
ow er
i et
Ġbet ween
Ġad d
Ġre m
f t
p e
g an
Ġre se
ot h
Ġc ould
Ġat t
Ġp o
b le
e ver
ro w
f ul
ol d
is e
in k
l p
ib le
n e
Ġc ount
Ġ 5
Ġsu pp
Ġas s
Ġp res
orm ation
Ġin v
Ġm et
Ġin ter
ere d
Ġdis c
Ġhe lp
t en
ĠA s
f ore
Ġf e
Ġf l
if e
Ġwhe re
on t
se l
o y
I n
ra ct
Ġc ent
u ch
e x
Ġh igh
Ġdiff ere
ad e
Ġth ose
olog y
l and
he s
Ġw ell
ic k
in s
Ġm od
. .
Ġm ed
mer ic
it s
Ġn um
Ġe ar
id ent
in es
Ġeff ect
Ġg o
Ġtr ans
c ent
t ed
il y
ĠP ro
Ġ her
Ġc all
ch n
Ġfor m
Ġh um
ur al
Ġg ra
g y
Ġs m
Ġl oc
Ġre f
n g
Ġpl an
i vers
ĠA meric
Ġsa id
Ġl ar
Ġf ound
or k
is m
Ġin st
an ge
. "
ar s
Ġp ers
as es
ual ly
Ġc ell
Ġl ong
Ġf act
v ent
Ġinc re
Ġev en
at a
over n
er al
Ġde f
d s
ure s
Ġex t
w ard
Ġimp ort
Ġm ake
l ed
Ġd et
Ġa fter
Ġinf ormation
ot her
Ġpro cess
ch ool
Ġw ay
Ġwor ld
Ġar t
Ġj ust
ir on
e f
Ġbec ause
ect ion
v ed
Ġm em
Ġ ed
Ġex per
ur n
Ġ1 8
1 9
Ġs ame
Ġthe n
i o
Ġg et
ĠA l
Ġcomm un
ol low
Ġb u
i ence
Ġkn ow
ic t
ical ly
om m
Ġp ub
iv es
i ew
Ġf am
c k
T h
c er
ce pt
ag es
u es
ru ct
Ġ very
iz ed
c on
a h
Ġse c
Ġpart ic
Ġre qu
Ġse e
Ġc o
t y
i x
Ġbe ing
t ing
| |
Ġhe alth
Ġ ke
Ġe ach
Ġres p
v iron
Ġb ack
Ġs im
amp le
Ġc ar
Ġm uch
Ġchild ren
Ġ 6
at her
Ġd ist
Ġdiffere nt
he m
Ġo cc
1 0
ak ing
ou n
r al
Ġm in
Ġd uring
Ġte chn
t le
im es
Ġv ar
Ġm on
rou p
Ġp at
Ġag ain
g et
n ess
iz e
Ġde p
Ġt y
Ġh im
ĠF or
Ġst ate
ĠW h
Ġs et
Ġs ign
Ġc or
' t
Ġle ar
ire ct
Ġen d
h ing
t he
Ġo wn
in ation
Ġf ollow
Ġc ur
Ġ ent
Ġrese arch
Ġs he
Ġs er
, "
f orm
ro l
u nd
ĠThe y
Ġg overn
Ġc re
ivers ity
Ġimport ant
i el
Ġm ade
ro s
and s
in ce
is hed
Ġm a
Ġapp ro
Ġd ata
ĠA r
v en
Ġa ut
viron ment
Ġ est
Ġe very
Ġsh ow
Ġin s
Ġpro ble
ĠN ew
Ġt reat
ur y
id es
ĠR e
g g
om et
Ġdo es
ar m
Ġ 7
Ġpro gra
Ġp op
in ed
Ġact iv
Ġb oth
Ġle vel
Ġcomp le
Ġsm all
ect ed
a ve
i or
Ġc ap
Ġor gan
Ġm y
ĠW e
ial ly
ut e
Ġcont in
Ġg roup
Ġpro t
Ġ19 9
1 2
Ġbe fore
Ġd own
Ġf ind
Ġp ower
Ġth ree
v ing
re ad
. ,
Ġa v
Ġdis e
er gy
Ġn ow
ĠI s
ĠH ow
Ġl ife
r on
Ġs ol
Ġp ar
Ġe lect
Ġc our
Ġ1 0
Ġs oc
h ip
Ġp oss
in al
ĠA n
Ġex ample
ĠâĢ ĵ
ĠI f
ic es
Ġstud y
ĠS c
Ġnum ber
om en
us s
it al
Ġof ten
Ġl aw
Ġhum an
st it
ĠI nd
os ed
Ġg ood
r ing
Ġre ad
im ate
Ġb o
Ġre du
Ġs chool
ain s
Ġus ing
g en
Ġt est
Ġle ad
Ġd id
oc k
x t
od y
00 0
a ir
Ġt em
Ġg row
Ġex pl
or th
u p
v es
an y
st and
igh ts
are d
Ġ 8
Ġm ust
Ġg l
Ġh ist
re nt
Ġbe l
i er
Ġm ain
Ġwh ile
r ies
ĠS p
Ġdes c
t on
ter s
Ġdes ign
Ġcall ed
Ġl ess
i ans
Ġlar ge
e e
an ts
Ġpers on
Ġv is
. âĢĿ
d er
iv id
âĢ Ķ
Ġth ough
Ġper cent
al ity
or ts
Ġcons id
Ġst r
Ġd irect
ou th
Ġch ar
n ce
ĠJ ew
Ġl it
al e
Ġf ood
her s
i ation
Ġinclud ing
Ġs erv
le ar
Ġst ill
ĠB ut
Ġ '
con om
c l
Ġa round
Ġcon f
b ers
Ġall ow
Ġstud ents
ul ation
our ces
Ġcomm on
sel f
ĠP h
d e
ĠD e
n er
it ions
1 1
i um
Ġp ress
Ġagain st
Ġgovern ment
Ġc a
2 0
d ay
Ġs k
Ġa ff
Ġv al
ĠUn iversity
o h
Ġpl ace
Ġo p
Ġre t
ire d
i qu
Ġf un
Ġgen er
Ġg reat
iet y
j or
or n
ain ed
Ġen vironment
ater ial
Ġrep ort
W h
Ġm ight
pt ion
Ġpub lic
ou se
om p
Ġsupp ort
iz ation
Ġcl ass
m an
ere st
Ġc are
Th is
i ver
Ġm il
i en
in c
d ition
Ġr is
ĠAmeric an
r ist
w ay
ill ion
Ġm ar
ul l
r ation
Ġs l
Ġde m
g er
Ġwith out
Ġe qu
Ġd ay
ĠR es
u se
Ġl ook
Ġad v
re en
ert ain
en se
Ġth ink
Ġdevelop ment
Ġph ys
ĠA nd
Ġen ergy
iv en
Ġr ight
Ġdise ase
Ġp ract
Ġl and
ul ts
iv ing
Ġf ew
Ġcont rol
ros s
act er
ord ing
ion al
ĠG od
Ġt ake
Ġe conom
Ġprodu ct
if ied
Ġg u
ak es
l ished
r is
t t
in ing
Ġkn own
m e
Ġme as
Ġ 9
ro p
id s
a x
f ace
Ġl ow
Ġle g
ĠC on
b s
Ġcell s
Ġ1 5
ĠThe re
Ġsc ient
Ġpres ent
Ġch ang
Ġre st
ol ution
iel d
w w
Ġint erest
Ġmet h
Ġs ays
Ġma jor
a z
Ġst and
cc ess
Ġunder stand
Ġed uc
Ġs it
Ġm aterial
Ġare a
iv ed
Ġocc ur
Ġan t
i od
h or
Ġwith in
Ġm at
Ġh and
Ġb ody
ĠUn ited
Ġob ject
ĠS e
Ġan other
Ġspec ies
ĠC an
olog ical
he re
en g
l ess
Ġ ve
in a
Ġw ar
ent ial
iss ion
Ġ ide
Ġf ore
Ġpro per
Ġl im
Ġpro ject
at ural
Ġres ult
Ġe t
pl oy
Ġb ro
Ġis s
Ġp ass
Ġse ver
ard s
Ġl ater
Ġs omet
g in
Ġt ri
Ġw rit
er n
at ic
ro du
Ġne ar
ĠC ent
el s
Ġch ange
Ġqu est
Ġloc al
Ġu nt
I t
l ish
er ing
u ro
ĠC ol
ĠThe se
w are
it ive
Ġo ld
Ġbe h
ent ly
ĠE n
Ġprogra m
Ġinclud e
ĠHow ever
Ġ &
Ġo per
Ġcount ry
Ġd on
Ġfam ily
et s
as on
Ġen g
er c
Ġb as
ĠA t
Ġca us
u g
th ough
Ġo pp
Ġp ot
Ġbu ild
os p
Ġw omen
Ġinv ol
ar c
Ġbl ood
n ed
Ġprov ide
Ġe as
Ġb ir
âĢ ľ
ĠCh rist
e g
Ġadd ition
c ing
Ġ ident
es p
Ġb re
Ġsever al
Ġc ult
Ġtreat ment
o le
p le
Ġst art
Ġs ay
Ġear ly
Ġcur rent
l ine
if y
ang u
Ġam ong
Ġpo int
Ġbel ie
our ce
ivid ual
at s
Ġmeth od
Ġh ig
ĠC l
Ġav ail
, âĢĿ
o id
al k
om s
ap e
es ts
Ġl ab
Ġim m
p ar
or ies
Ġto o
Ġl ast
Ġe le
pl es
ĠSt ates
Ġpartic ular
Ġh y
id ence
Ġde v
Ġr un
ĠA d
Ġper form
Ġb ra
ot e
Ġf re
Ġm us
Ġm ark
Ġpl ant
Ġt re
Ġsp e
ab ility
Ġty p
Ġ Z
is ion
is c
Ġf our
Ġare as
Ġhe re
ĠC omm
tern ational
Ġsec ond
Ġpro p
Ġsu ccess
Ġpl ay
ĠE ng
end ed
Ġapp lic
p ect
Ġm ove
Ġe l
Ġpress ure
l u
ĠN ational
ent al
.. .
c om
o f
w ork
ent ion
per ature
N A
Ġd ra
Ġw ant
Ġsur face
Ġc ertain
Ġcon st
Ġacc ess
Ġfollow ing
g ed
Ġor ig
ab ly
og ra
Ġt er
Ġt imes
1 8
a im
Ġpro f
t o
Ġb en
Ġh ome
Ġl ight
Ġ1 7
Ġp ur
Ġf ree
Ġv iew
Ġpol it
Ġposs ible
m it
Ġor der
Ġle ft
ĠâĢ Ķ
Ġop en
Ġf in
Ġan im
Ġp ain
Ġm en
ĠT o
m b
ĠY ou
Ġp ost
Ġf ar
Ġin du
Ġ [
Ġb ased
am es
Ġbec ome
Ġprov id
Ġind ividual
Ġre ce
w ays
it her
Ġd ri
Ġke ep
ĠS h
Ġcount ries
1 3
Ġto p
ĠP l
ru g
Ġimp ro
Ġbet ter
Ġsoc ial
Ġavail able
Ġtem perature
l er
Ġg iven
ur ther
Ġst ruct
Ġpro m
Ġc ause
Ġp os
Ġb est
ĠW hen
Ġme ans
Ġl ist
Ġn ame
Ġrec ord
Ġob s
Ġ Q
Ġre v
un e
Ġf ac
ĠM ed
ill s
ud e
Ġcent ury
Ġc ost
Ġc ases
id d
et ic
Ġex am
re t
Ġp ri
uro pe
Ġa ir
Ġan al
Ġ19 8
e k
il ar
Ġse em
Ġother s
Ġper iod
Ġcomp ut
e ad
u ed
Ġs ince
Ġ1 6
Ġle ast
Ġh ard
Ġc ase
an ces
Ġb i
Ġest ab
Ġunt il
Ġ1 2
Ġaut hor
Ġdesc rib
end s
ĠS y
âĢ ĵ
Ġcon n
ap s
Ġproble m
l ing
s y
Ġt urn
Ġd el
Ġris k
g n
Ġc he
Ġsa f
Ġt ru
op h
ic le
Ġab ove
Ġm ot
og n
led ge
s p
Ġ 0
Ġra d
i k
Ġn atural
ĠO n
Ġp ut
al t
Ġth ings
ure d
Ġab le
Ġcommun ity
un g
o ks
at or
ic ial
Ġl o
ĠE x
Ġl angu
Ġcon d
ore d
Ġhist ory
5 0
r im
Ġc hem
ra y
iv il
Ġme an
iv ity
Ġproble ms
f or
p or
r ate
Ġp are
Ġ1 3
Ġpre vent
W e
al f
Ġm illion
ic ult
ate ly
res ent
Ġhow ever
Ġs ite
Ġb us
Ġha pp
Ġr ights
Ġsu gg
2 00
ĠE urope
Ġdisc uss
Ġs ing
as ter
ap er
Ġre al
ogra ph
Ġc lear
le t
Ġhe ad
Ġsh ort
Ġd ue
Ġem ploy
Ġcour se
A s
c op
il ities
oh n
i ated
Ġa ge
Ġc rit
Ġre le
ĠA ll
Ġres ults
Ġsign ific
Ġcom b
Ġcom e
ĠE ar
ear ch
Ġplan ts
ak en
Ġn on
ĠA ct
Ġapp ear
Ġl ay
ir c
Ġcan cer
in ess
Ġp ast
ĠL e
Ġmon th
i ents
Ġd rug
ĠN orth
Ġdet erm
S A
ĠB e
Ġen c
Ġwor ds
Ġ ill
b e
re am
an k
u le
v al
Ġle t
age ment
as h
Ġex ist
Ġlit tle
at ory
or ld
Ġst ep
Ġlevel s
n al
Ġf il
Ġsp ace
ob al
v ious
Ġ er
Ġn et
r ont
is ed
Ġwor ks
Ġ- -
Ġfun ction
Ġl a
du ct
Ġmem bers
Ġ z
i pp
Ġg re
Ġass oc
Ġpop ulation
oc us
an e
Ġg round
g es
m a
r id
ed s
Ġha ving
Ġdo ct
Ġsystem s
Ġm ult
Ġde ath
ain ing
Ġlike ly
Ġspec ial
Ġo il
ic ation
Ġv ol
Ġc al
Ġne ver
ort un
ĠâĢ ĺ
w h
ive ly
ec ially
Ġindu st
r ated
Ġus ually
Ġben ef
Ġhig her
g ress
Ġs w
Ġrese arc
Ġeffect s
1 5
Ġv ir
Ġvar ious
b y
Ġ1 4
Ġspec ific
Ġincre ase
n ot
ĠT e
od e
Ġgen eral
sel ves
ot s
ĠH is
Ġse x
m in
as ing
Ġimp act
m ost
en cy
Ġpro te
Ġpr im
o x
p r
Ġ esp
ĠG erm
Ġknow ledge
l im
Ġf ail
an c
im ent
ut es
Ġwork ing
Ġsub st
i res
Ġ3 0
ul es
ist ic
Ġprof ess
I f
o int
Ġsim ilar
on es
Ġeduc ation
Ġbe gin
Ġtechn ology
ĠWh at
Ġchang es
Ġb ook
ra p
h ib
Ġal ong
Ġd i
Ġd ays
Ġl ower
ut ure
ĠW ar
Ġ $
Ġbec ame
Ġne g
The re
Ġlear ning
Ġf all
Ġas k
end ing
Ġrequ ire
it ing
Ġne cess
Ġpl ac
Ġstud ies
Ġactiv ity
1 7
s w
Ġto get
Ġdevelop ed
Ġtoget her
Ġs ide
ir d
os is
Ġse en
Ġen ough
Ġinv est
Ġcond itions
ĠM us
ĠB rit
S t
m p
Ġo pt
Ġyou ng
Ġinf lu
Ġpol ic
le y
ĠS oc
Ġev idence
Ġw at
Ġf urther
ĠO r
n ts
Ġreg ion
Ġresp ons
Ġchar acter
Ġeconom ic
Ġesp ecially
our s
- -
Ġw ind
ed eral
Ġf ield
le ction
ĠS ome
ĠG en
Ġdiff icult
Ġstr ong
l am
m ber
at ors
Ġf ocus
Ġm ag
ic ro
ere nce
ff ic
Ġlear n
Ġsomet hing
ĠA b
ĠS o
Ġso ft
ĠY ork
Ġthough t
Ġ .
re l
l o
Ġa way
Ġf ive
Ġne xt
av es
Ġpolit ical
ĠG e
Ġty pe
Ġsignific ant
em ber
l or
ru ction
ub lic
Ġf low
Ġto day
ĠJ ohn
Ġrep resent
Ġam ount
el f
Ġprot ect
on st
Ġs ens
is on
ic ations
le ment
Ġactiv ities
Wh at
Ġconsid er
Ġf ra
Ġe ither
er y
Ġf und
Ġm ov
Ġe y
Ġpro b
Ġcon cer
Ġk ind
orm al
read y
ĠJew ish
Ġsing le
Ġt erm
Ġc ity
Ġwhe ther
Ġup on
Ġneed s
Ġa st
Ġc reat
it or
Ġan n
Ġev ent
Ġt ry
Ġh ouse
ĠP ol
ab it
ĠW orld
oc u
Ġr ather
ĠU S
a pp
o ot
y r
Ġs ize
Ġg r
ib ility
Ġphys ical
Ġobs erv
Ġf ull
Ġd r
ĠI I
th ing
ĠTh at
Ġexper ience
" .
an n
Ġincre ased
Ġfam il
Ġcre ate
c le
s h
Ġc irc
ot t
A n
Ġs ource
Ġf ish
Ġal ways
our nal
Ġcomple te
e b
Ġm aking
Ġwh ite
Ġthem selves
Ġsub ject
Ġse par
Ġwor d
Ġres ources
ĠJew s
s c
Ġwh y
Ġke y
Ġproduct s
m ed
s ide
Ġn ational
et h
Ġcl aim
Ġgrow th
Ġchem ical
I D
Ġd om
ĠAmeric a
Ġd est
ĠC al
Ġal ready
Ġte am
Ġprodu ction
Ġlangu age
ĠEar th
Ġd am
ĠR ep
Ġro le
Ġac ross
b on
ĠA f
ĠS outh
ĠM ay
Ġit self
ĠD r
ĠO ne
Ġk ill
Ġwho le
Ġexp ress
Ġ ri
Ġsu n
Ġmod el
tt p
Ġresearc hers
1 4
Ġh alf
Ġbe low
Ġrel ations
Ġpartic ip
Ġfre qu
ch ie
ĠHe alth
1 6
u nt
it ary
Ġg as
rough t
ove red
Ġgo ing
Ġl oss
ric t
Ġprov ides
Ġph ot
Ġadd ress
f er
g est
es tern
Ġf uture
F or
Ġw r
ur ity
art ment
ĠRes earch
Ġs ent
ĠA ust
3 0
Ġs ix
Ġc op
Ġin it
il t
Ġon ce
Ġmod ern
le x
Ġl ive
ul ations
Ġfe el
c hed
i ol
Ġs um
Ġw ays
Ġl iving
Ġst at
Ġrec ogn
Ġinter act
Ġbra in
en n
Ġw ide
Ġre ally
Ġcon duct
Ġcomple x
Ġgroup s
. )
c hes
ro wn
Ġst ates
Ġc over
Ġg ive
Ġar g
Ġneed ed
i am
he t
ow s
ĠC D
Ġprogra ms
y l
or g
ĠC ar
Ġsu per
Ġ /
il s
ĠC ons
ep end
rib ut
stit ute
l ike
Ġb ig
om an
Ġst ri
Ġrec ent
ĠCent er
re g
en e
ĠM in
Ġme et
Ġind ic
idd le
Ġnet work
a e
a i
o es
in ary
ig ure
ĠB l
Ġacc ording
stit ution
ac y
Ġmed ical
Ġconsid ered
ĠCan ad
a ut
Ã ©
at ives
Ġto ward
Ġd one
ag ed
au gh
Ġrequ ired
Ġval ue
Ġsit u
P A
in ts
Ġp age
ic ine
Ġl ine
ĠC omp
Ġ1 00
Ġr ange
Ġcomput er
Ġd ig
ect s
um p
iqu e
E R
Ġto wn
ĠM ar
Ġcan not
ĠK ing
Ġcons um
ĠAs s
re me
ly ing
p ort
Ġ ess
Ġc oun
Ġl ib
Ġcl ose
Ġp ort
ĠSt ate
Ġte ac
Ġret urn
ĠEng lish
d om
Ġp ath
Ġre d
ys is
Ġ5 0
Ġreport ed
ole c
H ow
a f
Ġfor ce
Ġsugg est
m y
Ġc at
Ġj ud
Ġpr inc
Ġhist or
Ġt aken
Ġp ay
Ġsc ience
Ġtra dition
Ġmaterial s
_ _
f act
Ġal most
Ġscient ists
Ġstand ard
Ġpot ential
/ /
Ġc ame
ĠC ont
Ġrel ig
Ġto t
ul s
Ġsy m
Ġcre ated
y n
Ġb at
Ġf ront
om es
ĠS he
Ġan sw
ac c
Ġpub lished
: //
z e
ate g
Ġen s
y m
ol l
ch an
Ġan c
Ġch o
Ġmem ory
Ġpat ients
Ġpar ts
Ġgl obal
Ġpract ice
u el
Ġwe ight
l t
Ġm akes
ach ing
Ġrel ated
Ġfl u
Ġ X
Ġf ile
ou ra
Ġn ature
um b
Ġdis ord
ip le
Ġredu ce
Ġquest ion
Ġpare nts
Ġa chie
en ed
ar ing
Ġm ass
Ġh old
ĠB y
Ġact ually
Ġs ound
Ġre ason
Ġ19 7
Ġcl imate
Ġsur v
ne y
Ġt ell
Ġd ocu
Ġre pl
ve re
Ġ1 1
ĠD ep
Ġab s
Ġqu ality
Ġbl ack
Ġ20 12
en c
Ġd ia
Ġpri v
er ous
ed ing
ĠN e
Ġab ility
Ġenvironment al
Ġmeas ure
Ġbus iness
A l
Ġc e
Ġc it
ro ll
op e
ri ed
Ġman agement
erv ation
Ġinvol ved
Ġs ense
Ġbe gan
Ġdis p
ĠCh ina
Ġcol lect
ex t
Ġiss ues
g ing
i ate
x ic
ab les
Ġent ire
Ġin ternational
Ġto ok
Ġcon cent
Ġcont act
Ġart icle
Ġquest ions
ĠAf ric
n ow
Ġs qu
Ġse a
ific ation
) ;
W hen
ect ions
Ġbeh av
Ġ ut
Ġs ure
Ġw ild
Ġe p
ĠJ u
C h
Ġ ur
is ter
al es
Ġst ory
Ġhe art
Ġtra ining
Ġeng ine
ĠA fter
ĠI ran
Ġ2 5
Ġser ies
Ġide a
Ġtyp es
Ġto ol
am b
am ed
Ġint rodu
ac hes
Ġcol or
Ġestab lished
Ġp aper
se ct
im um
ist ance
Ġwe ek
iz ing
Ġoff icial
Ġear th
Ġdesign ed
Ġmus ic
sy ch
Ġs ources
ra b
et y
ĠA m
um e
ĠD NA
Ġcont ent
tern al
Ġprodu ce
Ġcent ral
' re
o ber
Ġb r
ĠH ist
iv al
ip s
one y
Ġmark et
ĠMus lim
p ts
Ġb ur
ens ive
Ġdevelop ing
Ġunderstand ing
v iew
en ces
ic les
Ġe mer
ĠW ith
Ġcont ain
Ġdoct or
Ġc le
Ġth reat
ab or
pt oms
cc ording
Ġj ob
Ġshow s
Ġdem onst
Ġgre ater
l ies
is ing
os es
Ġbuild ing
ĠChrist ian
Ġb ar
Ġf a
Ġre act
Ġn uc
Ġst ra
Ġopp ortun
2 5
Ġd iet
le ge
Ġy et
Ġar ch
Ġte xt
Ġelect ric
Ġanim als
Ġf ru
Ġl ed
Ġex erc
gra m
Ġlab or
Ġg ard
ri al
est ic
Ġch all
Ġsh own
Ġappro ach
Ġimpro ve
Ġ ver
he st
as c
ĠP er
Ġme chan
Ġpre vious
Ġthrough out
Ġeffect ive
E S
t ain
Ġthe ory
Ġm or
ch ing
ĠM an
ĠG u
Ġfact ors
19 9
Ġcontin ued
Ġprovid ed
Ġin j
il le
ce ll
ri ption
ĠN o
ĠSt ud
Ġrel ative
Ġlong er
Ġdet ail
Ġa ver
it es
as k
Ġl at
Ġrec omm
Ġnecess ary
Ġsoft ware
B ut
c il
u ary
Ġ |
ĠF ran
ĠU N
Ġ20 10
Ġfe ature
ww w
Ġt ax
Ġev olution
Ġincre asing
h aps
Ġc ivil
ar ies
Ġst e
Ġhe ld
Ġimp lement
Ġprodu ced
Ġleg al
Ġprote in
Ġfamil ies
Ġtot al
Ġc amp
Ġfor ms
us ion
Ġreg ard
as hing
Ġh ttp
Ġst op
T o
g o
Ġ Â
Ġs elf
Ġl ink
Ġev ents
min ist
u k
Ġ ir
Ġint eg
ren g
Ġpol l
ron ic
Ġstruct ure
i us
re ct
Ġs ection
Ġl ot
se qu
ĠM ore
Ġal tern
Ġhe at
ac hed
Ġr ate
ther n
Ġim age
ĠCal if
Y ou
Ġc r
ad em
uc k
o on
ce an
ig ation
Ġhe av
ud d
Ġscient ific
Ġapplic ation
Ġprob ably
Ġh abit
Ġse arch
Ġet c
Ġdescrib ed
p ro
s on
t ies
Ġ vers
Ġth ous
ĠC o
Ġcon c
ĠG ra
Ġassoc iated
n ers
Ġf at
op er
Ġcommun ities
Ġmil itary
m osp
r ary
Ġt ests
Ġa id
Ġb ul
Ġf ri
us h
Ġk ing
Ġmonth s
p ri
en ing
Ġc ut
Ġm olec
os ure
Ġv iol
Ġcomm it
Ġsym ptoms
b ased
m on
Ġst ar
ĠH ar
Ġpre d
ie f
Ġinclud es
vent ion
imate ly
Ġbas ic
ĠBrit ish
p ly
Ġt aking
Ġe ver
Ġn orth
Ġout side
Ġgen etic
Ġ4 0
Ġmag n
b re
Ġs ed
Ġd iv
et er
Ġwh ose
ĠP res
um an
os ition
Ġtra vel
Ġcour t
orn ia
Ġw in
ĠJ an
ĠIn stitute
Ġ19 4
Ġbir th
Ġpos ition
Ġa ction
Ġs outh
ĠS ec
av ing
iss ions
Ġsim ple
ĠPh il
Ġperform ance
is ms
ar ily
Ġh or
ĠT ra
ac ks
Ġf ib
Ġm ind
Ġth us
ur ies
Ġpro gress
ĠCh ar
ĠV al
Ġ200 6
Ġpat tern
Ġvis it
Ġaddition al
Ġmethod s
O N
p ut
Ġth ird
ve y
Ġg reen
ut ions
pp er
Ġstud ent
Ġ200 8
Ġrem ov
Ġsk in
in o
on se
Ġm ount
Ġd ou
âĢ ¦
ĠP ark
Ġpre c
Ġag o
Ġcol l
ful ly
Ġbu ilt
Ġmat ter
Ġpolic y
A T
m ing
o or
es c
Ġhy d
Ġdrug s
Ġh ours
Ġn ation
ur ch
ad es
Ġv ide
ĠWh ile
Ġgrow ing
Ġst reng
Ġsu st
Ġqu ick
Ġind epend
Ġpo or
ien ces
Ġcaus ed
ĠDep artment
) :
h old
in ated
Ġw all
Ġde g
ĠB o
ĠR iver
Ġ19 6
ric ult
Ġac cept
und red
Ġlit er
ĠDe velop
Ġcult ure
O n
r ans
er ior
ra el
Ġeff ic
Ġcar bon
Ġserv ice
Ġparticular ly
Ġwat ers
ashing ton
ĠP e
Ġ200 9
Ġem b
Ġschool s
Ġserv ices
Ġcal c
Ġprim ary
pr il
a ff
at t
Ġs low
Ġc y
Ġf ederal
Ġl og
ut h
ĠD av
ap an
Ġ20 11
n ces
Ġs ou
Ġde b
Ġmed ia
Ġest im
Ġcontin ue
Ġter ms
Ġrelations hip
Ġa ud
Ġp ict
al u
ur s
ĠM e
du c
Ġacc ount
Ġass ess
Ġorig inal
rap y
ĠCalif ornia
Ġt alk
in ate
Ġf ire
Ġm other
Ġm oney
Ġl ate
Ġn ormal
ĠA pp
ĠE d
Ġus es
ĠEurope an
i ra
o ly
Ġ2 4
ap t
Ġcomp ared
ren ch
Ġref er
ict ion
Ġav oid
eng th
Ġbelie ve
Ġrece ived
re st
ĠIn f
ĠIn ternational
Ġcons ist
Ġve get
Ġwrit ten
l ied
in ks
ar r
Ġm ix
op s
ĠR uss
ĠJ une
Ġun c
Ġwork ers
Ġ200 7
Ġinclud ed
Ġref lect
Ġcaus es
mit ted
Ġaver age
I N
n s
Ġs at
Ġb rought
Ġf ul
ar ian
ĠA c
Ġcom pl
Ġatt em
Ġvar iety
Ġlim ited
Ġseem s
Ġmean ing
O R
w here
an cy
ul ate
Ġal though
ist ics
Ġv ill
Ġthere fore
Ġfore st
Ġiss ue
Ġsomet imes
A N
o very
Ġl ack
ĠI m
ĠI nt
Ġde ep
Ġ2 1
Ġj o
Ġnew s
Ġresp ect
Ġbeh ind
Ġbir ds
2 2
I T
er ve
ĠA nt
Ġdec l
Ġnear ly
Ġanal ysis
r ance
Ġ ,
Ġb ring
Ġf ace
Ġsu ff
Ġpre p
Ġappro pri
Ġgener ally
Ġapplic ations
Ġpur p
Ġs us
al ination
Ġb acter
ĠA g
ĠM or
Ġde ad
ĠB ra
Ġsh all
ress ion
Ġt ur
ic a
ab et
Ġfact or
ĠInd ia
Ġmove ment
Ġtru e
h ood
l ight
Ġto xic
Ġg e
ul ated
ĠP re
Ġsp read
Ġcont ains
ec ause
land s
Ġproper ty
A nd
Ġw a
le ase
Ġreg ular
ĠIs rael
Ġident ify
Ġsaf ety
Ġindust ry
ĠGerm an
E N
m ission
y ing
Ġo x
Ġs al
is ions
Ġd og
ro gen
her n
ad s
ĠM any
Ġcom es
ĠW ashington
ĠJ apan
ell ow
Ġim ag
ĠInd ian
ĠAss oc
m at
Ġp ack
Ġb it
Ġe c
ist ry
ri pt
ĠW ill
Ġnum bers
Ġext reme
e ed
Ġh undred
ĠP r
ore s
Ġeff orts
rib ution
gen cy
Ġindividual s
Ġla un
e al
is es
Ġtra de
Ġgra du
ĠAl though
Ġser ious
Ġcap ac
Ġsit es
Ġlay er
Ġbegin ning
Ġdia gn
A R
Ġl ost
Ġro t
Ġdec re
hen s
Ġsim ply
ĠSc ience
Ġsk ills
ude j
Ġa p
Ġon line
ĠM et
ĠW est
ĠG l
ĠG ree
Ġac qu
Ġfe et
cept ion
b or
g round
Ġl ives
ell ing
Ġev alu
Ġbo oks
Ġdirect ly
Ġwrit ing
ĠAust ral
e y
Ġc ra
ĠS chool
Ġor d
ĠP ress
Ġat mosp
Ġse lect
ĠO ct
Ġ19 0
Ġpol ice
Ġlaw s
Ġaff ect
or age
Ġh ar
se e
ĠC ast
ĠM P
ĠM udej
os oph
h am
v est
Ġt rib
ort hern
Ġcomp on
Ġinst ead
es e
Ġf ather
an ced
Ġm ess
ĠC or
ri e
Ġlar ger
Ġspe ak
Ġdam age
Ġcit iz
l ife
Ġw ent
Ġm ach
ic o
il es
Ġcomp et
Ġsec urity
Ġpop ular
use um
Ġbro ad
Ġbre ak
2 6
l s
u ge
Ġt ar
on y
Ġm ill
le b
ĠP art
ĠF rench
ĠL aw
ĠCh ild
olog ies
Ġcar ry
Ġprot ection
Ġanim al
it ation
Ġh om
ĠA pril
Ġ200 5
Ġac id
Ġadd ed
Ġrem ain
Ġform ed
Ġsoc iety
S T
r ast
r ates
ol es
Ġcon dition
Ġde al
Ġsex ual
ĠSoc iety
Ġwr ite
I C
b o
w ise
ed ia
Ġre ve
ĠC ount
Ġag ree
gy pt
Ġve h
ĠEn vironment
ĠJu ly
Â °
in ct
Ġp sych
Ġd en
Ġan g
iel ds
Ġrev iew
u ous
Ġc ust
Ġf arm
Ġm om
ĠI S
ĠB ar
Ġcomp an
Ġact ive
Ġresp onse
Ġmil k
Ġche ck
Ġdeterm ine
4 0
A L
p id
Ġw arm
Ġb al
Ġth ing
Ġl ic
ter m
and er
ĠN A
Ġus er
Ġdec ision
Ġdef in
Ġhealth y
ug ust
Ġspe ed
Ġtradition al
g ar
Ġn amed
id ed
ĠC ity
Ġsp ir
ap ter
Ġhigh ly
Ġcap ital
Ġread ing
Ġobject s
Ġpriv ate
en ic
Ġc ard
Ġc ross
Ġre ach
Ġl ands
od ies
ĠE m
Ġso on
Ġsy n
Ġhum ans
Ġdoes n
Ġsol ar
Ġide as
Ġorig in
ĠQ u
C T
I V
Ġb ab
ar i
Ġre n
ĠS m
Ġst ru
Ġex c
Ġr out
all ed
Ġwe b
pt ember
ens ion
Ġro ck
abet es
O ne
r or
u z
w ater
Ġt end
Ġf oot
Ġm icro
as ons
Ġe ight
Ġl if
ĠP ar
ri age
av a
Ġso il
oun ts
H e
c ome
Ġt akes
ed i
Ġn ut
ĠM ost
ain t
ĠE gypt
ĠU s
ĠO ther
Ġshow ed
Ġdri ve
Ġsaf e
ffic ient
d d
ĠP ers
us ed
Ġr ules
Ġk ids
Ġinf ection
over ty
Ġdes alination
ĠIs lam
Ġperson al
Ġel se
Ġdra w
Ġens ure
u fact
Ġh on
ce mber
ĠC oun
Ġst orage
ĠJ ournal
Ġdo ing
Ġrec ently
Ġelect r
Ġmil es
ĠJan uary
m ore
it er
oc ol
Ġoff er
Ġloc ation
Ġlar gest
Ġhim self
Ġlook ing
Ġproper ties
Ġcost s
Ġenc oura
Ġcle an
E T
ĠC ong
ĠM on
ĠM ass
Ġwe bs
lic k
ran ge
iqu es
Ġdev ice
Ġdev ices
Ġdocu ment
P ro
W ith
i ers
Ġs le
Ġf oss
Ġl ove
om ing
Ġst ream
Ġv ict
ĠR ec
Ġtrans port
Ġco ast
Ġdise ases
Ġoccur s
Ġneg ative
Ġey e
ĠCanad a
Ġrelig ious
Ġcapac ity
3 2
c ks
i able
it ude
Ġm id
Ġh ands
Ġl ines
ĠS erv
ĠH uman
Ġse ason
Ġad op
Ġpart y
Ġfe ed
Ġloc ated
Ġext ra
Ġbehav ior
er o
Ġc ou
Ġb illion
id er
ĠS l
ĠS an
ust er
Ġqu ant
tern et
ĠV ir
ĠUn ion
Ġexp osure
Ġrem ains
Ġinst it
iver se
S o
or ation
Ġf av
Ġin sect
Ġpro ced
ĠH er
oc r
Ġse vere
Ġdis pl
Ġocc up
Ġvide o
y ond
Ġt en
ic ated
ent h
ĠC our
iz ations
Ġplan et
Ġpers ons
Ġant i
Ġstart ed
ĠAssoc iation
b an
h y
l in
is l
Ġm ental
ol ic
Ġg ot
id a
Ġu nd
ill ed
Ġman ufact
Ġcomm erc
ail y
Ġinter p
Ġprocess ing
Ġlead ers
Ġallow s
Ġfore ign
" ,
2 4
Ġw alk
ro om
im ents
Ġst ress
ĠB udd
ess ion
ĠE duc
Ġte le
Ġro b
Ġtra ck
Ġlead ing
Ġele ments
Ġill ust
ĠPres ident
Ġs il
Ġs em
Ġb ase
ct ions
se c
ĠA rab
am in
ac es
ĠE l
ĠF eb
Ġse qu
Ġsh are
Ġqu ite
Ġatt ention
ĠAr t
Ġins ide
Ġmult iple
Ġvir us
ĠTe chn
Ġplac es
Ġgard en
ĠDav id
6 0
a ul
p s
in y
Ġb ott
Ġf uel
Ġin n
ent ially
ab ilities
Ġatt ack
Ġmin utes
Ġtest ing
8 0
i ples
l ier
er ation
Ġfor mer
ĠM ount
ĠD o
ĠD is
ĠW ater
Ġsc reen
Ġpr int
Ġget ting
Ġcap t
2 1
2 9
b it
u pp
at ur
Ġm ob
ul f
ĠL ord
Ġrequ ires
Ġser ver
Ġsol ution
Ġestab lish
Ġmot or
Ġvir t
2 7
A t
a id
u ff
Ġa ware
Ġw ood
Ġd ang
ce ed
ver se
te e
Ġra pid
Ġsupp ly
Ġcent er
Ġdiffere nce
ĠRe g
Ġa im
Ġm iddle
el t
el lect
ip ment
Ġper haps
ough t
Ġma x
Ġpop ulations
Ġaff ected
Ġmeas ures
Ġcrit ical
anc ial
Ġanc ient
Ġdisord ers
2 3
i ology
n a
n es
or ge
Ġfor ces
ĠC ivil
ĠM ary
pp ing
Ġv acc
res p
Ġapp lied
Ġra re
Ġph il
Ġsur round
oy al
ines e
Ġcor rect
Ġdem and
Ġinflu ence
Ġsust ain
ĠCoun cil
r ations
Ġp ul
le ton
Ġh ost
Ġg ave
ĠS ch
Ġcon ce
ter ior
ĠB er
ĠE ast
oc ks
ĠG reat
Ġrep orts
Ġcol d
Ġtrans l
Ġprocess es
osp ital
ribut ed
Ġess ential
Ġachie ve
H E
b ran
w o
it is
Ġf inal
Ġd ry
ro y
om b
Ġbe g
ĠA ugust
os ing
ass es
ound s
Ġgen e
ove mber
Ġinst ruct
ĠSe ptember
Ġlater al
Ġtri al
ĠComm un
B y
Ġs and
Ġc ode
Ġd ate
Ġu lt
Ġwh om
Ġnum erous
Ġmon itor
ĠRe ad
Ġsmall er
Ġmajor ity
Ġstep s
Ġinvest ig
Ġansw er
ĠHist ory
Ġquick ly
ĠNA SA
e ks
g al
ed om
Ġd ied
as ts
Ġv ent
ĠF lor
Ġ2 3
Ġr ule
Ġj ur
ach use
Ġro om
Ġany thing
Ġ6 0
Ġtechn iques
Ġpat ient
Ġequ al
Ġthink ing
Ġce leb
7 0
Ġt ree
it le
Ġe th
se t
Ġpre gn
Ġgen es
Ġgo al
Ġeas y
Ġtry ing
Ġobserv ed
t ts
Ġ x
on a
Ġh ot
ĠA ccording
Ġcon cept
Ġr ates
Ġad minist
Ġdisc overed
Ġask ed
Ġsitu ation
Ġexerc ise
Ġchall eng
achuse tts
ĠS ol
ru ary
ĠPl an
cop ation
Ġcomplete ly
Ġteac hers
ĠDevelop ment
Ġappropri ate
Ġtar get
O S
t ime
y le
y ear
Ġs am
Ġe at
Ġn ight
ĠM arch
The se
ĠJ es
ĠCh inese
ph as
Ġuse ful
Ġdep end
Ġallow ed
ĠSy stem
Ġplac ed
b ook
z ing
Ġs on
Ġs old
Ġf em
ĠS er
Ġon es
am a
ĠM ex
Ġal one
Ġch ance
Ġar ri
Ġsa w
Ġresp ond
air s
ĠDe cember
Ġexam ples
Ġbenef its
Ġattem pt
ĠWill iam
ĠBudd h
R E
S ome
i ar
Ġb ad
em s
ant ic
Ġim ages
ĠO ff
ens ity
ĠIt al
Ġbl ock
ĠPro t
ĠPro gram
Ġeas ily
Ġcurrent ly
ograph y
Ġfail ure
Ġsed iment
Ġcitiz ens
Ġwebs ite
3 5
v ant
Ġm ission
ir m
Ġag ricult
Ġbec omes
ren ce
Ġhelp s
Ġval ues
Ġeconom y
Ġstand ards
Ġold er
Ġcult ural
Ġpri or
Ġexist ing
Ġsubst ance
Ġrespons ible
ellect ual
i ations
k n
re c
Ġc red
ot ed
ĠH igh
Ġnot hing
ĠJ ames
Ġimport ance
Ġconf lic
Ġdi abetes
Ġmom ent
d ing
m ar
Ġp ages
Ġf igure
ic ate
Ġl ength
st er
ĠS im
if t
pp ed
ĠIn c
Ġpre t
Ġpo ints
Ġstr ateg
Ġsl ight
Ġinterest ing
ĠRep ublic
U n
r ant
Ġp p
Ġb orn
Ġd aily
Ġh arm
Ġas pect
ĠG overn
ire ction
ĠK e
Ġwork ed
Ġexp and
Ġexp ected
Ġredu ced
Ġproject s
Ġbenef it
Ġofficial s
b ur
in ical
Ġc ool
Ġp et
Ġb eds
Ġb odies
Ġf ear
Ġm ut
Ġd ark
ent y
am m
ĠF rance
iz es
ag ing
orm s
Ġqu ar
Ġeff ort
Ġtechn ologies
Ġfollow ed
Ġadv ant
Ġprovid ing
Ġsepar ate
Ġtool s
Ġstreng th
C C
f ect
Ġm al
ĠL ib
Ġoff ic
ins on
Ġlo ad
w ide
ic ip
Ġto ld
ĠT ex
id el
ĠS am
Ġst ay
ĠF l
ĠF irst
Ġatt ract
Ġlim it
rim ination
Ġful ly
k y
u ra
re hens
Ġb ord
Ġb ran
Ġwe ather
ĠK ore
Ġem p
Ġfl ood
ger y
Ġconst ant
Ġpos itive
Ġdig ital
Ġut il
Ġelectric ity
Ġdou b
ĠMass achusetts
Ġcommerc ial
ro te
Ġg ives
ĠF ound
res h
The y
Ġpres ident
Ġmem bran
Ġfil es
Ġthous ands
Ġcompan ies
Ġsle ep
k ing
m en
Ġt um
Ġs ect
is her
as ion
Ġre asons
ot ic
ast ic
are nt
rel ated
Ġfru it
Ġaltern ative
ĠMP a
3 8
E x
o ff
Ġb an
Ġf ight
id ents
ĠP at
ĠD uring
Ġha ir
ĠG o
Ġj ournal
Ġtr uth
Ġpres ence
Ġear lier
ward s
Ġins p
Ġorgan ization
ien cy
Ġhig hest
Ġtre ated
Ġfin ancial
ĠGen eral
Ġsum mer
Ġarg u
ĠFran c
Ġstru gg
y p
Ġo cean
ĠA lex
ĠP M
Ġsh ape
Ġen h
Ġwe eks
Ġcont roll
Ġcomp ar
olog ist
Ġrem ained
ĠPro v
ĠAmeric ans
Ġcommun ication
Ġco ord
Ġbas is
ĠMed icine
Ġrad iation
rid ge
Ġri ver
Ġestim ated
Ġbacter ia
kn own
a ur
b i
b ack
w ar
he ad
Ġbe yond
Ġg ame
Ġu pper
Ġyou th
ĠN ow
Ġr ise
Ġad ults
Ġcomm and
Ġpe ace
Ġ200 3
Ġoff ers
Ġaut om
ĠRe v
Ġfood s
Ġann ual
Ġdr ink
Ġstat us
Ġconduct ed
Ġfa ith
Ġfib ers
ĠOct ober
D S
e es
i ance
m et
t ained
x imately
Ġt iss
he l
ĠS ee
Ġ19 5
Ġsol id
Ġdesc ription
Ġequ ipment
Ġsuccess ful
Ġrece ive
Ġpare nt
Ġdeg ree
j ust
o ke
r s
y stem
Ġs n
Ġp overty
Ġb all
ul a
ĠM c
ĠM od
ĠR ed
Ġr ul
ell ig
Ġim pl
Ġ200 4
Ġexper iment
Ġpass ed
Ġbelie ved
Ġrun ning
Ġconst ruct
Ġchemical s
Ġhistor ical
ĠCour t
j oy
Ã Ń
al ing
Ġb ound
ĠB ecause
qu e
ĠD ay
ĠE ven
ĠF rom
Ġpr ison
Ġincre ases
Ġemploy ment
Ġgr ant
ĠAfric a
ĠFlor ida
4 5
A S
x ual
Ġt ou
or ing
Ġd ivid
Ġh ope
st e
Ġn or
Ġfor ward
ĠS ur
od es
ĠD ec
ĠU nder
Ġcol lection
Ġem phas
Ġmed icine
Ġanal y
ĠFeb ruary
h t
Ġt able
re w
Ġw on
Ġw rote
it able
Ġp ric
Ġf air
Ġn ative
ĠA ng
ĠThe ir
ĠO s
Ġk id
Ġexper ien
Ġevery thing
Ġphys ic
ĠCol lege
Ġtyp ically
wh at
enc ies
ĠIran ian
ĠTex as
I S
k en
ar a
ĠT rans
if ically
ri a
ĠW estern
ign ed
Ġsome one
erv ed
Ġ200 0
Ġtrans fer
lo ad
yr ight
resp ond
ĠJes us
e ff
o o
Ã ¡
Ġm ention
Ġd er
Ġbe aut
im al
ĠM y
Ġex act
Ġcom ing
un n
Ġint ellectual
ib ly
Ġun ique
Ġdes p
Ġexp osed
Ġpo ly
Ġcor n
Ġorgan izations
ĠAt l
Ġrele ased
Ġnuc lear
Ġfeature s
ĠPe ople
2 8
3 7
b l
it ness
Ġd irection
âĢ ¢
od ay
ĠW ork
Ġnot ed
Ġoff ice
Ġdisc over
ĠAs ia
Ġfind ings
Ġtemperature s
Ġindust rial
Ġdest roy
Ġphil osoph
Ġs ch
Ġs we
Ġc ities
or ph
Ġp en
ers on
ĠJ ud
Ġcont ext
ĠIn st
ob e
ick ing
Ġcar ried
Ġset t
Ġent er
Ġmar riage
Ġchang ed
Ġhy p
Ġturn ed
het ic
yn am
ĠInf ormation
Ġpurp ose
c ial
Ġt im
Ġm is
ic ted
Ġh ous
Ġis n
se mb
ĠA N
ĠI ts
ac ed
Ġne igh
Ġle ave
Ġqu al
Ġ20 13
Ġdist ance
Ġappro aches
ĠSp ace
Wh ile
Ġleg isl
Ġmov ing
Ġspir it
ĠCong ress
A r
d ed
y gen
is p
it ect
Ġm ig
ĠB ay
Ġse ven
ĠN ot
ĠN ovember
Ġpart ners
Ġdist inct
ĠSp ec
ĠCon f
Ġtre es
Ġstruct ures
Ġauthor ities
Ġconn ection
Ġsugg ests
Ġhabit at
Ġcust om
3 6
A ll
g ment
Ġw ond
ar ia
om y
Ġg al
ĠS w
end er
Ġres istance
ose xual
ĠCh urch
Ġra in
Ġdec ades
hem at
ĠEng land
Ġrecord ed
Ġcomb ination
Ġprinc iples
Ġopportun ity
Ġpict ure
e qu
i ant
p ing
Ġ ...
Ġt ub
re et
it ler
Ġcon ver
ĠM a
ĠP ublic
ĠH en
Ġex hib
iv ation
ĠN et
Ġr ound
ru pt
ie ce
Ġgo es
Ġmain tain
ĠPh ys
Ġpract ices
pect ive
Ġconst ruction
Ġpur ch
Ġneg ot
Ġbab y
h ouse
er g
en ge
Ġc rop
Ġp ow
Ġb reat
Ġf ert
ĠS ince
Ġ2 8
ond on
Ġem issions
Ġreg ions
Ġinterest ed
Ġeduc ational
Ġprop osed
Ġappear s
Ġviol ence
Ġfoss il
or ks
Ġp it
ing u
ĠH ere
ri an
rom e
ĠD em
ĠR ef
Ġ2 6
Ġch ronic
Ġsc ale
Ġro ad
Ġel im
ĠGerm any
Ġprofess or
ĠMuslim s
ĠCount y
ĠEnvironment al
Ġbott om
Â ·
al ed
Ġm er
Ġl ived
ut ed
Ġex cept
ri ef
Ġwor th
ĠIn ternet
Ġcomp any
Ġsy mb
Ġup d
Ġdiffere nces
ĠPro ject
Ġgra nd
Ġbel ong
Ġident ified
Ġclear ly
augh t
ĠChild ren
ĠEduc ation
' ve
D A
S ee
y al
al m
Ġd im
Ġn orthern
ĠM iddle
ĠH IV
Ġus ers
Ġapp e
Ġinst ru
19 8
cl us
for ce
Ġvol unt
Ġrequire ments
ĠGe orge
Ġrelative ly
ĠChar les
i pl
l ar
w in
Ã ¶
Ġc ru
is ation
or ial
Ġg ir
am er
Ġcon stitution
ĠD an
ĠR et
ĠG r
Ġle aves
Ġcons ervation
Ġ200 1
Ġplan ning
Ġmem ber
Ġcor respond
Ġlear ned
Ġpower ful
Ġtem por
Ġcommon ly
Ġgener ation
Ġcreat ing
Ġtoward s
Ġopportun ities
Ġ =
Ġ i
er ate
Ġc ards
Ġl iqu
Ġl inks
Ġn ames
ĠP aul
um in
ĠR oman
Ġ2 2
ĠJ er
Ġper man
Ġsc hem
Ġover all
Ġ200 2
iss ure
io x
ĠWe b
Ġbo x
Ġdid n
Ġvis ion
Ġconn ect
Ġdiscuss ion
Ġjob s
Ġrecomm end
Ġheav y
Ġvers ion
Ġdispl ay
a ign
i h
p ris
r ight
Ġw estern
Ġw oman
Ġp an
Ġm iss
ou d
Ġn ations
Ġcon v
Ġcon vers
Ġv it
ĠF ederal
Ġsh ut
Ġen joy
Ġstud ied
Ġact ual
Ġrep rodu
Ġany one
ĠIs land
Ġinit i
Ġnuc le
ĠVir gin
S I
a us
b and
c ra
e v
h ma
Ġc ere
Ġp ip
Ġst ories
ĠM ich
Ġv ary
Ġr ang
ap ers
Ġpl ans
Ġinc or
Ġcol on
ĠY our
Ġdist ribution
ĠCent ral
Ġbre ast
Ġbi ological
Ġey es
Ġcoun ter
Ġbat tle
Ġindepend ent
Ġaud io
C E
S c
Ġw est
Ġf ix
ĠThe n
Ġex cess
Ġhe m
Ġ2 7
Ġnot e
Ġsp in
Ġcont em
ĠIn ter
Ġno vel
Ġappro ximately
Ġorgan isms
Ġimpact s
Ġprofess ional
Ġkill ed
Ġwide ly
Ġmeet ing
Ġfri end
Ġlands c
Ġmax imum
ht m
c he
s enic
Ġp hen
Ġf ields
Ġg ain
Ġg iving
ig en
Ġst ars
Ġcon sequ
ĠM ars
ĠM useum
ist ant
Ġhe ar
ĠE v
ĠG reen
ran ts
Ġmod els
Ġexper t
Ġrecord s
Ġintrodu ced
Ġwin ter
Ġpattern s
Ġbal ance
3 3
A fter
E L
F rom
e er
f ord
g reg
Ġs ong
Ġb ond
Ġf ig
Ġh it
ĠC O
ĠL at
ĠJ on
ear s
ĠO f
Ġdis s
ric k
Ġrep e
Ġhelp ed
Ġ18 6
ĠAr ch
Ġ199 0
Ġprote ins
ĠSoc ial
Ġdom estic
ĠAfric an
Ġextreme ly
Ġvict im
Ġfav or
ĠFound ation
b ed
on al
Ġs en
Ġs av
ĠA v
Ġst age
ĠE ach
ke y
oc ation
Ġr ich
Ġsp ring
Ġar m
Ġar rest
ord s
Ġcons ists
Ġke pt
Ġback ground
Ġset tle
Ġsign s
Ġ199 9
Ġfun ctions
Ġfre edom
sp ec
Ġlic ens
Ġconce pts
c an
in er
Ġthe rapy
ĠC ap
ul in
Ġan terior
Ġex ec
ast e
Ġcomp rehens
Ġar my
Ġtra ffic
Ġdisc rimination
ĠPro f
ĠAl so
Ġop in
ĠSe a
Ġbro ther
Ġoper ating
Ġinvol ve
Ġview s
Ġprom ote
Ġopt ions
Ġevent ually
Ġteac her
Ġdisord er
c ious
Ġc ateg
Ġf if
Ġin ternal
ar row
ic it
il ing
Ġre ality
Ġis land
et ics
Ġpro hib
ist an
ĠD ar
ĠL abor
orm ally
Ġext ent
Ġdet ect
Ġart icles
Ġmin or
Ġserv ed
Ġoccur red
Ġrele ase
Ġconcer ned
Ġfrequ ently
Ġatmosp here
ĠServ ice
ĠTechn ology
ĠMex ico
D P
N ew
T e
re es
on ic
Ġf resh
om ic
ol ved
id ing
ĠA re
ur rent
Ġst em
her ic
Ġsu fficient
un ction
ĠL ondon
ear ing
ress ed
Ġapp ly
âĢĿ .
Ġ3 00
Ġmost ly
Ġem ail
Ġ18 9
Ġvis ual
Ġpresent ed
Ġoper ations
Ġimm edi
Ġconn ected
Ġanc est
Ġremov ed
Ġox ygen
C O
H A
I G
c omm
i as
r ig
Ġ ille
Ġin put
ra g
ch ar
Ġfor ced
ir ing
ĠW ol
ĠR el
Ġcont ract
ous ly
Ġun f
Ġcre ation
Ġprot ocol
Ġ199 5
Ġexpl ain
Ġresult ed
Ġresult ing
Ġimm une
Ġter rit
ĠMed ical
Ġdetail s
rie ved
Ġren ew
Ġdesp ite
C R
c us
p ed
p us
Ġin her
Ġm os
Ġh uge
ct ic
ol id
am ental
ĠM at
if orm
Ġal le
ĠH itler
ac he
ac her
Ġv ia
ĠF in
Ġr at
ĠO ur
Ġem ot
Ġsur vey
Ġrem ember
Ġget s
Ġchang ing
Ġtre nd
augh ter
ze ch
Ġeffic ient
ĠAc adem
Ġimmedi ately
3 1
c ont
e an
u it
Ġs ort
al le
Ġm ap
et t
Ġst aff
Ġal t
Ġwas te
ĠE mp
ĠF ore
ĠL ou
ĠL ife
ap ed
Ġres ource
ĠTh us
Ġsc en
ĠV ol
Ġevery one
Ġcomple ted
ify ing
Ġrev olution
ĠSy n
Ġdeterm ined
ĠII I
Ġclaim s
Ġdivid ed
P h
b al
d own
m al
r at
v ity
in ity
ĠM D
if ul
Ġsp ect
og en
ap es
ec es
oss ible
Ġexper ts
Ġmin imum
ĠCon stitution
Ġcomb ined
Ġill ness
Ġcharacter istics
Ġsqu are
Ġfri ends
Ġlaun ch
Ġslight ly
C L
I s
O T
u a
z y
Ġ ice
Ġp iece
Ġf ast
ĠS en
ĠH ung
Ġcont rast
Ġun ivers
ĠK h
rib ute
ov ak
Ġexp ect
Ġac adem
cy cl
Ġpres c
Ġgra vel
Ġdef ined
rol og
Ġele ment
Ġperform ed
Ġfin ally
Ġfac ilities
Ġlet ters
Ġmov ed
ĠCanad ian
Ġpoll ution
ĠAustral ia
ĠOff ice
Ġconflic t
ĠKore a
ĠFranc isc
E D
b ach
c o
r ition
Ġ ign
Ġ esc
Ġe gg
Ġre b
Ġg yr
ad o
ri z
oc al
ĠL ear
Ġint ended
Ġme ant
olog ists
Ġro yal
Ġcol ors
Ġcontin ues
Ġredu ction
ris is
Ġmeas ured
esp ite
Ġsuper ior
Al though
Ġhar vest
Ġmach ine
Ġchalleng es
3 4
M any
u ild
y t
Ġb one
an a
Ġin h
Ġto mat
Ġd u
il ed
ot es
Ġst ore
ĠM al
ĠM il
ĠB ro
ĠW ind
ĠG re
Ġsp orts
ĠO ver
Ġper fect
Ġinf ected
Ġbec oming
Ġshow ing
Ġele ction
Ġimpro ved
idd en
Ġpolic ies
Ġann oun
Ġcirc um
Ġexpress ion
Ġconsum ption
Ġreturn ed
How ever
Ġprevious ly
Ġmor ning
go ing
Ġrefer red
Ġprep ared
ĠGree k
M ost
c les
d es
en ced
Ġc ry
Ġp aid
om a
ĠT ur
ur d
Ġcon vent
ad a
ĠB el
Ġex cell
os en
Ġhe ard
Ġsp ent
Ġwe ak
Ġman ner
Ġj u
ish ing
Ġsy nt
Ġact ions
Ġcol lege
Ġdec ided
Ġeffect ively
Ġgo als
Ġref erence
Th at
Ġser ve
ee ch
ĠEn ergy
Ġeas tern
ĠComm ission
Ġdescrib e
Ġhapp ens
Ġsignificant ly
Ġcamp aign
Ġmess age
Ġinterp ret
Ġvent ric
Ġadvant age
Ġgal ax
8 9
B S
B e
m ark
w est
Ġw ww
Ġb and
Ġf aster
Ġth ick
Ġl es
om as
Ġn it
Ġis ol
ra m
ul um
um n
Ġhe ight
ĠW ild
un k
ĠU se
ag er
Ġsa ve
Ġform ation
Ġpartic les
Ġlarge ly
Ġmat hemat
Ġtri ed
Ġlangu ages
ortun ately
Ġfrequ ency
Ġport ion
Ġsect or
Ġkid ney
ĠHen ry
A b
G en
R es
h a
t ical
at ers
Ġs end
Ġp un
Ġf ine
Ġm ere
Ġl ung
ĠC om
ĠR ich
Ġad ult
Ġcl im
Ġj oint
Ġcount y
Ġco al
Ġstate ment
Ġcontin uous
Ġdirect or
Ġrele vant
Ġreact ion
ĠPark inson
ĠGovern ment
I P
L E
U N
l ers
l ong
u x
w ood
he im
Ġb urn
Ġf o
Ġre ached
Ġn av
um ber
Ġle aving
ĠL a
Ġwe ap
Ġinc ome
Ġsupp lies
Ġinst all
Ġinst ance
Ġsec ret
Ġgovern ments
Ġ7 0
Ġfind ing
stand ing
Ġpract ical
Ġinterest s
aim ed
ograph ic
Ġlay ers
ĠBrit ain
Ġarch itect
ĠRuss ia
ĠCast leton
Ġveh icles
ĠEmp ire
ĠLou is
A ccording
f ort
Ġ Ã
er ia
at form
ra w
ul ating
Ġ2 9
ĠL ake
Ġsp eech
ag ue
Ġcl os
reat ment
Ġpre fer
Ġte aching
Ġfam ous
Ġorgan ized
Ġ199 8
Ġmar ine
Ġplay ed
Ġdiscuss ed
Ġcrit ic
Ġexpress ed
Ġdocu ments
Ġlat ter
Ġsou thern
Ġcompon ents
Ġmembran e
Ġexperien ced
A P
e or
i i
n ic
Ġt ask
Ġp i
Ġp ray
al am
ou thern
Ġd ynam
Ġh op
ĠC zech
Ġst ation
el es
os ystem
ĠE lect
ĠN atural
ib l
ak s
âĢĿ ,
Ġte eth
Ġnew sp
Ġfl oor
Ġjust ice
ict or
Ġtechn ique
Ġorgan ic
Ġredu cing
Ġsupport ed
Ġtri als
ĠCol or
Ġsound s
Ġelectr ical
ocr atic
Ġpric es
ĠRet rieved
cra ft
. '
c her
in i
Ġc ore
ĠM ill
ĠP al
ĠB en
ĠD es
ru st
Ġinf orm
Ġoff ered
Ġspec ifically
Ġtr ig
Ġob vious
Ġ4 5
Ġdisc overy
Ġauthor ity
ogn itive
Ġvol ume
Ġprim arily
Ġsubst ant
Ġinit ial
Ġwaters hed
Ġvill age
Ġsus p
ĠMudej ar
Ġproced ures
Ġsymb ol
ĠVirgin ia
' ll
H O
I I
N ow
a res
a ult
j o
Ġs ac
Ġs ick
Ġw ife
Ġp ump
Ġm o
st ream
Ġst ated
th at
Ġv ast
Ġha z
ĠF ood
Ġsp ot
ell ed
ost er
Ġper ce
Ġro ot
Ġ3 5
Ġ5 00
Ġbu y
Ġtest ed
Ġchar ge
Ġlim its
Ġcaus ing
Ġbuild ings
Ġwr ong
Ġcho ice
Ġveget ables
Ġinsect s
ĠAlex ander
Ġliqu id
cycl op
3 9
C D
i os
z er
Ġc overed
it ud
Ġf it
ing ly
Ġd rop
Ġe ast
ĠT or
ĠS u
Ġhe aring
ĠJ ust
Ġcl uster
Ġme at
Ġun iverse
Ġte ach
Ġsy nd
Ġkn ew
Ġph one
Ġsur gery
Ġlead er
Ġeas ier
ĠComm it
Ġkind s
Ġemer gency
Ġlink ed
Ġtiss ue
Ġsch ol
Ġperman ent
Ġincor por
A ID
G O
p at
p art
r um
in ter
Ġp estic
Ġb ed
Ġd oll
as tern
Ġh us
ĠC ath
Ġy ellow
if ies
ĠB rown
Ġch ief
ĠO b
ak ers
Ġunder st
Ġam ounts
Ġass um
Ġcent uries
Ġmod e
Ġform al
ĠWh y
Ġadv ice
Ġ9 0
ĠOr gan
ĠCar ol
Ġsuggest ed
Ġchall enge
Ġregard ing
Ġcoll abor
Ġhundred s
ĠMudej ars
Ġmill ions
idel ines
, '
R O
n o
s es
s hip
z il
Ġ :
Ġc and
Ġp lease
Ġd at
Ġe ating
ur ation
ist ed
est alt
Ġcont aining
Ġk m
Ġcl inical
ens us
ĠSt and
Ġpr ice
Ġrem ove
Ġcall s
iven ess
Ġmot ion
Ġhouse hold
Ġparticip ants
Ġabs or
Ġhon or
Ġbeg ins
Ġcred it
Ġdoub t
4 9
7 8
S p
U S
b all
c ast
h ors
p ress
u ing
Ã §
Ġt ape
Ġa th
Ġs ections
is hes
ĠA M
ĠC he
ĠM em
ter y
Ġex ternal
ab il
ill ing
os h
Ġcom ment
Ġsu gar
Ġsp l
ost on
Ġimp ossible
Ġun it
Ġpart ies
Ġ3 1
Ġrun s
Ġlist en
Ġfra m
Ġrelig ion
Ġmeasure ments
Ġrecomm ended
Ġrelationship s
Ġadop ted
Ġrapid ly
ĠMary land
Ġstrateg ies
M ore
a j
in f
er als
Ġs ul
Ġs alt
Ġp ou
Ġp le
Ġin act
ro t
Ġh unt
Ġre cept
Ġst im
ĠM o
ere nces
us al
ĠD irect
ĠN av
Ġsh ip
ber g
Ġtra d
Ġdef ects
ĠSc ient
Ġallow ing
Ġgu ide
Ġant ib
Ġpot entially
Ġmus cle
Ġpost erior
Ġconcer n
Ġgr ass
Ġur ban
Ġthous and
Ġmolec ules
Ġcompon ent
Ġinstit utions
Ġphen omen
Ġgyr us
ĠCommit tee
B I
n am
Ġc risis
Ġf ro
Ġf isher
an ish
Ġn arr
ĠT est
im ize
ess or
Ġdis k
Ġcol le
Ġhelp ing
Ġpat ent
Ġbo ard
Ġdirect ed
cl usion
Ġtop ics
ĠQ ue
Ġlet ter
Ġcop y
Ġsurv ival
Ġincreasing ly
Ġmolec ular
Ġhor iz
Ġtoxic ity
Ġpregn ancy
Ġfem ale
Ġwond er
Ġappe ared
Ġille gal
4 8
D uring
U R
c hers
i ot
w ell
Ġt rou
at ric
Ġm ic
Ġm outh
Ġn ine
ĠS um
ĠC op
ĠR ights
ĠR ober
Ġnot es
Ġcont ribut
ag ers
Ġother wise
Ġj ury
Ġun s
Ġcent ers
Ġco oper
Ġpar alle
Ġsl aves
ĠCol umb
Ġhapp en
Ġfund ing
Ġrecogn ized
Ġcy cle
Ġselect ed
Ġhous es
Ġpi eces
D T
O ther
r ating
v an
y e
Ġt iny
in ent
Ġthe r
Ġw itness
or al
Ġin hib
Ġh ur
ĠS ub
Ġst orm
am s
ĠM ag
od s
Ġv es
ĠR em
Ġr ural
all s
ĠU p
Ġsome what
Ġfact s
Ġsee k
ĠWh ite
Ġset ting
ĠSc iences
Ġclass room
Ġsay ing
Ġbelie f
Ġimm ig
Ġtyp ical
Ġdoct ors
Ġprofess ion
Ġcho ose
Ġinj ury
Ġlat est
Ġconc lud
Ġhor se
Ġwall s
ĠRuss ian
Ġinn ov
Ġmonitor ing
Ġdrink ing
ĠWind ows
0 5
4 6
5 5
C l
b ing
Ġt our
Ġf ell
an ks
Ġm amm
Ġn arrow
Ġn ormally
ĠA ut
ter ing
ĠD iv
ĠR o
Ġnot ice
Ġpl atform
ĠâĢ ¦
pl ace
Ġper m
Ġinf erior
Ġacc ur
ĠCan cer
Ġoper ation
Ġ198 0
Ġfail ed
Ġconcer ns
Ġast hma
Ġhyd rogen
Ġsequ ence
Ġsam ples
Ġbord er
comm un
b ial
Ġ >
Ġc rim
Ġb ill
Ġb rief
Ġm el
Ġm our
Ġd ed
ro ph
st ep
ol ve
ce ler
ch ange
ĠS uch
ĠC amb
op les
ĠB oston
os ite
rom os
ĠD ef
ĠF urther
ĠL ab
ĠJ ac
Ġint ellig
ater al
Ġar senic
Ġun less
Ġag ency
Ġbl ue
Ġob tained
Ġdec isions
Ġsupp osed
Ġass istance
Ġmed ic
ĠNew s
Ġmain ly
Ġproper ly
Ġansw ers
Ġdog s
bo ard
Ġinstruct ions
ĠLat in
ĠFrancisc o
bach ia
4 7
8 5
C on
O ur
c oh
h and
m as
m ond
o e
r as
w ing
Ġm ist
Ġm ale
ic ed
le te
Ġg old
Ġst ored
ĠM art
ĠM ET
ĠB et
ĠH all
ant a
Ġsh ar
Ġad just
Ġun ion
Ġact s
ĠY et
Ġam ino
Ġreg ist
Ġsur pris
Ġatt acks
hes is
Ġbir d
Ġwant ed
ipp ing
Ġfish ing
ĠComp any
Ġrepl ace
Ġstra ight
Ġmechan ism
I ON
in et
Ġm ice
il it
ĠS un
ĠB ook
ĠB oth
ect ive
em ploy
ĠR oyal
Ġch lor
ĠG al
ag o
Ġapp arent
Ġout put
ĠV iet
Ġcons ult
Ġtrans mission
Ġinst ruction
Ġdep th
Ġown ers
Ġelect ron
Ġposs ibility
Ġ8 0
Ġcare er
Ġadv oc
Ġbro wn
Ġiss ued
Ġtru st
Ġrad io
Ġflow ers
Ġstri ke
Ġbehav i
Ġlabor atory
Ġtax es
Ġassess ment
Ġdecre ase
Ġmanufact ure
Ġstrugg le
Ġexact ly
iox ide
Ġcontem por
Ġlandsc ape
ĠAcadem y
6 5
c ol
i very
v is
v ille
w ith
in du
it age
it ors
Ġp al
Ġf ly
Ġf asc
Ġf issure
Ġd ro
Ġl ies
ĠT er
ĠS k
ĠS outhern
est ed
ĠN ative
ĠN ature
Ġsh ared
ĠJ ose
Ġdis app
Ġro of
Ġtw enty
ĠHe bre
Ġ4 00
Ġsub sequ
Ġmed ium
Ġgra ph
ruct ure
Ġtreat ments
ĠAn other
Ġexpl ore
Ġgreat ly
Ġris ks
Ġbre eding
Ġstart ing
Ġmove ments
Ġlo oks
Ġfamil iar
Ġsubject s
Ġinteract ions
ĠCons uls
Ġlib rary
Ġtell s
Ġconcent rations
Ġinj uries
ĠBra zil
Ġveh icle
Ġsurround ing
Ġfert il
ĠWol bachia
Ġmos qu
ĠHebre w
D E
c ers
m ail
p oint
r ich
Ġw et
nd om
ic y
Ġre ject
om pl
Ġg rown
ra d
Ġon to
ĠI mp
am ent
ĠM r
ĠP ower
ĠD isc
ĠN E
Ġr ough
Ġwe alth
ĠO nce
ew ork
Ġind ex
Ġinv ent
Ġref orm
Ġext ensive
Ġexper iments
ĠAr my
Ġaut hors
Ġident ity
Ġopen ed
Ġer r
Ġrespons ibility
Ġphot os
Ġking dom
Ġslow ly
Ġaspect s
Ġquar ter
7 5
9 8
H ere
N o
O L
a very
f ield
k i
in ant
Ġs in
Ġs ides
Ġs now
Ġp ra
an cing
Ġto ler
ĠT oday
ol f
Ġg ar
ĠI ll
ĠH ouse
ĠE xt
ĠJ ava
Ġad apt
Ġcl osed
Ġph r
Ġph ase
Ġreg ional
ook ing
Ġac ids
viron ments
Ġser vers
Ġ13 0
cop e
Ġsens itive
Ġfund amental
ĠBl ack
Ġprinc ip
Ġmagn etic
atur ally
Ġdang erous
bur g
Ġcontroll ed
Ġhem isp
heim er
Ġves sel
A d
o ch
s s
t a
re te
Ġs ample
it a
Ġp ure
Ġd ial
Ġd rought
Ġd aughter
Ġh omes
ct ive
st on
om al
ĠT wo
Ġg one
ĠA S
Ġst ock
ir ty
Ġcon stit
Ġit ems
ĠP ac
Ġv o
ĠD ise
ĠF ree
ĠG ulf
Ġsh ot
og l
ans ion
ĠO cean
ru ption
Ġper ception
Ġinf ections
ang ed
Ġra ce
Ġra ised
rib ed
Ġexp ensive
Ġinter f
ident ial
Ġdef e
Ġdep ression
Ġcap able
Ġgood s
Ġequ ival
Ġrest rict
Ġhapp ened
Ġexist ence
wh ich
Ġdemonst rated
ĠVal enc
ĠIslam ic
Ġsustain able
Ġagricult ural
Ġexcell ent
cyclop edia
ĠCath olic
ĠRober t
' m
D e
d o
o oth
s uch
Ġ ~
re ed
Ġc oc
Ġf elt
Ġh our
Ġh ospital
Ġth in
ot a
ad el
ĠM icro
Ġor b
ure au
Ġv ul
ĠR ab
Ġse ed
ĠN GO
Ġcont am
ag ues
Ġman if
Ġun known
ĠV ictor
Ġra ndom
Ġprodu cing
ov iet
iet ies
Ġatt ached
Ġtechn ical
ĠAr ctic
Ġposs ess
Ġrecogn ize
Ġachie ved
Ġengine ering
Ġdeg rees
ĠSl ovak
Ġmob ile
Ġpret ty
Ġbeaut iful
semb ly
Ġgir ls
Ġfig ures
ĠJon ah
ĠSyn copation
0 1
6 9
A meric
v ision
Ġt ro
Ġt ail
Ġa qu
in ations
on ed
Ġc os
Ġn aturally
Ġg un
ur ance
ĠB ul
ĠH ospital
os al
ĠD on
ĠN or
Ġch osen
Ġr ub
ort ion
ans as
Ġman age
ov ed
Ġwhere as
Ġext ract
Ġexpl ained
Ġclass es
Ġadv anced
Ġemploy ed
St ud
Ġfocus ed
Ġtown s
__ _
ĠStud ents
Ġmount ain
Ġprec ise
IN G
Ġsat ell
Ġwarm ing
Ġvacc ine
Ġphilosoph y
Ã¶ n
* ]
C I
M y
S h
c are
f low
t hen
Ġo ption
it ch
al se
Ġf le
Ġf ol
Ġm it
Ġm ail
Ġto w
am il
Ġan th
ĠP ort
ĠH im
un ch
ort ed
Ġpl ate
Ġapp oint
Ġacc ompl
Ġac celer
Ġfl ag
Ġmed ial
Ġdep ending
Ġshe l
Ġ199 7
ĠSp anish
Ġlook ed
Ġadv ance
ĠThere fore
Ġdel ivery
Ġwind ow
Ġindic ate
lt ry
ĠMan agement
ĠGu ide
Ġliter ature
Ġcompet ition
Ġfarm ers
Ġmention ed
Ġdestroy ed
Ġneigh bor
Ġnucle us
Ġparalle l
coh ol
E n
f e
g l
y d
z a
z en
Ġ +
Ġt itle
Ġa x
Ġs ession
Ġc ognitive
or ical
se x
Ġg ames
im ens
ĠA T
Ġfor t
âĢ ĳ
Ġst yle
ate ver
ere nt
ĠE PA
ĠN ations
Ġen vironments
ĠO il
ĠO ld
Ġcl oth
ĠSt e
Ġpe oples
Ġbl og
iss ivity
Ġsur f
ath y
Ġrem ote
Ġloc ations
Ġref ers
Ġexpl ains
Ġphys ics
Ġbro ken
Ġinvol ves
Ġpain t
Ġsubst ances
lam m
Ġsepar ated
ĠMin istry
Ġclose ly
ĠFran k
ĠVal ley
Ġdou ble
Ġregular ly
ript ions
ĠInst ead
Ġvictim s
Ġacadem ic
Ġles b
9 0
A M
L L
a el
i ability
r igation
t ure
z heimer
Ġc ert
Ġf old
Ġd ioxide
Ġn est
ĠT HE
Ġg ay
am orph
ĠM S
ĠP en
Ġch ick
ific ations
Ġsub s
Ġadd ing
Ġrem ark
Ġcour ts
Ġexpl an
ĠAd minist
Ġperiod s
Ġbi ology
An other
Ġprinc iple
Ġinteg rated
ĠPhil adel
Ġeffic iency
ĠLib rary
htm l
ĠPhiladel ph
P D
R e
[ *]
c alled
m atic
p en
t aining
w orks
Ġa f
Ġw ire
Ġp ick
Ġd ie
le vel
Ġg all
ĠA riz
ot ing
ir ie
Ġpro s
ĠB at
ab led
Ġsu c
ĠE conom
Ġr id
Ġab use
ĠU t
Ġdis abilities
ĠTh omas
ind ing
Ġun its
ĠCh r
ĠSt ep
Ġro ll
Ġtra ff
Ġext ended
Ġsk y
Ġgreat est
Ġoper ate
Ġmark ed
ipp ed
Ġast ron
ĠCont rol
Ġflu id
Ġfru its
Ġindepend ence
Ġhom osexual
Ġrout e
ĠUs ing
Ġrare ly
ĠAtl antic
Ġswe et
Ġcircum st
Ġhaz ard
Ġunderst ood
4 1
5 00
R ec
d en
n y
p o
r ative
r int
Ġ iron
in os
Ġb ones
an o
an es
Ġbe at
ĠS T
ĠS al
Ġ( "
ĠD ist
ĠW omen
ĠR ad
oc ra
Ġch urch
ĠL et
Ġen ds
og le
ib ilities
ĠTh ose
ric ulum
Ġrem aining
Ġgra vity
ĠAl zheimer
Ġdep ends
Ġcre w
Ġsol utions
Ġread y
20 12
Ġnear by
ĠChrist ians
com es
Ġcomput ers
Ġappear ance
Ġclaim ed
ĠRep ort
Ġsitu ations
Ġhold ing
Ġpred ict
Ġaccept ed
Ġpurp oses
ĠGl obal
Ġatmosp heric
Ġencoura ge
Ġoffic ers
Ġtum or
igen ous
aters hed
Ġhus band
] .
g a
g ments
p rodu
t ra
in ating
Ġc ast
is ters
Ġb ud
ar io
et ers
ĠS oper
Ġcon qu
us es
ĠH G
Ġsu p
ĠE very
Ġse lection
Ġne ither
Ġch apter
ĠL and
act ive
Ġapp rec
Ġag encies
lud ing
Ġdec ade
Ġind eed
Ġpol ar
Ġsec ure
Ġcor pus
ven ile
Ġest imate
Ġposs ibly
Ġless on
Ġgener ate
ĠRes ources
Ġele v
Ġpur s
Ġkeep ing
Ġexam ine
Ġz ero
Ġconsider able
Ġsurv ive
Ġcollect ed
Ġbr ight
Ġdetail ed
ĠSec ond
Ġpict ures
Ġdiagn osed
Ġdefin ition
Ġorigin ally
Ġwalk ing
Ġmal aria
ste in
Ġcomprehens ive
Ġpou ltry
ĠJac ob
Ġmedic ines
B N
F ig
F igure
N ote
h ttp
i j
k es
n ame
at o
Ġc row
it ivity
Ġb ank
Ġf ing
Ġn one
Ġbe ars
im ental
ot he
el ine
ĠM u
ĠM iss
em ia
ĠF re
res ents
Ġsp end
Ġus age
ak er
Ġcl ick
ĠK ar
Ġrec l
te b
Ġacc omp
ars h
Ġpers pective
Ġdist rict
Ġocc asion
Ġfew er
Ġdri ving
Ġseem ed
Ġphot o
Ġrepl aced
Ġconcent ration
Ġdeb ate
Ġprep are
Ġcarry ing
Ġagree ment
Ġvirt ual
Ġeth nic
Ġinstru ment
Ġcere b
Ġrepe ated
ĠPhiladelph ia
0 6
5 8
9 9
A D
e per
h ow
k now
Ã ³
Ġthe rap
Ġs ell
Ġs ought
or ic
Ġp ull
Ġf irm
Ġm ath
ĠS oviet
Ġan x
ĠB as
Ġex ists
os ph
Ġwas n
un icip
Ġen force
ia h
ec k
ag n
Ġcomp osed
Ġman aged
Ġsc ene
Ġyour self
Ġro w
ĠV ill
Ġdec line
Ġfl at
Ġart ist
hip s
Ġpercent age
angu age
ĠCl ass
Ġimm un
Ġtop ic
Ġdescrib es
ĠAb ra
ĠStud ies
Ġimplement ed
Ġbul bs
Ġlaun ched
Ġnut ri
Ġcou ple
Ġenh ance
Ġspirit ual
Ġopin ion
Ġath let
Ġcrim inal
Ġmosqu it
ĠPac ific
: ||
A C
b ody
f rom
r us
an i
Ġh oles
Ġl ose
Ġn ob
ol ute
Ġst able
Ġst ages
Ġas c
ĠH ome
ĠE nd
Ġsh op
og ue
Ġk il
Ġcomp ound
Ġun us
Ġun like
ĠCh ic
Ġpre m
Ġpre par
ph al
Ġra b
Ġtw ice
Ġem issivity
Ġmet ab
Ġfe eding
Ġsim pl
the less
Ġfollow s
ĠAr ts
ĠRe view
ĠAn n
Ġaff ects
Ġris ing
iod iversity
Ġmat ters
Ġsecond ary
Ġcertain ly
Ġfac ility
Ġast er
Ġindic ated
Ġjud ges
iction ary
Ġec osystem
Ġap art
Ġelectr ons
Ġcand id
ĠAriz ona
. |
4 4
R I
e ast
i ary
in ction
at he
Ġc amer
or a
Ġf ill
Ġin ject
ic on
Ġl ik
Ġbe ar
ĠT imes
ir t
ĠP ur
ĠP ri
ate gy
ĠH and
ĠD ata
ĠD DT
ĠE c
ĠF BI
ĠN ol
ĠL ong
Ġsp ray
Ġab and
ĠU K
ĠO ut
Ġad equ
Ġapp eal
ĠSt ar
Ġbl ocks
ten ance
Ġfe ud
ex p
Ġfound ed
Ġmin ute
Ġexpl o
Ġstr ategy
Ġfac ilit
Ġassoc iation
Ġrespons es
ĠGe org
ĠPol and
Ġjud ge
Ġmass ive
Ġentire ly
Ġthreat ened
Ġcommit ted
Ġjo ined
Ġdecl ared
ĠPr ince
Ġdiagn osis
Ġreve aled
Ġtransl ated
ĠItal ian
war f
Ġventric le
Ġsynd rome
Ġequival ent
E E
g ov
m ic
w a
y pe
es is
Ġw el
Ġf ed
Ġm useum
ou ts
Ġd iversity
Ġl obe
ĠC a
ul pt
ĠP ot
Ġal cohol
ies t
ĠD el
Ġne ur
ĠG roup
Ġk it
ĠTh rough
Ġpre ced
Ġrec overy
Ġover l
Ġexp ansion
Ġmet al
Ġdef end
Ġsign ed
Ġ7 5
dition al
Ġeng aged
Ġlist ed
Ġdel iver
Ġz one
Ġkill ing
Ġfrequ ent
Ġhyd ro
ĠJapan ese
Ġsold iers
Ġagricult ure
ĠGo ogle
ĠRev olution
Ġcontempor ary
7 6
I nd
N ational
e en
k o
m aking
r ite
Ġt al
at ch
Ġw ish
as ks
Ġth alam
Ġl as
ce l
ut ive
ĠA p
ĠA z
ot land
ĠS and
iv a
ĠW atershed
ĠG ood
Ġen em
ear chers
Ġpl as
Ġres olution
Ġres idents
Ġper mit
Ġun ions
Ġun employ
Ġout come
ĠSt at
Ġag gress
Ġra w
Ġcol umn
Ġrel ation
Ġac res
ever al
Ġmet ers
ex ample
Ġmed ications
Ġworld wide
Ġdep os
omet imes
Ġelect ronic
Ġlead s
ĠSp ain
ĠCon n
az i
Ġpain ting
Ġrece iving
Ġfil m
Ġwat ch
Ġinteract ion
Ġwild life
ask a
Ġir rigation
Ġmount ains
ĠOs age
Ġweap ons
Ġclos er
Ġmo ist
Ġdat ab
ĠColumb ia
Ġvul ner
Ġmanif est
7 7
C ont
D o
c d
c ies
n ormal
z ed
re ated
Ġc art
Ġc ats
or gan
it i
Ġm ac
Ġm ort
Ġh un
st ate
st one
ol n
id em
ot o
ĠI N
ĠI d
am ily
Ġcom ments
est one
Ġwor se
Ġpl astic
ĠO x
pl ant
are nts
Ġar ms
Ġun p
ĠK en
Ġout l
te en
Ġrep resents
Ġreg ulations
uc ose
Ġtrans form
Ġext end
Ġart ists
Ġexper iences
Ġpat ch
Ġpar am
Ġelect ed
Ġcour ses
Ġgener ations
inc oln
Ġgu idelines
az ine
Ġopp osite
Ġinvol ving
Ġspe aking
Ġsuccess fully
ipp oc
Ġyoung er
Ġsent ence
Ġintrodu ction
ĠÂ ·
Ġstar ts
ĠPart y
ĠPar is
Ġelse where
Ġaware ness
Ġsand y
Ġtou ch
Ġconvent ional
ĠWild life
Ġfram ework
Ġsuc ceed
' .
8 8
M O
S ub
b orn
f it
p read
r un
on ing
at is
Ġw id
Ġw ave
le ts
Ġl in
ĠA gency
Ġst ret
Ġor bit
if ts
Ġal g
ĠB Ã¶n
ess ions
ĠL iter
ĠO F
Ġout bre
Ġsc an
Ġrec ip
Ġ3 6
Ġinter view
Ġfl ight
Ġfound ation
ides pread
Ġ199 4
Ġaff ord
Ġeng ines
Ġopp osition
ĠOn ly
Ġcrit eria
Ġer ror
Ġfeel ing
Ġcoun sel
Ġbusiness es
Ġbur ning
Ġmechan ical
Ġcommit tee
ĠSec urity
Ġrot or
Ġord inary
ĠItal y
Ġemp ire
ĠProv ince
ĠNet work
Ġsav ed
ĠColor ado
ĠMill er
Americ an
ocra cy
0 2
? "
C P
a o
g s
k a
t ic
t ion
u ation
Ġt aste
Ġthe ories
Ġw aves
Ġp ounds
Ġd ream
Ġh orm
ĠM ac
Ġy ield
ĠB ru
ĠH el
Ġhe el
em et
Ġsu itable
Ġch ann
ĠL ar
Ġen able
Ġag es
Ġcent re
Ġlear ner
Ġ199 6
Ġvis ible
Ġequ ally
Ġide al
Ġlab el
Ġhy per
Ġstrong ly
Ġinteract ive
Ġflu or
Ġ197 0
Ġconcent rate
Ġimplement ation
Ġvisit ors
Ġtalk ing
ĠSm ith
dd en
Ġleaders hip
ĠProt ection
Ġargu ment
ĠPM ID
Ġbreat hing
Ġschem e
ĠProf essor
Ġesc ape
Ġmere ly
itud es
Ġschol ars
commun ications
L ast
R C
S U
g u
Ġ â
Ġt unn
Ġa ward
Ġw age
it ime
it ative
Ġb ru
Ġf lex
Ġm ild
Ġd warf
as ure
Ġre in
Ġl ots
ol it
Ġg ap
ĠA st
Ġfor get
ĠC ur
ĠC ub
ig er
ig or
ĠM ah
ĠP an
ĠP enn
ĠB ir
Ġhe ating
ĠE th
Ġne u
ĠL incoln
Ġk in
Ġres erved
Ġar ts
ress ive
Ġinf lamm
ens ions
Ġsc hed
Ġsc ulpt
Ġag reed
Ġprov ed
ov en
Ġpo ison
Ġinter face
Ġgra y
Ġcommun icate
Ġval id
Wh y
Ġcare fully
ĠCon vention
Ġscient ist
Ġopp osed
Ġsecond s
Ġpolit ics
Ġdri ven
Ġturn s
Ġemploy ees
Ġinvest igation
Ġarg ue
Ġregard ed
ĠAg ricult
Ġevalu ation
rast ructure
Ġnut rition
Ġquant um
Ġproced ure
hy d
Ġconstruct ed
Ġgrant ed
Ġder ived
Ġcrop s
Ġpow ers
Ġdoll ars
usal em
ĠDirect or
ĠDiv ision
ĠJose ph
Ġaster oid
emet ery
E C
S S
S ince
b el
c omp
f ree
l ig
m es
p et
he ast
at al
Ġf illed
Ġf alse
ĠT im
ĠT ri
ĠT ib
Ġg ender
ut y
ch ild
ĠC le
ver t
ul ed
Ġpro sec
ĠB ureau
um es
um ul
est hetic
iv est
iv ated
ĠR ay
ĠN ation
per or
ip ital
Ġcomp osition
Ġpre v
ĠSt ation
Ġrec y
Ġpe ak
Ġag ents
erv es
Ġunder lying
ific ial
Ġrel ief
Ġchild hood
Ġob tain
Ġsur ve
Ġmet amorph
Ġear n
Ġform ing
Ġgra de
Ġdef ic
Ġdist ributed
Ġdist ingu
Ġmy th
Ġredu nd
Ġgener ated
Ġsupport ing
tt o
Ġhand le
Ġla id
Ġdi pl
ĠAb out
Ġdest ruction
Ġhistor ic
Ġabs olute
Ġmix ed
Ġdecre ased
Ġnegot iations
Ġfix ed
Ġconsequ ences
spec ific
ĠLear ning
Ġcolle agues
ĠValenc ia
Ġtro ops
Ġcircumst ances
ĠGeorg ia
6 1
E M
F irst
I A
S e
a ud
b est
m ad
x ts
Ġ )
Ġt rop
re p
at ically
Ġc ited
Ġw ants
Ġp ond
Ġp apers
ar ant
Ġl y
ĠT ime
ol a
Ġg y
id ance
ut s
ĠA P
Ġon going
ĠM er
ĠM ont
ĠB i
ĠH ol
Ġsu dden
ĠD espite
ĠN orthern
ĠL ow
Ġint ake
Ġdo i
Ġro se
Ġam b
iet al
Ġatt end
row s
Ġass igned
Ġshe ll
Ġ199 2
Ġconf ir
Ġrest oration
Ġpass ing
Ġmark ets
ĠComm on
Ġemploy ers
Ġsignific ance
Ġer a
wh ile
Ġrepresent ed
Ġphot ograph
Ġrecogn ition
Ġep idem
Ġsat is
Ġec ological
ĠMet is
Ġtrib es
Ġemphas is
Ġfair ly
ĠAN D
Ġcorrespond ing
greg ation
Ġdynam ic
Ġsul cus
6 6
B C
P l
g ent
r ine
Ġt or
he rent
Ġp or
ed u
Ġm and
ic ks
Ġl ists
ĠT op
Ġst rict
Ġpro ve
ĠP ost
Ġex em
ab ul
Ġv oc
ĠD en
ĠW ik
ĠR om
ĠG old
Ġim per
Ġcomp ris
so ft
Ġcl ust
Ġar ray
ĠSt reet
ail ed
Ġra ise
Ġprodu ces
Ġpo et
Ġsupp orts
Ġhelp ful
Ġmod ified
Ġtrans ition
Ġgra ins
Ġback up
Ġdep artment
Ġset s
Ġcur riculum
Ġprot ected
Ġtem ple
Ġdesc end
Ġpress ures
ris on
ĠEng ine
be an
Ġnecess arily
Ġdifficult y
Ġsens itivity
Ġfront al
Ġcontain ers
Ġmechan isms
ĠBo oks
Ġestim ates
Ġjur ors
ĠSer ver
Ġbran ches
Ġcompar ison
Ġpurch ase
ĠJer usalem
Ġvit amin
Ġterrit ory
Ġgravel s
Ġnit rogen
Ġhunt ing
Ġhoriz ont
Ġprincip al
ippoc amp
7 1
7 4
B l
i y
l iam
u an
z ym
Ġ Î
in ic
Ġp ig
Ġp ark
Ġp ool
Ġb ot
Ġb ag
as ters
ĠT r
ĠA tt
ur b
Ġfor th
ĠM el
ĠP eter
Ġde gra
ri er
ĠD own
ĠW ell
Ġle af
ĠL ike
ap h
Ġab und
Ġpl ain
Ġdis aster
Ġbut ter
ĠK ansas
Ġso le
ian a
Ġthere by
ric ts
Ġ3 2
Ġcons cious
Ġpres ents
ĠAs ian
Ġdef ine
ĠHow ard
Ġstudy ing
Ġgl ucose
Ġval u
Ġcare ful
Ġeng age
Ġopen ing
Ġimpro ving
Ġtru ly
ĠEx pl
ĠEar ly
Ġz ones
Ġgre w
Ġparticip ation
ĠMore over
Ġcr ime
Ġconc rete
ĠGra nd
Ġcalc ium
Ġsus pect
ĠGree ce
Ġtrib e
Ġang le
Ġtransport ation
Ġcoast al
Ġbran ch
Ġmer ch
Ġnewsp aper
Ġperce ived
ĠCarol ina
Ġrecept or
ogl ob
Ġsurf aces
ĠAdminist ration
Ġhazard ous
ĠChic ago
5 9
c a
e enth
f all
l ast
u nder
Ġ id
Ġt ips
he a
in ates
Ġc ars
Ġf t
ar ity
le g
Ġl ie
Ġl oyal
om ed
im icro
ut er
et ime
ĠA ff
Ġst ands
Ġst reet
ay ing
ad d
Ġare n
ĠP ub
ĠB ell
Ġhe pat
Ġv ital
ĠD i
ĠE ff
Ġr ank
ĠL os
Ġcan n
Ġen lar
Ġper mission
Ġj our
ĠK n
ens es
ber t
Ġtra ct
ph a
we ight
ert ed
Ġform at
hem ical
Ġlaw y
Ġbo ys
Ġmain tenance
man n
dition ally
ĠEn cyclopedia
Ġplay ing
Ġput ting
200 8
ĠPol it
Ġobserv ations
Ġparticip ate
Ġcover s
Ġcover ing
ĠMin ister
oura ge
Ġabs ence
ĠÂ ©
ĠCo ast
Ġbul lying
Ġsou l
Ġconsist ent
Ġord ered
ĠIS BN
Ġmanufact uring
Ġadminist ration
Ġcool ing
ĠGr ass
Ġtempor al
Ġsettle ment
Ġmathemat ics
ĠRich ard
Ġpestic ides
Ġhemisp here
Ġrecl aimed
Ġneur ons
liam ent
E O
a ired
h us
s pe
t es
u gg
in n
Ġp il
Ġh ippocamp
Ġl ob
ol ine
ce ans
ra ction
ut ing
ĠS ection
ĠI r
am ar
ĠM ap
ĠM ark
Ġwh atever
ĠP ract
ĠB ible
ĠB uild
ĠR en
Ġdis m
Ġcont ained
Ġwill ing
Ġinf rastructure
Ġthem e
Ġro cks
Ġcons erv
Ġass ist
Ġdisc ipl
Ġgra zing
Ġsm ooth
Ġplan ned
Ġed ition
Ġsign al
Ġent ered
Ġfour th
Ġpos itions
ĠQ ual
Ġvol t
Ġopt ical
Ġfund s
Ġindic ates
EN T
Ġpregn ant
ĠSur vey
Ġphysic ian
Ġupd ated
Ġiniti ative
Ġmour ning
ĠFurther more
Ġphr ase
Ġsatell ite
Ġbud get
unicip al
Ġunus ual
Ġvalu able
0 4
A dd
D r
E P
E ven
I m
c ar
Ġs an
Ġs ands
or row
it als
Ġb in
an ium
Ġh idden
Ġre ven
Ġl iver
ĠT w
ra pe
et te
ĠA ir
ĠC reat
ĠI ra
Ġor ient
ĠH P
ist ent
Ġv ote
ĠR ock
ĠF igure
Ġint ense
ĠO bs
pl ing
ust ain
ĠK now
Ġrec ording
Ġra c
Ġacc ounts
Ġph arm
Ġass ume
Ġfl o
Ġinst alled
Ġexper imental
Ġknow s
Ġrequ est
Ġ6 00
ros cop
Ġappro ved
omet er
Ġgu arant
Ġoccur ring
Ġstruct ural
Ġprevent ion
Ġenc ry
Ġinflu enced
Ġprotect ive
Ġri vers
Ġdemonst rate
Ġattem pts
Ġvill ages
Ġforest s
edi atric
Ġult imately
ĠSol ar
Ġarri ved
ĠMich ael
ĠFore st
Ġspl it
Ġshar p
Ġdatab ase
' ,
I nt
R ead
U s
f ortunately
p es
u y
Ġw idespread
or r
al y
Ġb ow
an ing
Ġm ol
ou l
le ments
Ġth or
im a
ra in
ĠC A
Ġal ive
us ing
ĠB ank
ĠH om
ĠH oly
Ġsp ort
Ġsp ok
Ġcont ribute
ĠCh apter
Ġtra in
Ġra m
Ġdevelop ments
Ġreg ul
Ġdec k
ful ness
Ġass ign
Ġknow ing
Ġins ulin
Ġtreat ing
Ġelect ions
ĠSp ring
Ġchar ged
Ġold est
Ġcult ures
Ġmus cles
Ġhard ware
Ġconn ections
ĠLe on
Ġrepresent ative
ĠCD s
Ġbig gest
Ġep is
Ġgard ens
Ġgreen house
Ġmix ture
Ġcompl icated
Ġsuff er
ĠArab ic
Ġscreen ing
Ġaim s
Ġprison ers
Ġrang ing
Ġarrest ed
ĠSen ate
ĠDes ign
ĠOrgan ization
Ġinact ivation
imicro bial
' d
0 3
8 00
E d
g ans
h ost
i hood
n om
u ar
Ġ #
Ġt all
in ces
re ction
Ġs ight
Ġc ort
Ġc aught
it t
Ġp ed
Ġb io
ic ide
Ġh olid
il ateral
Ġl uck
Ġg ather
Ġg ym
ĠC amp
Ġst re
el ing
ad ed
ĠM ake
ĠP sych
th rit
Ġde eper
ĠB al
ĠB ur
ĠH o
um s
ĠE U
ĠR oss
Ġne ut
ĠN ava
rou s
ell a
Ġdo or
Ġar r
ĠTh ough
ult y
Ġapp let
ail s
ĠV en
ph one
erm an
Ġind igenous
Ġcount ies
Ġdist ant
Ġdown load
ĠAn y
ring e
Ġread ers
Ġgl ass
Ġstand ing
Ġve ter
rodu ction
Ġprom pt
Ġobs er
Ġexam ined
Ġhapp y
Ġflow er
Ġmov es
Ġcop yright
__ __
Ġinteg ration
Ġveget ation
Ġwa vel
Ġrout ine
hy th
Ġexpand ed
ĠConf erence
Ġelim inate
Ġrenew able
Ġrat io
Ġinh abit
Ġtrou ble
Ġlesb ian
ĠTib et
best os
" )
7 9
D ef
F IG
M ay
k ins
Ġt asks
Ġs od
Ġw ear
Ġd ust
Ġd ensity
Ġl ake
Ġn an
Ġn odes
Ġbe ings
Ġis lands
ra ph
ch o
ĠS ud
ĠS up
âĢ ĺ
ul us
Ġex ception
ab out
ab ric
Ġv an
ĠD et
ĠE qu
ĠF our
Ġr an
Ġwor ship
Ġpl us
ĠO pen
Ġad ap
Ġres id
Ġun able
Ġun con
Ġout comes
Ġpre val
ang ing
Ġ3 4
Ġunder t
Ġpo em
Ġinv ention
Ġinter vention
Ġ6 5
Ġocc as
Ġcor rel
Ġshe ep
Ġ199 3
ĠSc otland
ĠInd ians
Ġexpl icit
Ġrest ore
erc ury
Ġbra nd
Ġanal og
ĠEx per
Ġprevent ing
Ġhapp ening
Ġmult i
Ġbenef icial
Ġcharacter ized
Ġprotect ing
Ġcreat es
Ġdiv ision
ĠSec ret
ĠPhil osoph
Ġemb ry
Ġimag ing
Ġmach ines
Ġsyn copation
ĠEgypt ian
Ġharm ful
ĠMod ern
ĠDar win
ĠHung arian
Ġtomat oes
Ab out
Ġlung s
Ġaccur ate
Ġded icated
Ġfertil iz
Ġpra irie
ĠDise ase
Ġrestrict ions
athe red
1 00
7 3
C ons
C omp
J an
J ohn
U T
l ot
v in
Ġt ank
Ġo d
Ġs essions
es ides
ed iate
Ġm aster
Ġd iver
ct ure
Ġe ld
il ation
Ġbe ll
ĠT itle
se y
ra c
et her
ĠA D
ĠI V
Ġcon clusion
ad ing
ĠM ult
ter ies
ere n
os ion
ac ing
ĠR ome
ĠF air
ĠN i
Ġch ain
Ġr u
Ġen zym
Ġsp ons
ĠO S
Ġinc hes
Ġper mitted
Ġsc ript
ub e
Ġro ots
rib utes
Ġcall ing
Ġref uge
Ġdef ense
Ġed ge
Ġmin erals
Ġcor ruption
Ġent ry
ĠIs a
Ġthough ts
Ġcontrol s
Ġgu idance
Ġ15 0
Ġlim estone
Ġplant ed
sy l
Ġche st
200 4
ĠAb d
Ġfra ction
ID S
Ġdom inant
ĠKing dom
Ġconsum ers
Ġess entially
Ġjud icial
Ġdia gram
ĠAm ong
Ġexerc ises
asc ular
ĠStud y
Ġcommit ment
Ġlic ense
Ġdefin ite
Ġlif etime
ĠMount ains
ĠSpec ial
Ġcru cial
Te acher
Ġinher it
Ġalle ged
Ġgalax y
Ġisol ated
Ġprefer red
Ġsubstant ial
Ġnarr ative
Ġther mal
Ġprofession als
Ġsubsequ ent
ĠSlovak ia
rape ut
ĠIra q
ĠSup reme
4 3
C an
E F
P e
b rid
c ul
n et
n ew
re y
Ġs ons
it z
it tle
Ġb ath
Ġb ibl
Ġm oon
ic an
Ġre ef
ĠT em
ol t
ol er
Ġg ained
ĠA ccess
ĠC lick
ir it
Ġcon clus
ad ow
ĠP t
ĠP lease
ĠB ill
ive red
ĠD ictionary
ĠE st
Ġch art
Ġch romos
Ġr ice
Ġab d
ell s
Ġint ensity
Ġinc ent
Ġcl ock
Ġar range
Ġte xts
Ġrec ess
ok ing
Ġqu iet
ĠV er
ĠV is
Ġgen etics
te enth
Ġcol our
Ġrel iable
rib e
Ġac know
row ing
Ġpres erve
ĠAs k
Ġeffect iveness
Ġdet ected
Ġcommun ications
ollow ing
Ġdist ricts
oun ter
Ġvar iable
Ġdesign s
Ġconf ig
Ġclass ified
Ġmar ried
Ġdri ves
Ġ198 2
ĠLe vel
pr ise
Ġrepresent atives
elf are
ĠUS B
Ġstop ped
Ġreflect ed
Ġsuff ered
Ġwa it
Ġoccup ied
Ġbeg un
ura cy
Ġconstant ly
Ġfight ing
Ġimpl ications
Ġsett led
Ġsen ior
Ġannoun ced
Ġarchitect ure
ĠStand ard
Ġphenomen on
abul ary
syl van
9 5
c ons
e ur
r d
r in
u els
w estern
Ġ <
Ġ ?
on ly
es h
ou st
Ġd iverse
le ys
as p
ol ar
Ġg iant
ĠS ar
ĠS und
ĠC P
ĠI T
Ġst uff
am ber
el ve
ĠP s
os um
Ġhe ro
Ġcom fort
ac hers
ain ts
ĠD u
Ġse at
Ġse eds
Ġne uro
Ġsh aring
Ġsh ift
ĠJ r
ĠO k
Ġinc l
Ġun iform
Ġso y
ian o
Ġthan ks
Ġkn ee
Ġart ificial
Ġmin ister
Ġmin imize
Ġfind s
ĠSc ott
Ġredu ces
Ġ8 00
Ġvis c
Ġdirect ions
Ġpublic ation
Ġhand ling
Ġpass age
Ġimm ediate
ogra p
Ġview ed
Ġdel ay
Ġnet works
Ġdifficult ies
Ġgas oline
Ġcat tle
cell osis
Ġevolution ists
Ġaltern atives
Ġheav ily
Ġhabit ats
Ġmagn et
Ġstreng then
Ġjo in
ĠPre vention
Ġencoura ged
Ġfeed back
Ġinstit ution
Ġvirt ually
Ġhyp ot
Ġconvers ion
Ġexcess ive
Ġsong s
char ge
Ġemot ional
Ġegg s
Ġju venile
ĠNav y
Ġfisher ies
Ġvo ice
ĠNGO s
ĠUt ah
Ġcereb ral
Ġanx iety
Ġvulner able
Ġwavel ength
8 6
C V
C op
M A
O f
O ver
S P
b ar
b ut
f ts
f oot
t op
w an
Ġ *
Ġa er
re al
es ity
or ter
it led
Ġb oy
Ġm ouse
Ġm aps
ro ad
as ant
om atic
Ġn ode
se ll
ĠS aint
ĠS upp
ĠC ro
ig an
Ġst ations
ir ds
Ġcon ven
ĠM ur
Ġor gans
ĠP o
ĠP op
od ing
ĠB ig
ĠH ave
os c
ĠE z
ĠR us
oc ated
ĠL ands
Ġdo se
Ġman ip
Ġev ident
ind er
ĠCh ile
ric ted
Ġag ed
Ġdes ired
Ġro les
Ġadd s
ick ed
Ġmed ication
Ġtrans c
Ġsee ing
Ġdep art
Ġsign als
Ġcor ner
Ġown er
Ġins urance
Ġpar as
Ġtest im
cl ass
inc luding
Ġsl ave
Ġsl avery
Ġlow est
Ġobject ive
Ġtri p
Ġperform ing
Ġdra wn
Ġfac ed
Ġ198 4
ĠOn line
cop ene
ox ide
Ġdi am
Ġask ing
sc ale
Ġsitu ated
Ġcoun cil
Ġcat ch
lies t
ĠPer haps
Ġconsist ing
Ġimag ine
Ġevalu ate
Ġpsych ology
Ġbab ies
uz z
ĠServ ices
Ġinsp ired
Ġneigh b
Ġlegisl ation
Ġcateg ories
zy me
Ġgalax ies
press ure
ĠViet nam
Ġremark able
Ġexplan ation
Ġadequ ate
Ġthalam us
B ecause
G B
I L
W D
c up
e h
h io
n el
Ġt ight
Ġt aught
he ld
Ġthe ore
Ġthe rapeut
at i
is k
Ġp us
Ġb le
Ġb read
Ġf ellow
Ġh its
Ġh ole
ent ed
Ġn erve
Ġg ro
ĠA cc
ch ron
ĠS O
Ġpro of
ĠM A
ĠB a
ĠB re
Ġex clus
Ġhe nce
ac ent
ĠD O
ĠW in
ĠR oy
ĠR io
Ġch air
ĠL y
Ġsh ore
og ether
ak ed
ip edia
Ġman ager
Ġj ump
ult ure
ĠK ings
Ġsc ar
ound ed
Ġrec over
Ġdes ire
Ġ3 7
Ġ3 8
Ġacc um
Ġacc uracy
Ġprov isions
ft en
Ġinter med
ĠAs sembly
Ġhigh light
Ġtrans f
Ġref used
Ġed itor
ĠAl i
Ġent hus
ĠWe ek
20 11
Ġmar g
Ġadv ances
ug s
Ġorig ins
Ġmot ors
ĠEx p
Ġworks h
Ġsens ory
Ġcreat ive
Ġstat istics
Ġarg ues
Ġlib eral
roll ed
Ġemer ging
Ġste am
Ġcamp us
Ġmother s
Ġsuff ering
Ġtur ning
Ġreve al
Ġreview ed
Ġmob ility
Ġaim ed
Ġdepend ent
Ġtim ber
Ġpartners hip
Ġinstru ments
Ġvolunt e
Ġiniti atives
Ġminor ity
Ġprotocol s
Ġtrend s
Ġtomat o
Ġcooper ation
ĠDist rict
Ġlas er
ĠPenn sylvan
ivest ock
5 2
J ew
Q u
a wn
l ation
m ble
v ard
Ġ ×
Ġt ack
in ux
Ġo ceans
at on
Ġc ab
Ġf ur
Ġin g
Ġm ature
Ġto m
Ġth r
Ġre use
Ġg athered
id ity
ĠC y
Ġpro cl
Ġwith d
ĠP C
ĠP ass
ĠD iff
ĠE astern
ĠR NA
ĠF ield
ĠN um
ĠN ep
ĠG ard
ĠL eg
Ġsh ips
Ġen orm
ĠJ o
Ġab normal
Ġad m
end a
Ġ19 20
Ġcomp rom
ep ing
ish ment
Ġcomm ission
olog ic
ob ile
Ġact ively
rit ing
Ġacc ident
ov es
Ġreg ime
Ġatt itude
Ġear liest
ange red
Ġmon u
Ġdep icted
Ġcur ren
Ġins c
omet ers
Ġmain tained
Ġconsid ering
Ġchar ges
Ġconf erence
Ġant imicrobial
Ġpass es
ĠCent re
Ġfin ished
Ġkeep s
Ġdel ivered
Ġdiscuss ions
Ġhead s
ĠAll ah
ĠAct s
Ġfunction al
Ġfund ed
Ġcover age
epend ent
Ġhold s
Ġur anium
Ġimprove ment
Ġmolec ule
ĠApp ro
Ġpack et
Ġgradu ate
Ġgradu ally
ĠMet eor
Ġaffect ing
ari os
ĠCommun ity
ĠSim ilar
ĠDan iel
Ġmiss ing
Ġcateg ory
Ġtrad itions
Ġbill ions
Ġintellig ence
Ġtraff icking
ĠGrass i
9 6
E very
N ot
R A
R ef
S C
S ection
b ec
j ud
p age
r if
s ub
Ã ¼
at ra
en cing
Ġc ure
Ġc ook
Ġw ars
Ġw earing
Ġw elfare
is d
is dom
Ġf est
Ġf abric
ic ians
Ġre aches
om at
om ach
id al
ra ys
ĠS pe
ĠC ross
Ġst ake
Ġst ick
ir r
el ess
Ġas bestos
ĠM O
ĠM ove
Ġal ter
od ox
Ġde er
ĠH ill
ist ing
Ġat oms
ĠD oes
ĠR ob
ĠF ed
Ġch or
ĠL o
Ġsp aces
Ġpl ays
ĠO l
Ġcont amin
Ġad verse
ĠTh ree
Ġimp air
Ġun iversity
Ġpart ner
Ġrep air
Ġbl ank
Ġ4 8
Ġdec ide
Ġsupp lement
ĠPro p
Ġcall osum
Ġsm art
Ġext ends
Ġprocess ed
Ġback ward
Ġocc ipital
Ġmin ing
Ġend ed
Ġ199 1
Ġdown ward
ĠIs s
gen er
ier arch
Ġsk ill
ĠRes p
Ġmeas uring
osp itals
ĠCl imate
Ġavail ability
Ġaccess ible
ĠYou ng
ĠPl ant
200 9
ane ously
Ġground s
Ġdeath s
Ġ14 0
Ġcharacter istic
Ġwind ows
ann ah
enn es
ĠCons ervation
Ġmor ph
Ġir re
Ġsed iments
Ġremov al
ĠLaw rence
Ġdraw ing
Ġprint ed
Ġdang er
Ġtum ors
Ġbound aries
Ġbeaut y
Ġdiscover ies
ĠSpec ies
Ġancest ors
Ġtrig ger
ĠChe ck
osh ua
Ġimmig rants
ĠAut hor
ĠNE CT
ĠMicro soft
ĠRab bi
imens ional
Ġchick en
othe rapy
ĠNol en
Ġsucceed ed
. âĢĻ
5 1
7 2
G et
H ist
P er
T H
l as
m ary
s en
s ky
Ġt u
at ories
Ġc ash
or ne
Ġp H
Ġp ace
al ysis
Ġf er
Ġf ought
Ġm g
Ġm ood
Ġd ict
ro vers
Ġh ab
Ġre ly
Ġre aching
Ġl oved
ĠA IDS
ĠS at
ĠC re
ĠC urrent
Ġst ack
am ples
ĠM ad
ĠM ach
ĠP et
ĠThe ory
Ġde ce
ĠB PA
Ġex change
ri ers
ĠW ord
ke ys
ĠF red
ĠG ar
Ġnot ion
ĠL ang
Ġcan cers
Ġen zyme
act s
act ers
Ġev il
ind s
Ġinf ant
Ġso ils
ree k
Ġtra ined
Ġbet a
Ġany where
Ġam ph
Ġpr ime
Ġrese mb
ink ing
.. ..
Ġdef ines
Ġdet ection
omm od
Ġsee king
Ġtechn ological
Ġstate ments
ĠWh o
the y
Ġ7 00
ave ment
Ġbo ot
20 13
Ġgu ard
lish ing
Ġoper ated
Ġpoint ed
ĠCl ub
ĠAd d
Ġdra matic
Ġprom inent
ĠBe fore
Ġexist ed
rid ay
Ġinvest ment
sh aped
Ġsent ences
Ġfeel ings
ĠCar l
fact ory
Ġearth qu
Ġreact ions
Ġinj ured
Ġfib er
hold ers
Ġemb ra
ĠEm peror
ĠPers ian
Ġstream s
ĠHer itage
Ġinterp re
ĠDis ord
Ġsustain ability
ĠBuddh ism
Ġargu ments
Ġcoord inate
ĠAng eles
Ġlegisl ature
ĠConf ed
lar ation
Ġreprodu ctive
Ġfif th
ĠÃ ĩ
Ġdefe at
Ġsubs id
Ġaccomp an
Ġmetab ol
ĠRay mond
Ġmol asses
Ġstre ets
ĠNava jo
Ġinhabit ants
ĠSud an
ĠPhilosoph y
ĠSund ay
Ġing red
0 8
0 9
9 2
A m
G e
H z
M S
M et
W here
b ul
c hen
l aw
r ators
t les
y les
Ã ¢
Ġt ires
Ġc ub
Ġc emetery
is ons
Ġp up
al d
ic ing
ct or
st s
om ers
Ġn inet
Ġbe es
ol ving
et ary
ĠS af
ir s
ir al
ir ation
am i
Ġcon vention
ad y
ĠM id
ĠM oses
ĠM oon
ĠD om
ĠE mer
ĠE aster
ĠG estalt
gh an
act ion
ĠO tt
Ġinc omp
ip h
ip her
Ġ19 50
Ġper pet
Ġev olved
Ġmay be
Ġra il
ient ists
Ġ4 3
ever theless
Ġinter vent
Ġcor por
ĠWe iner
stit utes
Ġchar acters
Ġserv ing
inc ial
Ġwrit ers
ĠAd v
Ġplant ing
ĠZ ion
com ing
Ġfar ms
ograph ical
ĠLe ague
ĠBe h
ane ous
ĠTe le
Ġstrong er
ĠJohn son
Ġobserv ation
Ġparticip ating
reg on
Ġnetwork ing
Ġlib r
Ġcho ices
Ġmeasure ment
Ġbr ings
Ġmor al
Ġste el
Ġdiv or
Ġ196 0
Ġrespect ively
Ġbring ing
ĠMor ris
Ġrot ation
Ġrob ust
Ġcapt ure
Ġult imate
eff ective
Ġcustom ers
Ġconvers ation
onal d
Ġbrother s
Ġscen arios
Ġhur ric
ĠMart in
Ġdro pped
Ġappoint ed
ĠAbra ham
ĠConn ect
Ġinflamm ation
Ġexem pl
ĠHP V
Ġthor ough
Ġenzym es
ĠPennsylvan ia
) |
? âĢĿ
C H
C lick
b a
b r
c in
d isc
k in
m ade
p d
Ĥ ¬
Ġt ables
he nt
he ther
re qu
Ġo v
Ġs ke
Ġs ulf
Ġc av
it us
Ġb omb
Ġf ate
Ġm ur
as ive
Ġh at
il a
st ract
Ġbe e
ĠT reatment
Ġg ate
Ġst omach
am ine
Ġor ange
ter ol
ĠP ic
ĠP oint
ment ed
ment al
ment ation
th is
th odox
ĠH ay
ist ical
ĠE r
ĠW ed
ĠR O
ĠF e
ĠF und
Ġse es
Ġr ational
ĠL ist
Ġsp at
all ow
ap se
Ġpl ot
Ġpl enty
pt ions
ĠIn s
ag a
ag an
Ġwhe el
Ġcomp ounds
Ġimp ressive
ord inary
Ġup ward
Ġra ising
Ġprov en
Ġam az
Ġph osph
Ġob st
Ġind irect
Ġ5 5
Ġmet eor
Ġmod ule
Ġtrans mit
cent ury
Ġplan e
Ġinst ances
Ġvar iation
Ġcur d
ock ed
Ġbel t
cl ing
ĠPh nom
aterial s
ĠChrist mas
ĠZ eal
Ġprovid er
Ġfac ing
Ġexam ination
Ġair craft
sy stem
Ġassoc iate
ĠPol l
Ġdisp ute
Ġcontain er
Ġdiv ine
Ġprec ip
Ġliter ally
Ġunc ertain
ĠIm m
Ġsus cept
oles terol
Ġdeal ing
Ġsexual ity
Ġvacc ines
Ġcorrect ly
ĠBer lin
Ġceleb rate
Ġmut ations
ĠPhys ical
Ġexpert ise
ĠLabor atory
rag ue
Ġunivers al
Ġpresc ribed
ĠOb ama
Ġconclud ed
Ġvessel s
Ġcontam ination
Stud ents
Ġenforce ment
Ġathlet es
ĠId ent
Ġparam eters
Ġenlar ged
Jan uary
Cop yright
Ġenorm ous
. ;
6 3
9 1
E PA
I F
P re
S uz
b les
b urn
c ience
q ih
r ical
s m
v ation
w ord
Ġt ons
he res
in ch
re m
Ġo l
Ġc m
al a
Ġb iodiversity
Ġin ner
Ġd ates
Ġd oses
ro ke
ro oms
om er
se ts
ra ined
ĠS everal
ĠC T
ĠC ond
ig ate
ig ration
Ġst one
Ġst ead
Ġst orms
Ġpro x
ĠB ang
ĠH y
ĠH am
ĠH CV
ill ance
est ine
qu ir
Ġse vent
ĠN ic
Ġch olesterol
ĠL u
ĠL es
ĠJ ob
act ic
ĠU SA
Ġcont ents
Ġcont ribution
Ġcont rovers
Ġwhe at
ak istan
Ġcl ot
Ġout er
ĠCh ange
Ġte en
Ġro ads
Ġacc ord
Ġoff ering
Ġob esity
Ġour selves
Ġac re
Ġac ute
aw are
gra de
Ġcould n
ade qu
Ġplan ets
Ġpartic le
Ġcar ries
Ġcur ve
Ġent ering
Ġactiv ation
ĠInd eed
Ġvis ited
Ġconf idence
de v
ĠCon st
Ġpresent ation
ĠCol l
Ġbelie ves
Ġlab our
Ġter ror
ĠSy ria
We b
Ġreal ize
ash ion
Ġfunction ing
Ġresearc her
pr int
Ġopt im
Ġcreat ures
Ġaddress ed
ĠMin nes
Ġbat tery
Ġens uring
ĠJu an
ĠHist orical
Ġthreat s
Ġfa qih
Ġcr ude
ino is
Ġliter acy
Ġful f
Ġvill agers
Ġbacter ial
Ġwa iting
Ġord ers
Ġtele communications
Ġpul ley
Ġban ks
Ġrul ing
ĠDec laration
Ġphysic ians
Ġexhib it
ĠPhys ics
Ġdim in
Ġrecommend ations
Ġinher ited
ĠFin ally
ĠHung ary
ĠKh mer
Ġinterpret ation
Ġpray er
Ġinform ed
Ġregist ered
Ġapparent ly
ĠIll inois
Ġcrow d
ĠOx ford
Ġflex ible
ĠAgricult ure
Ġhorizont al
Ġspok en
Ġtestim ony
D espite
G Y
I ST
M P
M ar
Q L
Y our
a fter
b ered
d ef
d imensional
f ur
h ar
i ological
m od
r ÃŃ
v o
Ã ¦
Ġt on
re f
er ally
Ġs ales
Ġc ave
or ith
Ġb low
ic ut
Ġd ys
ro id
Ġth irty
Ġre verse
Ġn erv
Ġbe ach
Ġg ases
ra nd
ot al
ĠI U
Ġst ood
ĠM en
ĠP D
op p
ĠB ush
ĠH a
Ġv ac
ĠW here
ĠF ort
ĠN ov
ĠG all
ĠL ess
ĠL anguage
Ġsp oke
all a
du ction
Ġdis ability
per ate
ast y
pl er
ib er
Ġbut ton
ep old
Ġar k
ĠCh all
Ġpre f
Ġro oms
lect ed
Ġcons uls
ious ly
Ġrel ax
Ġbl ess
Ġrem ed
Ġatt ributed
Ġinv asion
Ġtrans plant
Ġhealth care
ĠFor ce
Ġest uar
Ġcap s
Ġmy st
Ġless ons
Ġconf irm
ĠPh D
Ġmar itime
Ġdra in
Ġ198 3
200 5
Ġer ad
ipp i
Ġoil s
wh ite
Ġfall s
Ġfall ing
Ġfocus es
ĠSo ft
Ġflow s
Ġconsider ation
sc reen
Ġdam aged
gest ion
Ġconduct ing
Ġsqu id
Ġengine ers
ĠChristian ity
Ġbar rel
Ġstra w
Ġpred icted
Ġsust ained
ĠEd ward
Ġacqu ired
ĠAustral ian
Ġcra w
Ġtele vision
Ġrob ot
Ġjur isd
Ġfem ales
ĠBuddh ist
Ġadvant ages
Ġoffic er
ĠAtl anta
Ġqual ities
Ġconver ted
Ġpan el
ĠMich igan
Ġmathemat ical
ĠAS D
ĠBat tle
Ġcandid ate
Ġmoist ure
Ġredund ancy
Ġtrop ical
Ġly copene
Ġconfir med
Ġbutter f
Ġjour ney
Ġvolt age
ustain able
Ġholid ay
thrit is
ĠNi epold
Pe ople
Ġconclus ions
ĠNECT A
Suz annah
ĠMinnes ota
4 00
5 6
6 8
A pp
R ep
T able
T wo
T oday
m ers
p ass
r ass
v i
w hel
Ġt ang
Ġt ick
in ition
Ġs ad
Ġs ail
Ġc ul
Ġc up
it ter
Ġf ract
Ġin adequ
ar n
Ġm ater
Ġm unicipal
ic ity
Ġh o
Ġh ills
Ġh ierarch
il iation
Ġre ward
ĠT en
ut o
ur ning
ĠS em
ĠC irc
Ġpro ceed
el and
ĠM ot
ĠP rague
Ġv en
iv ities
ĠD ou
ĠF orm
ĠF ish
ĠF amily
oc ial
Ġch ose
ĠL og
ĠJ ur
ap or
Ġwor ry
act ivity
ru b
ru e
Ġinf ect
Ġinf ants
ors es
ang es
Ġtw elve
Ġoff ices
iss ippi
ne x
Ġpres ervation
Ġdisc l
Ġinst ant
con n
Ġsec re
ĠFor um
Ġins pect
Ġcontin uing
20 10
Ġdem ands
Ġdem ocratic
Ġrest ricted
az on
Ġwrit es
Ġ198 6
Ġcomput ing
Ġhard er
Ġche ap
Ġspace craft
Ġinflu ences
Ġcirc le
Ġcop ies
Ġcop per
Ġinit ially
Ġstri king
ĠMin or
ĠCont in
Ġdemonst ration
Ġregard less
ĠÂ »
Ġvers us
ĠTra de
ĠBo ard
Ġcalc ulated
Ġidentify ing
Ġang les
Ġcard i
Ġoccup ation
Ġsil ver
Ġestablish ing
Ġestablish ment
Ġattempt ed
Ġstrateg ic
Ġlimit ations
Ġtiss ues
Ġtub e
ĠAv oid
Ġopin ions
Ġalt ered
ĠVol ume
Ġspect rum
ĠScient ific
ĠQue en
ĠCamb od
Ġregist ration
Ġbehavi ors
Ġerr ors
Ġtoler ance
Ġaqu atic
Ġprecise ly
Ġcloth ing
ĠHG F
Ġnutri ents
Ġaband oned
Ġplas ma
Ġdescend ants
Ġlawy ers
Ġtherapeut ic
ĠZeal and
! "
% .
3 00
4 2
5 4
E ar
R P
S ec
c ut
d oor
g reen
l ines
p ent
r ity
y a
Ġ q
Ġt ension
Ġa esthetic
in ally
it arian
Ġf ashion
Ġin tern
ic ts
ic ular
Ġd ies
ro g
ro le
ro ve
Ġn ice
Ġg host
ut ch
ĠA ction
ver teb
ĠI X
Ġst ability
am ous
Ġcon stitute
ĠM B
ĠP L
th rop
ĠB ol
ĠB iology
os us
ist ence
em ed
Ġsu it
qu ality
ĠD C
ĠD ig
ĠD eng
ĠE p
ĠE ss
ĠF OR
oc he
oc ent
Ġse arc
ĠG ive
ĠG ran
du ate
Ġus ual
Ġcont ributed
ag on
ip ation
Ġ19 30
ĠK l
olog ically
ail able
ons in
Ġqu as
Ġtra ce
ie val
ific ate
Ġrel ie
Ġacc ommod
rib es
ov ing
Ġneed le
Ġsub mit
iet h
Ġtrans mitted
Ġgra in
con f
hem istry
Ġevery day
Ġsol ve
ĠInd ust
Ġread er
Ġaff airs
Ġadv is
Ġgu ess
Ġmeth ane
Ġsit ting
Ġwrit er
Ġhy brid
Ġmus ical
isc us
Ġreal ized
Ġcomb ine
Ġla wn
Ġrequire ment
ĠMus ic
Ġopt ic
Ġwat ching
lo om
Ġrepresent ation
ĠPol ice
ĠPol icy
Ġaddress ing
ĠCons erv
ĠMar ine
Ġconsum er
olec ular
Ġjud gment
Ġsurv ived
Ġengine er
Ġemer ged
Ġcr imes
pro fit
Ġliter ary
Ġox id
ĠSm all
Ġclean ing
Ġfoss ils
ĠVir t
Ġtrack ing
Ġcapt ured
Ġceleb rated
Ġmembran es
Ġrul ed
Ġconstitution al
Ġlicens ing
ĠTur key
iot ics
ĠPur im
Ġunemploy ment
Ġlin ear
Ġsculpt ure
ĠAff airs
Ġadap ted
Ġeld er
Ġtheore tical
ghan istan
ĠConnect icut
Ġnerv ous
% )
. ||
0 7
B M
C ol
F C
H ar
I ran
M ed
e ven
g ers
h i
i otic
j an
r ings
s is
u ity
â Ĥ¬
in ar
re a
Ġs hed
en za
Ġc ro
it ar
Ġp air
Ġp upp
Ġf ever
Ġin ternet
Ġin herent
Ġm ile
Ġm ira
Ġre ign
ĠT able
Ġg ifts
ut rition
Ġfor b
ow ai
ĠS oy
ĠC AL
ig ible
Ġst range
if ted
ĠP arents
od ed
ĠH indu
and a
ĠE DS
ĠW ood
igh th
nt il
ĠR os
ĠF oster
Ġne ck
ĠN azi
ĠL ee
Ġsh ipping
Ġen erg
ĠJ eff
du le
ard ation
ĠO regon
ru it
ag en
ak a
Ġres c
Ġres idence
Ġar ise
Ġapp lies
ĠCh ief
Ġsc iences
Ġpe er
Ġag ent
ĠV an
Ġwork er
Ġ3 3
Ġ3 9
Ġover come
te xt
Ġra cial
Ġatt ended
Ġmod erate
Ġear s
ĠPro cess
ather ine
Ġmin eral
Ġtreat y
ĠIs lands
Ġhuman ity
Ġbo at
Ġmain taining
Ġdem ocracy
Ġpass ion
Ġtri ang
isc onsin
ged y
Ġpost ed
Ġindu ced
ĠPl ace
Ġprom ising
ĠMed ia
Ġanal ys
Ġ198 9
sp ring
ĠBe ing
Ġfra g
Ġprob ability
Ġcirc uit
Ġinteract ivity
Ġarg ued
het oric
ump s
Ġpay ment
Ġstra ins
thern et
ĠHar ry
AT ION
Ġaud ience
urs day
Ġtrib al
Ġcitiz en
Ġdefin itions
Ġstru ck
Ġdocument ation
Ġvict ory
ero ids
ĠEduc ational
Ġautom atically
Ġtransfer red
ĠSw ed
Ġshut tle
Sc ientists
ĠEv olution
Ġbond ing
ĠCap one
ĠMal ays
ĠGre y
Be fore
ĠTer rit
ĠMiss issippi
Ġoccasion ally
Ġmosquit oes
Ġcamer a
Ġhorm one
ĠPract ice
Ġcort ex
Ġuncon form
Ġpreval ence
Ġdiam eter
ennes see
' '
B ack
D H
D es
J ust
P O
R ed
e ch
h ist
m m
o ys
u gh
y er
Â ®
Ġt ap
Ġa head
he dule
Ġthe or
es ter
or ig
Ġp y
Ġb ridge
ar ks
Ġm ent
Ġm ine
ion e
Ġd ip
Ġl ivestock
ĠT ennessee
se ction
Ġg od
ĠA R
ĠS ing
ĠS ir
ĠS ex
ĠC ard
ĠC umber
Ġas semb
Ġcon gregation
ĠM ess
Ġ1 20
ĠP A
ĠP akistan
ĠB ad
ab s
os ures
ri ve
Ġv om
Ġr ou
ĠG ap
ĠL ittle
og ene
ĠO hio
Ġdis rupt
Ġinc ident
Ġcomp are
Ġme als
Ġimp rint
ens ation
Ġpart ly
Ġag n
Ġag enda
Ġact ing
Ġover whel
Ġra ys
ative ly
rib le
Ġem pt
Ġreg ister
ĠHe ad
Ġ4 2
Ġ4 4
Ġpo le
Ġfl ed
Ġfl our
Ġfl ash
ins ula
Ġdet ention
ĠAl aska
Ġrequ iring
Ġsim ult
Ġmin im
Ġvar iations
Ġvar ieties
Ġmon oxide
Ġcap abilities
Ġelect ro
ĠAn c
ĠSc i
ĠSp irit
Ġdesc riptions
Ġdirect ory
Ġval ley
Ġobject ives
Ġwar ning
Ġbeh alf
ned y
Ġdev oted
Ġpain ful
Ġmult ip
Ġsw im
Ġwind ings
Ġmag azine
app ing
Ġdom ain
Ġsun light
yl ene
uls ion
vere st
Ġpriv ile
Ġpriv acy
ĠNe v
Ġstra nd
Ġarch ae
Ġvers ions
ĠHar vard
ira cy
eal og
Ġserious ly
ham mad
Ġspeak er
Ġreve als
Ġagree ments
He alth
Ġtransl ation
ĠPlan ning
Ġprior ity
Ġbord ers
Ġutil ization
Ġanaly zed
Ġphilosoph ical
Ġgir l
Ġfavor ite
Ġlicens es
Ġinvolve ment
ogen esis
Ġsynt hetic
Ġhop es
RO M
Ġcontribut ions
Ġpaint ings
ĠStep hen
Ġtherap ies
Ġunlike ly
ĠPot ter
Ġaggress ive
Ġalg orith
Ġfluor ide
Ġâ Ĩ
olit an
Ġneu rolog
Ġvoc abulary
Ġpoet ry
ĠEngine ering
oglob ulin
Ġhepat itis
Ġarr anged
ĠSecret ary
Ġspat ial
ĠCumber land
8 1
8 7
A ct
E A
L e
M L
O W
O r
P art
P lease
U nder
V D
b ell
f ri
l av
m id
p ower
w ords
Ġt ag
Ġt ip
Ġt ied
Ġa w
re land
Ġs el
Ġs ale
Ġs izes
Ġc ents
Ġw ake
Ġf urn
ar g
ar ter
Ġh ospitals
Ġl ying
st ation
Ġg rants
im id
Ġfor g
ĠS il
ĠS earch
ĠC are
ĠI b
ĠI reland
Ġcon j
Ġcon vey
Ġ1 10
ĠP age
ĠP overty
ment ia
ĠB ab
ĠH on
ĠH or
ĠH um
ab eth
ĠD am
igh ter
ĠF act
ĠF ace
Ġr ating
ĠG as
Ġnot iced
ant ine
Ġdis charge
iz abeth
ĠIn iti
Ġad vent
Ġres on
Ġres idential
Ġ19 18
au nd
ub ble
Ġag ing
ph alt
Ġwould n
Ġrel ating
Ġno ise
ĠY ears
Ġreg ulation
Ġ4 1
Ġ4 6
erm at
gra ms
Ġear ned
Ġher itage
Ġref erences
Ġart istic
Ġcommun ic
Ġdifferent ly
oun ced
Ġaut ism
Ġins ight
Ġbo ost
Ġserv es
de velop
Wh ish
Ġmar ks
ĠAnd rew
Ġeconom ies
Ġant icip
ploy ment
Ġdev ast
ĠAd ditionally
ĠComm ons
Ġprop ag
Ġplay ers
Ġpost s
Ġchem istry
icult ure
Ġindust ries
Ġann ually
ĠAf ghanistan
ĠCons ider
ĠNe u
Ġdisp ers
Ġdisp utes
ĠWith out
199 6
Ġpoll ut
Ġtravel ed
Ġvide os
ĠMor gan
Ġcra ck
Ġlif est
Ġceleb ration
ĠKe ep
Ġattract ed
Ġsett ings
Ar t
Ġconver t
ĠDem ocratic
Ġtempor ary
ĠLouis iana
eles cope
ĠSu per
Ġcollabor ation
Ġhousehold s
Ġperm its
Ġgold en
Ġmanufacture rs
ĠLar ge
Ġsurve illance
Ġmerch ants
roscop ic
Ġepis ode
ĠAbd alla
Ġbibl ical
Ġintermed iate
Ġvolunte ers
ĠMove ment
Ġinadequ ate
ĠSoy uz
) )
6 00
8 2
8 3
9 3
N E
S em
T ra
W ell
W ater
d ers
f ive
h abil
i ating
k ed
s he
w as
w orth
Ã ±
Ö ¼
Ġ 000
Ġs oph
Ġc d
Ġc as
or ters
it ory
ic ides
Ġto oth
as hes
Ġn ose
ly c
ol ph
ra it
et ing
ĠA ge
ur g
ow ered
ĠS on
ĠS ometimes
ir us
ir atory
ul i
Ġpro long
el a
Ġcon gestion
ĠM eth
Ġy ields
Ġor al
ĠP ut
th rough
us c
ĠH ot
os ity
ri um
est ions
ain e
Ġv ag
ĠW isconsin
Ġha ven
ĠF ire
ĠF DP
ĠF riday
ĠN on
Ġr hyth
Ġle cture
ĠL ic
Ġsh ade
Ġsh oes
ĠJ ane
ĠJ oshua
Ġwor st
out heast
ĠU V
ĠâĢ ¢
Ġdis ks
ast ro
pl ed
Ġmore rÃŃ
Ġad j
end ment
Ġcl ient
ĠK ids
av or
Ġpre y
Ġsc hedule
own ed
tern oon
Ġtra its
lud e
Ġgen ome
Ġacc idents
Ġbl ues
Ġdevelop s
Ġoff spring
Ġob ese
Ġexp ed
Ġsub mitted
Ġpr on
Ġatt itudes
Ġatt ributes
Ġmet als
ĠAs h
Ġsm oke
Ġmin imal
Ġvar ies
Ġaut hent
Ġgl ac
Ġret ardation
Ġleg s
Ġeduc ated
Ġbre aking
Ġprop ortion
Ġfin ance
Ġrece ives
Ġfac es
Ġ198 5
Ġrad ical
Ġpast ure
Ġground water
Ġfail s
Ġinflu ential
Ġfocus ing
Ġconcer ning
sh ore
ils on
Ġconsum ed
ĠAss ess
Ġlib ert
Ġport ions
Ġsuggest ing
Ġflu ids
Ġcollect ive
Ġep it
ĠPer u
199 9
Ġevolution ary
Ġmount ed
ming b
Ġreflect s
Ġcompl ications
ĠInt eg
Ġsal inity
Ġbit ter
Ġmess ages
IC EF
ĠBar cel
Ġrock et
aint ance
Ġillust rate
ĠBuddh ists
Ġexpand ing
Ġmut ual
Ġattract ive
Ġtub es
Ġfif ty
Ġscen ario
Ġannoun ce
Ġburn ed
Ġnewsp apers
Ġincorpor ated
Ġwonder ful
ĠCamb ridge
Ġsurpris ed
Ġbehavi our
Ġrough ly
Ġneighbor hood
PD F
Ġhomosexual ity
Ġshop ping
ĠAz met
Ġoutbre aks
Ġencry ption
Ġoccas ional
lot te
Ġmarg inal
Jew ish
Ġtack le
Ġhab its
Ġearthqu ake
ĠPoll ution
role um
5 3
C S
D on
T O
b at
b ox
d ation
i at
l ights
m el
r ong
t rans
u ct
Ġ ;
Ġ ic
Ġt ies
Ġt ens
he alth
in th
in ery
Ġc ord
Ġc rown
Ġw isdom
is ition
it ual
it ting
Ġp ec
Ġp ush
Ġb are
Ġb ands
ar ious
Ġm art
Ġm ales
Ġd ental
Ġd uty
as y
Ġh arsh
Ġh orses
Ġth ro
Ġth inks
Ġe rect
il ib
Ġre nt
Ġl osing
Ġg estalt
ra x
ĠA qu
ur t
ĠS EL
ĠC ul
ĠC all
ĠC art
ĠC old
ĠC reek
ĠI P
ad or
ĠM ic
ĠM ond
ĠM arc
if er
ill a
Ġhe ter
ud son
ĠD rug
ĠE thernet
ĠR h
Ġ2 50
ĠG et
ĠL ight
Ġsh apes
og s
Ġint ra
Ġwe ights
pt ic
ag ree
ak h
Ġinc red
Ġ19 11
Ġcomp ress
ĠK owai
Ġsc ope
ĠV T
ĠV iew
ob ra
ĠY ear
Ġspec ified
Ġsupp lements
Ġass im
Ġpres erved
Ġinter ior
ex ts
Ġwell s
Ġtrans p
Ġfact ory
Ġrequ ests
form ance
Ġappro val
Ġaut on
Ġevery where
ĠInd ex
Ġ8 5
Ġdesign ated
Ġrest ored
az are
ĠCent ury
Ġbas in
Ġident ification
ĠCl inical
NA SA
Ġdra ft
Ġprom ise
Ġsaf er
Ġcomb at
Ġdeterm ining
Ġground ing
Ġspecial ist
Ġsw itch
Ġfra gment
ĠPol ish
Ġsepar ation
Ġess ay
Ġcoun ts
Ġpath ways
Ch ild
Ġimprove ments
Ġheav en
Ġlog ic
Ġlog ical
Ġunc lear
Ġspeak s
Ġpsych ological
Ġsyn chron
Ġextra ordinary
Ġcou ples
Ġquant ity
Ġsequ ences
Ġwood en
Ġadminist rative
Ġchalleng ing
Ġsam pling
ĠWilliam s
ĠProt ocol
yp es
ellig ence
Ġexhib ition
Ġvary ing
Ġprohib its
ĠBel ow
Gen eral
Res earchers
Ġinstall ation
Ġpestic ide
Ġbelief s
Ġinnov ative
ĠBet ween
ĠExt ension
ĠPen h
ĠEconom ic
ĠMu hammad
Ġfeud ing
Ġfacilit ate
Ġenem y
Ġsudden ly
Ġloyal ty
Ġdism iss
Ġreven ue
ĠObs erv
Ġrac ism
Us ing
ĠRoss i
ĠRus sell
Ġaccompan ied
6 7
9 7
D I
D L
D ay
D ep
E ach
L O
V iew
c i
d ep
h all
i ables
m n
v ic
v als
Ġt ort
in ced
re ens
on ents
Ġc ensus
Ġw ing
it ate
it ated
Ġp ock
al so
Ġb inding
Ġf les
Ġin ert
Ġm urd
ic ious
Ġto x
Ġh all
ent ieth
Ġe ase
Ġl ent
Ġl am
Ġl ens
Ġl ingu
Ġbe ans
ĠT ext
ol i
Ġg ent
ch a
ĠC WD
Ġpro c
th al
ĠB C
ĠB att
ĠH aw
Ġhe aling
Ġat omic
pp ers
Ġwas h
ĠW orks
ĠR AID
ĠF a
ĠN Y
ĠN ear
ĠN ote
ĠN ext
Ġr ing
Ġr ig
Ġr itual
Ġsp inal
our se
Ġab ol
Ġpl umul
Ġint ention
out atis
Ġres olve
Ġcl oning
Ġapp lying
ĠCh o
ĠSt art
ub lished
Ġrec on
ang er
Ġsome how
rit ten
ĠUn fortunately
Ġcount ed
Ġfl aw
Ġher self
Ġpers u
Ġart is
Th ose
cept ions
ather s
Ġvar iables
gg ed
Ġposs ibilities
ĠInd ividual
gen eration
Ġexpl oring
rop olitan
Ġwar rant
Ġsever ity
ĠCol on
Ġfre ed
Ġtre m
Ġprop os
Ġprop het
Ġ198 8
Ġhard ly
Ġche aper
As s
Ġsw it
Ġfra me
Ġterm inal
An y
Ġteam s
Ġpath s
Ġpay ing
Ġtot ally
Ġut ility
Ġviol ent
Ġdeb ris
ira ble
Ġdeep ly
mat ically
Ġpack ing
Ġgradu al
Ġap ost
bor ne
Ġdocument ed
Ġtele phone
Ġsem antic
Ġinvestig ate
Ġinvestig ations
Ġarri val
ĠFl ag
Ġenh anced
Ġdisplay ed
Ġbond s
ĠArch ives
Ġcomprehens ion
Ġrevolution ary
ĠTur k
Res earch
Ġsac red
Ġpump s
ĠJust ice
Ġassum ed
ĠStand ards
ĠScient ists
ĠUp d
Ġreject ed
Ġorb ital
Ġaccompl ished
Ġwire less
produ ct
Ġwel come
ĠKen nedy
Ġsched uled
Ġgy ri
ĠWik ipedia
Ġfertiliz er
Ġspons ored
Ġcontamin ants
Ġmur der
ĠSoft ware
Ġplumul osus
E ng
E urope
I M
M B
U se
W M
c hest
h n
i op
i ates
n ames
n ai
p an
u its
u fficient
y ou
z z
z one
Â ©
Ġa pe
er ated
at re
at um
Ġc ooking
Ġw ise
is i
or ient
al ks
Ġb ail
Ġb its
Ġf ires
Ġf uels
Ġin land
Ġd a
as hed
Ġh al
Ġth read
Ġl ip
Ġbe ats
ĠT own
ĠT outatis
Ġg ran
ot ten
ow ers
ĠC ell
ĠC lear
ver n
Ġst ring
el ihood
ĠP ra
ĠP oly
ĠThe rapy
op oly
ĠB all
ĠH ur
ĠH ad
ĠH op
ĠH ard
ĠH ug
ĠH aving
ab ama
est ion
Ġv ice
ĠD ie
ĠW all
ĠF A
oc c
un a
ant e
Ġsh o
Ġen velop
Ġen ables
Ġsp ending
ĠJ ul
ap ing
act ions
Ġint r
ĠU r
per t
Ġcont exts
ag raph
Ġall erg
end ix
Ġ19 12
Ġcl ar
Ġman aging
Ġar bit
ĠTh ursday
Ġme al
ĠK amp
ĠK ey
Ġsy mp
Ġthem es
Ġro pe
lect ions
Ġnew ly
Ġdiff er
Ġacc used
Ġbl ind
Ġprov ince
Ġprov incial
Ġph ases
Ġexp osures
Ġac oust
ran ean
Ġsub t
Ġsub sc
oth y
Ġmed ieval
Ġmem ories
Ġed ited
ict ions
Ġsec ular
Ġdist urb
Ġmon arch
ĠInd o
Ġgrow s
Ġexpl oration
Ġenvironment ally
Ġclass ical
Ġmar ry
Ġphys ically
Ġmat ch
Ġbre ed
Ġbra ck
Ġspe eds
Ġprop he
200 2
200 7
Ġcal end
ĠOr ig
Ġri val
Ġindic ating
Ġpath way
Ġcat al
Ġweek ly
ĠAm azon
Ġbur den
Ġfa ult
Ġver tical
Ġste ep
Ġir rit
Ġfat al
Ġmagn itude
Ġtravel ing
Ġprogress ive
Ġaccept able
Ġrefer ring
ĠAnt on
Ġshall ow
ĠPr ime
Ġgradu ates
Ġacqu aintance
Ġcra ft
Ġbreak s
Ġrout es
Ġtend ency
ĠMon itor
Ġillust rated
Ġsem i
ĠMount ain
Ġprint ing
nes day
Ġsurround ed
Ġpet ition
ĠRed u
Ġexperien cing
ĠRef erence
Ġcolon ial
Ġfriend ly
Ġlicens ed
Ġemot ions
CL OS
Ġfo am
Ġsusp ected
ĠMo ore
Ġantib iotics
Ġphenomen a
Ġaccur ately
Ġconstit u
Ġaf ternoon
Ġfing er
Ġkil ometers
Ġtransform ed
ĠLiter ature
igor ous
hyd ration
Ġmetamorph ism
Ġdefic iency
Ġorient ation
Ġguarant ee
Ġdefinite ly
Ġenthus i
ĠGard en
quir y
Ġsimult aneously
6 2
9 4
A c
C A
C at
C ent
E l
H G
K e
O nce
S O
S m
S he
U D
] ,
c m
e ath
f ish
h as
h im
j a
n ia
p in
s ized
w ave
in qu
on ym
Ġs orts
Ġs aving
Ġc ous
Ġc ache
es ar
Ġw ed
Ġw ip
Ġw ider
is er
it ic
Ġp ad
Ġp anc
Ġp avement
Ġb ark
Ġb ases
an ning
ion ed
Ġd ense
Ġd ying
ro v
Ġh ill
il k
il ly
Ġl ights
om on
ĠT urn
Ġg rid
ra ine
et ically
ĠS et
ĠS alt
ĠM end
ĠM oh
ĠM ax
op her
Ġde mentia
ĠB us
ĠB ack
ĠB ran
ĠH as
ĠH yd
ĠH udson
em at
Ġat om
Ġv ass
ĠR ight
ĠN OT
ĠG round
ĠL ater
Ġsh adow
Ġen for
Ġsp o
Ġsp elling
ff ee
Ġdis abled
Ġcont ag
ĠIn n
ag le
Ġres istant
Ġ19 15
Ġcl ub
Ġar med
Ġun ity
ian ts
ok ed
Ġdes k
ob ic
Ġtw entieth
ys ical
Ġprov ision
Ġam yl
ool s
Ġrem em
Ġass istant
Ġhum mingb
Ġcell ular
Ġed iting
Ġ18 00
Ġsign ature
Ġmy ster
air y
Ġperson nel
Ġvis its
Ġris es
Ġmar gin
Ġleg it
Ġbro ke
ĠCent ers
Ġcult iv
Ġben eath
Ġfree ly
Ġleft over
Ġprovid ers
Ġdri ed
ĠPl ay
Ġprevent ed
wh o
lim inary
istic ated
Ġopt imal
Ġrespons ibilities
Ġwind s
Ġrepresent ing
Ġcirc ulation
Ġkey board
Ġcomplex ity
Ġbig ger
reg ular
dom inal
Ġfront ier
Al so
Ch apter
Ġste pping
Ġinteg ral
Ġremov ing
Ġmeaning ful
Ġsal mon
Ġspeak ers
ĠIS O
Ġexc iting
Pro f
Ġwalk ed
ĠDis abilities
Ġpul leys
ĠCommun ist
Ġtarget s
Ġload ed
Ġcoord inates
Ġsolid arity
Ġpoly mer
Ġqual ified
Ġdim ensions
iox id
Ġreprodu ction
aus es
Ġpip eline
ĠAre a
ĠFore ign
rolog y
Ġign ored
ĠGre ater
Ġweap on
ĠElect ric
Ġobvious ly
ĠVictor ian
Ġcos m
Ġtow er
Ġaccompl ish
Ġlik elihood
Ġmort ality
Ġchann el
Ġdipl omatic
Ġdegra dation
ĠQual ity
ĠHo over
Ġexplicit ly
ĠNep al
Ġninet eenth
Ġcav ity
. ]
L ear
O ct
P S
f l
f old
i atric
l a
m akers
n ix
o is
Ä ģ
Ġ ion
Ġt ire
Ġt rick
he astern
re nd
Ġo vers
at ter
en h
en ger
Ġp ine
Ġp alm
Ġp uzz
Ġf et
ar o
Ġto mb
Ġd ign
Ġd uration
Ġd ye
Ġl apt
Ġn urs
ĠT rial
ol utions
im b
im m
im ity
id ae
ĠA h
ĠA ra
ĠA ward
ot ion
ow a
ĠS av
ĠC ook
ĠC orn
ĠC ertain
ver age
ir ms
ul ates
am ents
Ġas p
ĠM ercury
Ġ1 000
Ġy e
Ġal ike
ĠB ridge
ĠH us
os itive
Ġv s
Ġv ot
Ġv otes
ĠD ick
ĠD ocu
ĠE verest
ĠW ilson
ĠR am
ĠR ather
ĠF ront
ĠF RE
oc yt
res hold
Ġ2 10
ĠN eb
ĠG ent
Ġsh r
og ens
The n
ost ic
ĠO ak
Ġad vert
Ġres ist
Ġcl oud
Ġman ual
ĠK ent
ĠK im
ĠK ir
Ġso vere
ens ively
ber ry
Ġcomm em
ĠV ien
Ġover t
Ġcons ensus
Ġbl o
Ġpol es
Ġpr ince
Ġatt ain
ble m
Ġpres erv
Ġmet er
Ġmet ap
Ġref orms
Ġext inction
ues day
Ġmin i
Ġvar ied
Ġmon ks
Ġend angered
Ġent ities
Ġent rance
Ġgovern or
Ġgovern ance
ĠAr ist
Ġins ights
Ġmy self
Ġret ired
Ġclass ification
Ġwar ri
ĠCol lection
Ġident ical
ĠCl uster
Ġel igible
Ġobs erve
Ġfac ulty
Ġ13 5
Ġbus y
200 1
200 6
aster y
ĠGerm ans
ĠOr thodox
Ġfrequ encies
ĠHealth wise
Ġce iling
Ġdemonst rates
Ġdiet ary
ĠCo oper
att ered
Ġdeb t
Ġrespect ive
ĠBra in
Ġspread ing
Ġ190 5
Ġden ied
Ġfarm ing
Ġadop t
enth ic
ĠEl se
ĠEl izabeth
ĠSystem s
mar ks
Ġpow der
Ġvolunt eer
Ġenjoy ed
Ġspin ning
Ġconsequ ence
Ġterrit ories
Ġunivers ities
Ġelement ary
Ġcry st
rust ed
Ġcontribut ing
Ġinnov ation
indu ced
Ġdefe ated
Ġanth rop
Ġpros pect
Ġastron aut
Ã³ n
Ġmosquit o
Ġenem ies
Sub mitted
ĠAP I
Ġsatis f
Ġtor que
Ġinherit ance
Ġingred ients
ĠSaf ety
ĠGall ery
Ġelder ly
Ġrou ter
ĠâĨ ĳ
fri end
Ġpollut ants
Ġlifest yle
ĠBarcel ona
ilib rium
. ).
8 4
A ut
A nt
C N
C ar
F ind
H D
H P
H igh
J u
L et
N e
N et
N ovember
O CR
R el
W orld
d a
d is
f our
h ot
i ro
l ah
n atural
p m
r ul
t wo
v a
v it
Ã ¨
Ġt ends
Ġt apes
he rence
er ne
on ia
at tering
Ġs ister
Ġc ot
ed uc
Ġb ore
Ġb ite
Ġb ought
an ol
Ġd il
Ġd ivers
ro it
ro se
Ġh oly
Ġth y
Ġre vers
st ud
Ġn om
ĠT O
ĠT y
ĠT ype
ol k
ĠA ud
Ġfor nix
ĠS A
ĠS ix
ĠC ost
ĠC rit
ĠI ce
Ġst ores
am y
am ation
Ġas ks
Ġas phalt
Ġor ch
Ġit em
ĠP AR
ri x
ri pts
em a
Ġv on
ĠF ord
ĠF uture
res istant
ĠN eg
un c
ĠL im
og enic
ĠO ften
ew is
Ġcont est
ec on
ec ess
ide o
Ġad hes
Ġ19 19
Ġ19 14
Ġcomp aring
Ġdo ors
Ġcl ients
ĠTh ink
ult ural
au g
ens itive
Ġsc rat
Ġqu eer
Ġover view
Ġgen u
Ġph ones
ook ed
Ġexp ort
uc lear
Ġatt ach
Ġ5 3
Ġass ass
Ġsm oking
Ġdef ining
Ġdet ained
Ġdet erior
Ġart if
Th rough
ty pe
Ġcar b
Ġcor al
Ġent itled
Ġcomple ment
Ġorgan ize
ron ius
Ġpar agraph
ock ing
ee k
ĠPh ot
Ġreport ing
ĠRes earchers
Ġland ing
Ġproduct ivity
Ġ9 5
Ġeduc ators
Ġfore ver
Ġprogram me
Ġbas ically
Ġpoint ing
Ġlast ed
Ġdra matically
Ġpolit ically
ĠTo xic
ĠMed iter
Ġexam ining
Ġbi om
Ġdescrib ing
alt ies
let al
Ġdeterm ination
Ġenc ounter
Ġfil ter
Ġsens es
Ġterm ed
Ġcirc les
ĠRep resent
Ġsun screen
ĠAust ria
Ġport ray
Ġhistor ian
Ġhistor ians
Ġsurv iv
Ġconcent rated
Ġfru st
mosp heric
Ġcut s
Ġcut ting
mon ia
Ġ194 0
ĠPhil ipp
ĠChar lotte
âĢ¦ âĢ¦
Ġavoid ed
ĠInt roduction
ĠMor isc
Ġge omet
Ġevalu ated
Ġ190 6
Ġ190 7
Ġang ular
ĠIS M
ĠOther s
atur ation
ĠRead ing
Ġadminist ered
ĠMex ican
Ġmoment um
ĠInc re
Ġpet roleum
ĠWork ing
Ar ch
Ġmig ration
ĠMa jor
Ġpurch ased
Ġbelong ing
Ġschem es
Ġconv inced
Ġcolon ies
ĠDar fur
Ġillness es
Ġsynt hesis
ha ust
Ġclos est
AID S
Ġfro zen
Ġther m
ĠRo ad
Ġperm issions
ĠLab our
Ġsurpris ing
Ġreplace ment
Ġsubsequ ently
Ġinterf ere
Ġcoc a
inos aur
Ġrow s
Ġnob le
Ġrab b
ĠBru ce
Ġchann els
ĠAst ron
Ġepidem ic
Ġabund ance
Ġhippocamp al
ediatric s
Ġcorrel ation
Ġworksh op
rif ice
Ġamph ip
Ġexempl ary
Ġaccord ance
Ġtheor ists
Ġvom iting
ĠFace book
ĠIniti ative
habil itation
Ġadj acent
ĠMond ay
ĠHop kins
ĠMediter ranean
C o
C omm
H er
J une
L S
M od
N L
P ost
W A
W R
W ill
a ust
b ra
c asts
f s
l ings
l ades
o ard
y te
z o
| #
× ķ
Ġt anks
re ll
er ies
Ġw ings
it iz
it zer
Ġp in
Ġp ale
Ġp iano
an th
ou ds
Ġd w
Ġd ance
le ted
Ġre nd
Ġre ar
Ġbe aring
ĠT u
ĠT reat
ĠT ake
ol ly
Ġg erm
Ġg ift
ow ed
ĠS C
ĠS ign
ĠC ra
ĠC hes
ĠI de
Ġst yles
ir ror
am an
el d
el ines
ĠM it
ĠM os
ĠM un
ĠP y
ĠP ath
th ird
ab ling
Ġhe l
ri p
Ġcom ets
qu are
Ġv ib
Ġv ocal
ĠD ue
ĠE V
ĠR est
Ġse al
ĠG iven
ial s
ĠL ast
ĠL ip
ĠL ocal
Ġsh orter
Ġen act
ĠJ un
Ġab stract
Ġab ronius
ĠO per
pt ed
pl ay
ĠIn terior
Ġk ings
Ġall iance
ress ing
ĠK id
ĠK rom
ĠK atherine
Ġout standing
Ġsc ales
Ġsc ores
Ġrec all
ĠV e
Ġover weight
Ġgen etically
Ġcons ent
Ġrep et
Ġrel uct
Ġprov inces
ov a
Ġob lig
Ġsur ge
uc id
row th
Ġ5 1
Ġmed ian
Ġgo ats
Ġloc ally
Ġref lection
Ġpers istent
Ġext ending
ĠAl abama
Ġco ffee
Ġdist inction
Ġshe ets
Ġsmall est
Ġpar rot
Ġsoc ieties
Ġposs ession
Ġexpl aining
Ġlit ter
Wh o
rop ri
Ġleg acy
Ġrest aur
Ġant ioxid
Ġwar ts
Ġprop ort
Ġaccess ed
Ġdri vers
Ġprom oting
Ġlist ing
Ġrev ised
Ġput s
Ġlo ads
Ġenc omp
Ġspecial ized
Ġcal m
Ġsw amp
Ġinvest ments
Ġinflu enza
Ġkill ings
Ġloss es
ĠAust rian
ĠCar ib
Ġstri kes
ĠBl ood
Ġsuggest ions
Ġcat ast
Ġreason able
Ġ197 9
Ġsurv iving
Ch ar
Ġbar riers
Ġver teb
Ġbul b
Ġ194 5
ĠPhil ip
Ġmind s
ĠPe ace
Ġcalc ulations
ĠMe an
Ġveget able
ns ic
Ġjo ints
Ġdecl ined
ĠAg ain
Ġrot ating
Ġacqu ire
ĠLaw s
bo oks
Ġspir its
Ġencoura ges
Ġquant ities
Ġvirus es
atur day
ĠReg ional
Ġdemand ed
Ġachieve ment
Ġeat en
Ġarri ve
bur gh
Ġsleep ing
Ġsect ors
Ġcompar able
Ġsn ake
ĠMod el
Ġpen et
Ġtim ing
umin um
Ġconnect ing
Ġancest ry
uild ing
Ġnav al
Ġhop ed
Ġschol ar
Ġincorpor ate
Ġlisten ers
Ġstim ulate
ĠCop yright
Ġapprec iate
Ġfing ers
ĠFre edom
Ġnutri ent
Ġprepar ation
Ġcamer as
Ġdepos its
Ġkin ase
Ġpor cup
Ġobser vers
Ġacknow led
Ġconfig uration
Ġwithd raw
ĠMeteor ological
ĠFed eration
Ġdece ased
Ġmetabol ism
ĠOtt oman
pd f
ĠPD F
Ġanalys es
ugh t
Ġempt y
Ġswim ming
ĠCul inary
Ġpropos als
lades h
5 7
A re
A pril
C urrent
I O
L ob
M M
M an
M arch
R eg
T A
b age
c or
d em
f il
f ire
l ishes
n ings
p g
t ically
w orld
y ll
z es
Ġ rom
Ġt act
Ġt ong
Ġt amar
Ġa wa
Ġw ounded
is ations
or ious
it he
Ġp ill
Ġp ile
Ġb ip
Ġin ev
Ġm ud
Ġh am
Ġth ir
Ġl akes
ĠT om
ĠT CP
Ġg ains
id ers
ra id
ot le
ĠS ustainable
ĠC ON
ig ue
ir ical
am en
am ing
Ġpro l
ĠM DS
Ġan emia
th ur
ĠB alt
Ġex ch
um ns
iv ia
ĠE aton
ĠR E
ĠR and
ĠF ar
Ġne are
ĠN C
ĠN I
ĠN at
ĠN evertheless
un ar
Ġle ts
ĠL ewis
art her
ĠJ ay
ard o
Ġab dominal
Ġint act
ĠO cc
ĠO range
ew ards
Ġcont rary
ag ogue
Ġad ul
Ġad mit
Ġad mitted
Ġ19 10
Ġ19 13
Ġ19 17
Ġdo zen
Ġcl ay
Ġj ars
au c
ount ered
Ġcomm issure
ĠSt an
ĠSt rate
Ġsc reens
Ġthan k
Ġrec ur
Ġtra gedy
iff s
lud ed
Ġcol ored
Ġrel atives
Ġbl u
Ġdevelop ers
Ġ4 7
Ġdec or
ert iary
Ġinv ited
ĠPro gress
Ġdef orm
Ġext ension
ĠAl c
hem e
Ġent ers
Ġshe et
ĠAr senic
Ġorgan isation
ĠAn im
Ġbo iling
Ġgl ory
Ġ' '
Ġconf idential
Ġclass ic
Ġequ ality
Ġpract ition
Ġproduct ive
Ġgu ild
Ġoccur rence
ĠSe al
Ġfore cast
Ġeng agement
ĠAd am
Ġbra ins
Ġfin ish
ĠQ ur
Ġ198 1
Ġlo ose
ĠBe yond
Ġenc ountered
Ġfil ms
Ġdoct rine
Ġvol can
ĠTe ch
-- -
Ġsens ors
Ġfra ud
Ġfra gments
Ġdr um
Ġaddress es
Ġsum mar
Ġstat ue
Ġline age
Ġconsum e
Ġess ence
199 7
Ġir regular
Ġbul k
Ġprogress ion
Ġcoll apse
Ġ196 9
Ġaccept ance
ĠDav is
Ġdead ly
Ġge ographic
Ġox ide
Ġfather s
Ġcapital ism
Ġsafe ly
Ġdang ers
Ġult ra
CC C
ĠKore an
Ġpresident ial
ĠSur gery
Ġcustom er
Ġelim inated
Ġexcept ional
oud ini
Ġrepe at
Ġexec utive
Ġpresc ription
Ġweak ness
Ġisol ation
Ġcontinuous ly
ios ity
Ġwitness es
Ġowners hip
Ġdisapp ear
Ġcontam inated
amil ton
Ġanth rax
ĠVill age
Ġoutbre ak
Ġtunn el
Ġpoison ing
ĠTim othy
Ġrecy cling
Ġbot tle
Ġpil ot
Ġpharm ac
Ġneut ral
Ġincent ives
Ġarrange ment
Ġincl usion
Ġconven ient
Ġinterpre ted
Ġintervent ions
ĠEr n
Ġsuscept ible
verteb rates
Ġconj unction
Ġsoph isticated
Ġepit hel
names e
Ġcalend ar
lah oma
ĠCarib bean
2 000
B ased
B oth
F eb
L I
M ark
P r
S im
Y es
a ft
a ism
b umin
d or
e lect
f ound
f unction
g ence
h um
j i
k et
k ind
m ates
r ific
s u
v ia
y ard
Ġ vel
he asant
in ence
re ation
at ibility
Ġs ake
Ġs elling
Ġs aint
en ess
en ium
Ġw ages
it ure
it ives
it ored
Ġp ap
ed ded
Ġb rid
Ġb rows
Ġm m
ion eer
Ġd ual
Ġd ermat
ro c
as so
Ġh ired
Ġh oney
om ous
Ġn ort
ĠT V
ĠT rust
Ġg olf
im ore
ce eding
ce phal
ĠA CL
ĠS anta
ĠC ape
ig il
ĠI C
Ġst ator
Ġst ones
ul u
ul iar
am rul
el ly
Ġas ide
Ġas sets
ĠM att
ĠP rom
op ing
op atra
Ġde als
ĠB ob
ĠB ull
ĠH oudini
Ġex haust
ist a
em ic
Ġsu icide
ac ular
Ġwas hing
Ġv apor
ĠE vent
ĠE ye
ĠF le
ĠF ive
ĠF arm
ĠF DA
Ġse gments
ĠN O
Ġch ap
Ġch ip
ĠG i
ĠG er
ĠJ ones
âĢĻ ,
Ġwor n
ard ed
ia e
ia ge
ĠU pper
pt on
iz ers
ĠIn stitutes
Ġad min
ry an
Ġcl inic
Ġj uries
Ġar thritis
Ġapp le
Ġimp art
Ġun ited
Ġinf o
ber ries
ub le
Ġrec onst
Ġpe pt
Ġtra ding
red it
Ġdevelop er
ĠY es
Ġam monia
Ġexp elled
Ġdec ent
old s
Ġ5 6
Ġinter val
Ġmod est
Ġtrans verse
ĠPro c
Ġfact ories
Ġext inct
Ġmem or
Ġed ges
ĠAl tern
Ġbu ying
Ġco at
Ġmon itored
Ġcor rupt
Ġend ing
Ġown ed
Ġcur ves
Ġcre am
Ġma pping
ĠAr gent
Ġsol ving
Ġ10 5
Ġmain stream
Ġchar ts
Ġconf ident
Ġop ens
Ġgener ating
Ġpract iced
Ġhand led
Ġpass ive
ĠEn ter
Ġdon or
Ġpot ato
Ġprof ound
Ġpain ted
Ġ0 7
Ġrad i
Ġrad ar
Ġcond em
200 3
Ġhead ed
Ġcrit ics
be ing
Ġfil ed
Ġer osion
Ġsex ually
Ġsubst rate
Ġdi arr
Ġlearn ers
Ġflow ing
ann el
enn ium
augh ters
ym ph
Ġtell ing
Ġabs ent
Ġcollect ing
Ġur ine
Ġintrodu ce
Ġdiet s
ĠUN ICEF
ming ham
esc ription
Ġpoor ly
Ġlog ging
Ġavoid ing
IT ES
Ġdecl ar
ĠGree ks
ĠCast ro
Ġbroad cast
Ġhom ogen
Ġexc ited
Ġdraw ings
sec ond
ĠArab ia
Ġattack ed
Ġinvestig ating
Ġinsp iration
Ġpeace ful
Ġimpl ies
Ġpen al
Ġhyp ers
Ġhous ing
Ġrain fall
ĠJer sey
ĠMars hall
ĠAv ailable
Ġharvest ed
ĠBro ok
Ġperfect ly
Ġju ice
Ġpun ishment
Ġcritic ism
Ġsubstant ially
Ġperce ive
itud inal
ĠAM P
Ġtrad em
Ġadjust ed
ĠViet namese
Ġadvoc ates
Ġpal ace
Ġfasc inating
Ġinterf erence
Ġshel ter
exp ected
ĠCa esar
Ġwid th
oven ant
Ġdistingu ished
Ġabsolute ly
Ġphotograph s
Ġabund ant
spe aking
ĠIr ish
ĠMap uto
ĠBuild ing
Ġconserv ative
car bon
ĠTw itter
ĠHom o
Ġregul atory
Ġroutine ly
Ġsod ium
eren n
ĠTem ple
ĠEz ra
Ġexclus ively
Ġmonu ment
ĠSimilar ly
Ġdivor ce
ĠWed nesday
Ġol factory
ĠBang ladesh
Ġmyst ery
Ġbarrel s
Ġsearc hes
ĠMalays ia
ĠTerrit ory
Ġprolong ed
Ġpec uliar
Ġmetap hor
" ;
) ).
6 4
A B
A V
C he
F A
G E
G R
H is
H ave
L ike
L aw
N U
P res
S chool
W S
e z
e ous
g ars
g roup
h r
h u
h ome
i ens
n ight
s ome
s chool
t ains
v ol
v ier
£ o
Ã £o
Ġ @
Ġt ent
in h
re he
Ġo ste
er k
Ġs or
Ġs ending
en a
Ġw ine
Ġp iles
Ġp airs
Ġp iracy
Ġb er
Ġb enthic
Ġh orn
ĠT M
ĠT ro
ĠT our
ol esc
im en
im eter
im edia
Ġfor age
ĠS us
ĠS CD
ĠC omb
ĠI owa
ĠM obile
ĠM aterials
ĠM olecular
Ġy ard
ĠP WM
od d
Ġde leg
ĠH ubble
ĠH amilton
Ġex ceed
ess ional
ac char
ain ted
ĠD ynam
ĠD VD
ĠE N
ĠE ll
ĠW il
ĠW hether
ĠR a
ĠR ing
ĠF il
ĠF isher
Ġse as
Ġse gment
Ġch amp
ĠG DP
Ġle an
Ġle ase
ĠL ith
Ġsh ield
Ġsh aped
Ġsh ares
Ġen cl
Ġen abled
Ġsp ell
ĠJ im
Ġab ilities
Ġpl ed
Ġwe igh
Ġcont rad
ĠIn vest
ous es
Ġad vers
Ġper ipher
ep s
Ġj pg
Ġpart ially
Ġsc ore
Ġtra cks
Ġwork place
ject s
Ġgen ital
Ġcons cience
Ġnew born
Ġrep ublic
ys ics
ause a
ĠUn like
ĠY az
Ġprodu cers
ov ascular
Ġ4 9
aw a
aw ay
Ġsystem atic
Ġpres chool
Ġfe ared
In f
Ġhigh lights
Ġnum er
Ġtrans it
ĠAl bert
hem atic
ĠAr k
Ġins ufficient
Ġcontin ent
Ġpar liament
Ġserv ant
Ġconf ront
Ġdevelopment al
Ġeconom ics
Ġgu itar
Ġprogram ming
Ġeng aging
Ġamong st
Ġpolit icians
Ġpain ts
Ġ198 7
Ġtru ck
ĠEx ec
ĠEx amples
Ġchem otherapy
Ġmean ings
Ġappear ing
val u
Ġmembers hip
Ġsw allow
Ġmov ie
Ġast eroids
ĠUS S
Ġgr asses
ĠThat cher
rict ion
Ġinit iated
Ġmeet ings
ĠBl og
Ġdig its
Ġ197 2
Ġ197 3
Ch rist
Ġreact or
Ġstra in
hest er
Ġinteg rity
Ġ194 7
ĠTra ining
ĠApp lic
AN D
ĠAnt ar
Ġappropri ately
Ġimag ery
ĠIndian a
Ġap es
Ġden y
Ġden aturation
Ġcust oms
Ġbal anced
ĠUs ually
Ġseason al
Ġrob ots
ĠCommun ications
ĠSim on
Ġpret reatment
Ġflood ing
Ġfiles ystem
head ed
Ġanaly ze
Ġsett lers
Ġbreat h
Ġupd ates
Ġbelong s
Ġappe als
Ġefficient ly
Ġthick ness
ĠCom mer
Ġfo al
Ġdynam ics
Ġsusp ended
Ġsymbol s
ĠTest ament
Ġtour ists
hand ed
Ġfol iage
Ġax is
ĠFrank lin
Ġfold er
Ġnest ing
Ġconqu ered
Ġapprec iation
Ġelev ated
Ġrepeated ly
Ġprepar ing
Ġunemploy ed
Cont act
Ġalg ae
Ġaward ed
Ġmetamorph ic
Ġstrict ly
ĠDi abetes
Ġdiscipl ine
ĠKnow ledge
ĠTibet an
Ġundert aken
Ġrefuge es
oler ance
Ġchromos ome
Ġabd ita
ĠDO E
Hist ory
ĠConfed erate
Ġsubsid ies
Ġpup ils
Ġlibr aries
Ġamaz ing
Ġprox imity
Ġclot hes
Ġerad ication
Ġfles h
Ġartis ans
ĠMonitor ing
friend ly
Ju ly
. ),
B et
F ollowing
G l
L C
P R
T S
U p
W ork
W eek
b et
b oth
d al
d ri
e fficient
f ast
f und
f ront
g overn
h igh
k g
k isi
l is
l ist
m ia
m aster
o ids
p res
s a
s ite
v y
w id
w hen
y o
Ã Ĥ
× Ļ
Ġ es
Ġt ab
in ner
re as
er ts
at ile
en er
it ism
Ġp ink
Ġp orts
Ġp ests
Ġb ang
Ġb inary
Ġf an
Ġin ch
ar is
Ġm issions
ic he
Ġh ide
Ġth ou
Ġth row
ct u
ct ors
Ġn ur
Ġbe er
ĠT s
ĠT ell
ĠT uesday
se mble
ol is
Ġg ut
Ġg ang
ĠS D
ĠS ed
ĠS ens
ĠS ite
ĠS unn
ĠS omal
ĠS QL
ĠC ab
ĠC ase
Ġon set
Ġu pt
Ġst ating
Ġst agn
ir i
Ġpro stitution
Ġcon form
ad i
ĠP rim
Ġal uminum
op ic
op ard
Ġde emed
ĠB r
ĠB ased
ĠB ern
ĠH ans
ill er
um a
Ġhe red
em en
qu ar
Ġv ic
ĠD ate
ĠD LL
ĠW W
ĠW al
ĠW ay
ĠW alk
ĠR ating
ĠF ac
ĠF ind
ĠF ox
ĠF amil
oc yte
Ġch ron
ant ed
Ġsp an
Ġsp ider
og a
âĢĻ .
Ġint ent
ew ater
Ġdis se
Ġdis agree
Ġcomp ensation
av ed
ish ok
Ġout door
ens ed
ĠCh air
Ġpart ial
Ġsc al
ile y
Ġqu e
ĠV II
Ġcons olid
Ġunder ground
Ġcol umns
ĠY O
Ġreg ulate
Ġsur g
Ġatt raction
old ing
ne ys
Ġsupp lied
Ġinv asive
Ġinter ven
Ġinter rupt
Ġdisc s
Ġfe els
Ġmod ifications
Ġtrans ist
cent ral
ĠPro duct
chn ology
Ġgra ce
Ġdef ault
ĠAl v
Ġcar go
Ġdist ract
Ġsign aling
ĠAr m
Ġins erted
Ġorgan isations
Ġprot est
Ġdown stream
Ġpar ad
Ġpar ietal
ĠDe ath
Ġret ain
Ġret rie
Ġret urning
Ġfun g
Ġequ ipped
Ġgu ides
Ġve in
Ġwar mer
Ġfore nsic
Ġproject ed
Ġtri um
Ġtri ps
els on
Ġunt reated
Ġoper ator
Ġoper ators
ape ake
ĠZ oo
pect ives
Ġorig inated
Ġprof it
Ġview ing
Ġmen iscus
ĠPl ants
Ġbi ologist
ik h
Ġhapp iness
Ġdiscuss ing
Ġcomb inations
Ġdeterm ines
Ġgre y
Ġsw elling
Ġprim itive
Ġfall en
Ġnecess ity
Ġsubject ed
Ġdest ro
epend ence
Ã© ia
ER S
Ġbat teries
Ġbur ied
Ġthreat ening
Ġlabor atories
ĠPer formance
199 5
cell ular
Ġste pper
uk et
Ġfat igue
Ġunc omm
Ġtur f
Ġtur keys
Ġacqu isition
ĠSchool s
ĠCast le
Ġren owned
ĠPar liament
ĠPers pective
Ġadop tion
Ġsevere ly
Ġplanet ary
Ġpul led
Ġinvestig ated
ĠSol omon
ĠProt ect
Un ited
Ġcoord ination
ĠMc D
ĠJud ges
Ġbreat he
Ġvolunt ary
pris es
Ġpan els
Ġcere mon
Ġsettle ments
ĠLear n
Ġclim b
ĠPal estine
Ġsac rifice
Ġdoll ar
Ġabsor b
Sp ec
ĠQue bec
Ġhoriz on
ĠSum mon
Ġintellig ent
ĠDise ases
Ġshel f
Ġastron omers
po ints
Ġaccomp any
ĠLiter acy
Ġrecip ient
Ġcompris ing
Ġsole ly
ĠDu ke
ĠOk lahoma
ograp her
Ġhypot hesis
Ġprocl aimed
Ġstake holders
Ġfulf ill
Ġjurisd iction
ĠVirt ual
ĠSEL inux
Ġmurd ered
Ġgent le
Europe an
ĠDie go
ĠElse vier
Ġsurviv ors
wid th
! )
* *
A A
D av
G T
H ome
I X
I mp
O C
S F
S ource
S upp
T HE
V M
c f
d am
d el
d ependent
e a
e ared
g ard
g ian
h an
h uman
k al
l an
l ad
l og
n on
n ih
o in
p ath
r atory
u ilt
v ate
y nt
Ö ·
Ġ %
Ġ ||
Ġt orn
Ġa z
at an
Ġc ow
Ġc erv
Ġw and
Ġw ives
ed ed
al g
Ġf lying
ing er
ar ians
ou b
ou ston
Ġd aughters
Ġh ung
Ġth reshold
Ġre vel
Ġre ass
st ruct
st ands
Ġn ick
ĠT yp
se ud
Ġg er
Ġg or
Ġg aining
ut ies
et he
ĠA k
ot ation
ĠS her
ĠS ep
ĠS aturday
ĠC ut
ig g
Ġst ocks
am ins
am ination
Ġcon ve
ĠM ind
Ġan omal
Ġ( âĢľ
ĠP R
ĠP i
ĠP ier
Ġal ert
od a
th ood
ĠB io
ĠB ox
ĠB eth
ĠH az
ri ans
Ġv end
ĠD ra
ĠD utch
ĠW ould
ĠR oc
ĠF L
ĠF ried
oc ate
ĠN ine
Ġr ide
ĠG ates
Ġle ak
Ġle ague
ĠL ady
Ġsh ops
Ġsp ots
og i
rou d
ĠJ ack
Ġpl ug
per ial
Ġall ies
Ġwhe els
Ġ19 00
Ġ19 29
Ġcomp uls
Ġcl icking
Ġj aw
ĠTh ail
ass ion
ace ut
Ġimp ression
Ġun w
Ġun expected
ĠK a
Ġinf ormal
ish op
Ġcomm od
Ġcomm ander
ĠSt ock
Ġthere of
ric ular
ok es
Ġqu ad
Ġqu ills
Ġro ver
Ġra ces
Ġra pe
Ġunder go
ĠY ah
ĠY ellow
ĠHe art
Ġind ication
Ġsupp ose
Ġass ert
Ġpres um
Ġmod es
ĠPro per
ĠPro ceed
Ġform ula
Ġsm ell
Ġmem orial
ruct ive
Ġco inc
Ġresp ected
Ġresp iratory
Ġcar rier
Ġdist ances
Ġent ertain
Ġaut o
Ġest ate
Ġ7 2
Ġactiv ists
Ġcomple tion
Ġsoc io
ĠSc ript
Ġgl ob
Ġconsid ers
Ġstr at
Ġconf usion
ĠPh arm
Ġret ained
Ġgu est
Ġgu ided
Ġlim iting
Ġproject ile
Ġpass ages
Ġwrit ings
Ġbeh ave
ug u
ĠCl ark
Ġprop osal
Ġapplic able
lu x
Ġfac ial
Ġdel inqu
Ġtru cks
Ġ0 6
Ġlo op
ĠBe ach
Ġcal ories
Ġnever theless
Ġsw ord
app y
Ġobserv ing
Ġparticip ated
aut hor
Ġdig it
Ġ50 4
Ġtradition ally
Ġansw ered
Ġ197 8
Ġdisp osal
Ġver se
ES CO
Ġrecomm ends
Ġdiv ide
Ġdiv isions
Ġwin ning
Ġemb edded
Ġsou ls
Ġconsist ently
Ġmix ing
ĠIm am
Ġacqu ainted
Ġmach inery
Ġremain der
ĠCount ry
ĠUs er
So C
Ġcommerc ially
Ġinn ocent
Ġvirt ue
Ġblock ed
ĠKe pler
ura ble
Ġstrugg ling
Ġ195 6
ÃŃ s
Ġemphas ize
ĠWork ers
ĠJud aism
Ġfert ile
Ġupd ate
Ġbelong ed
Ġconv icted
Ġsav ings
Ġreb ell
Ġdu pl
Ġcritic ized
ĠPal ace
ĠTor ah
Ġdat as
ĠMem orial
inf ormation
Ġplatform s
Ġtrust ed
ĠDisc uss
Ġrandom ly
Ġgun s
Ġfle e
ĠAT M
Ġfort un
ĠEconom y
Ġsup reme
Ġelev ation
Ġpurs ue
ĠVill a
Ġathlet ic
Ġpreced ing
ĠStat istics
Ġmanifest ations
Ġhun ters
Ġbru cellosis
ĠCle opatra
Ġsurve ys
Ġsatis fact
Ġclust ers
Ġconscious ness
Ġgather ing
Ġobser ver
Ġsoy bean
ĠSupp ort
Ġthr one
ĠDiff erent
ĠProp het
ĠLang ston
ĠAdv anced
Ġton nes
Ġcaps ule
Ġsail ors
ĠDig ital
Iran ian
Ġabol ition
orient ed
Ġbrack ish
Ġvass als
Ġcontag ious
ĠArist otle
Will iam
ĠChes apeake
rehe nd
ĠThail and
A g
E duc
F S
G ra
J ames
L at
M E
M I
M in
P age
R L
R NA
S everal
T ake
V I
Y et
b ow
b one
c at
c led
c lick
d i
d n
d ata
i ors
m ount
m other
p ers
r aska
s ix
v ial
Ã ¤
Ġ icon
Ġt ut
Ġt ill
Ġt ast
Ġt read
in ance
in ite
in als
Ġo ct
at us
Ġc ovenant
is y
or i
or ney
Ġp est
Ġp agan
Ġb es
Ġf itness
Ġf irms
an im
Ġm arch
Ġm elt
ou ri
ou red
ou ling
ic ian
Ġto ll
Ġd ating
Ġd olph
le ep
Ġl os
Ġn oun
ĠT ree
ĠT ai
Ġg amb
im p
ce pts
ut ation
ut ers
et erm
ĠA B
ĠA mb
ur ches
ur bed
ur ora
ot ype
ĠS ession
ĠC H
ĠC N
ĠC e
ĠC am
Ġst er
Ġst iff
Ġst roke
ay lor
Ġpro be
ĠM ist
if ting
if iers
ĠP a
ĠP it
op es
op ithe
Ġde hydration
us ive
ĠB ow
ĠB os
ĠB iodiversity
ĠH al
ill iant
os a
ri ages
ac re
ac le
Ġv oy
Ġv igil
ĠW ars
ĠR og
ĠR ap
ĠF T
ĠF IG
ĠF ollowing
Ġse ized
ĠN ob
Ġr ic
Ġr hetoric
Ġnot able
ant al
ĠL azare
Ġsp ont
ĠJ oh
ap les
Ġab road
ell ar
ia gn
Ġwe aken
ĠO ri
ag og
Ġk g
Ġk ills
Ġad olesc
Ġres erves
Ġper me
Ġcl ip
ĠTh ird
Ġapp l
Ġme g
ind a
Ġun n
ĠCh ris
Ġsc attered
Ġsc attering
ound ing
Ġpe as
Ġpe ppers
Ġag greg
ĠV erm
ren e
Ġ3 50
Ġgen us
ĠUn ix
Ġrel ates
Ġam id
iss ance
Ġem anc
Ġob l
Ġreg ulated
Ġsur prise
Ġ20 20
Ġdec omp
Ġind ivid
Ġsub d
Ġpr ies
Ġpr one
Ġrem ind
pe ace
Ġpo ems
ble ms
row ave
Ġ5 7
Ġass ault
Ġinter conn
Ġtrans actions
ĠPro b
Ġher bs
Ġhum idity
Ġloc ate
Ġfound er
Ġlong itudinal
Ġdet ain
Th us
Ġhealth ier
Ġvar iability
Ġdep ri
ĠWh ich
the w
Ġent ries
ros cope
Ġaut umn
ĠAn alysis
Ġread ily
Ġtem p
Ġexpl ored
Ġdesign ing
ĠPh uket
ĠDe ad
Ġca ud
Ġret reat
Ġmil it
ĠAnd erson
ris k
Ġleg end
Ġunt o
Ġprogram mes
ĠAt mospheric
Ġpot ent
par ts
ĠAd ams
Ġter rible
ĠSh ould
Ġobs c
ret ion
Ġbi oc
Ġmot ivation
Ġhead ache
Ġfunction ality
Ġfail ing
Ġplac ing
lo ads
Ġevent ual
Ġdr illed
Ġdr illing
Ġdam ages
ĠHealth y
Ġstat istical
ĠBl ock
Ã© e
Ġport rait
umb old
Ġachie ving
Ġcollect ions
Ġcolor ing
rab ility
Ġmarket ing
Ġbur ial
ĠWith in
Ġgard ening
Ġver b
Ġcivil ization
Ġcamp s
pro t
ĠHar bor
Ġprec ision
Ġindepend ently
ĠApp le
ĠApp leton
Ġlack ed
Ġtur key
Ġpack age
Ġdecre ases
Ġ190 8
ĠCor pus
Ġbroad er
Ġcompan ion
AL L
Ġcross ed
Ġhon our
Ġfav our
Ġrob otic
Ġsil ence
Ġtarget ed
Ġdepend ence
Ġattempt ing
Ġconflic ts
Un iversity
ĠGovern or
Ġquar ters
Ġcontroll er
Ġcontroll ing
ĠSee ing
Ġrul ers
Ġdistinct ive
osexual ity
Ġpow ered
Ġconnect ivity
spec ies
Ġrenew ed
Ġalle g
Ġemot ion
ĠDef ense
De cember
ĠVictor ia
Ġpossess ed
Ġcert ificate
Ġaf raid
Ġpros per
Ġmetab olic
Ġecosystem s
ĠHand book
ĠDel aware
Ġtal ks
Ġmac ro
ĠMah omat
ĠBir th
Ġdistingu ish
ĠHol ly
Ġshell s
Ġcurren ts
ĠDisord er
bul lying
Ġthorough ly
Ġov arian
ĠPic asso
orig inal
Ġforg otten
ĠmorerÃŃ a
Ġthro at
Ġlingu istic
ĠHaw ai
onym ous
Ġremem bered
ĠOak land
Ġastronaut s
vit ational
Ġbiom ass
ĠMorisc os
Lob os
Ġvel oc
ĠArgent ina
Ġuncomm on
ĠProceed ings
Ġindivid ually
. -
A f
A v
C all
D id
D ec
F ree
F urther
G reen
N orth
N ext
O GY
S on
b es
c ase
d iff
d irect
f irst
g ien
i ac
i our
n ational
p re
p atic
r il
u i
v ents
w ill
Ö ¸
Ġ `
Ġt ough
Ġt ended
Ġa rose
in ator
re ced
Ġo dd
er ations
Ġs its
Ġc ran
Ġc ured
is ible
it les
ed ience
al ism
Ġb ind
Ġb uck
Ġf arther
Ġf riction
an us
Ġin quiry
ar id
Ġm ul
Ġm ast
ic ates
Ġd irty
as ures
Ġth rown
il st
Ġre w
Ġl unch
st ro
st ers
st able
ly n
ly mp
ation ally
ĠT H
ĠT erm
ĠT ah
Ġg ear
ra ge
ĠA ug
ur red
ot ics
Ġfor um
ĠS S
ĠC at
ĠC as
ĠC ensus
ĠC atal
ĠC obra
ig ious
ĠI D
Ġst ems
Ġst abil
ul ous
Ġas sembly
ith s
ĠM as
ĠM ain
ĠM au
ĠM uch
ĠM IT
ĠM amm
if ier
ĠP K
ĠP ediatrics
Ġal arm
ge red
Ġde ploy
us hed
ĠB on
ĠB loom
ĠH ouston
Ġex ile
ill as
Ġhe ated
em e
Ġwas t
Ġv iable
ĠD ak
ĠD elt
ĠE dition
ĠW ales
ĠR out
ĠF er
ĠF at
ĠF low
ĠF iles
oc ry
Ġ2 20
Ġch amber
ĠG ab
ĠG IS
ĠG Hz
ĠL iver
Ġsh ame
Ġsh ark
Ġsp ite
Ġwe ed
Ġwe eds
ĠO lymp
ru p
ĠIn v
ag ine
ag ger
end ous
Ġres ur
Ġres ort
ass ed
ass ing
Ġapp s
Ġimp osed
Ġimp aired
ĠK ra
av en
Ġout flow
Ġcomm ands
Ġpre dom
ĠSt ore
Ġsy ringe
Ġqu oted
Ġdes ert
Ġro d
erv o
ph ant
vers ion
Ġact ed
Ġgen ealog
Ġnew er
Ġwhen ever
Ġunder m
Ġcol i
Ġam pl
Ġam endment
ov ation
Ġshould n
Ġatt ribute
Ġmet ric
Ġfe e
Ġmed i
Ġmed itation
Ġher b
Ġgra ve
Ġgra des
ivers al
ivers ary
Ġafter wards
Ġed s
io let
ĠAl b
Ġbu g
Ġco in
Ġco aches
Ġ6 3
Ġvar iants
Ġdep ressed
ĠWh it
the re
Ġimportant ly
Ġins ult
ĠNew ton
Ġorgan izing
Ġread ings
Ġ8 4
Ġgl obe
Ġless er
lear ning
ĠDe v
ĠDe ut
ĠDe ep
Ġsk illed
Ġret ina
Ġland mark
Ġ9 00
az a
ĠCan on
Ġoper ational
Ġident ifies
Ġmethod ology
oid al
lu ent
Ġdra g
Ġben ch
ĠSh ort
Ġlist ening
Ġexam ines
Ġair pl
ĠSy m
ĠSy nd
Ġproblem atic
sp an
Ġnon profit
Ġassoc iations
Ġmult ilateral
ĠHis pan
ĠGen etics
Ġprob able
Ġcreat ure
app ed
ann ers
Ġdom inated
Ġmodel ing
Ġsum mary
Ġ/ >
ĠBl ue
ĠComp uter
ĠMar x
ĠMar ia
yn asty
Ġcho osing
Ġ197 6
Ġrepl acing
Ġcit rus
Ġbr illiant
Ġexerc ised
Ġmechan ics
ĠStud ent
Ġfeature d
Ġimplement ing
pro cess
ĠGra duate
Ġnorth west
Ġ194 2
Ġ194 4
Ġbirth day
Ġassess ments
OR D
Ġjo ining
ĠAnt i
ĠPr inc
ĠPress ure
Ġcust ody
Ġcapital ist
Ġcross ing
ĠQu estions
Ġexc av
Ġeight y
Ġlif t
ocol ate
ĠMon th
Ġdispl ays
ĠSol id
ĠProgram me
Ġcitizens hip
Un like
Ġoffic ially
ĠSam uel
Ġemp irical
Ġban ned
ĠProv ide
Ġautom ator
Ġ195 9
Ġparent al
Ġrul er
Ġbound ary
Ġcorn u
ĠSw itzer
Ġpit ched
Ġvit amins
ĠEv idence
Ġdiss olved
Ġprohib ited
Ġdetect ors
Ġfresh water
ĠRel ations
Ġcontract s
Ġunf ortunately
Ph oto
Ġinh ab
ĠCarol ine
Ġabsor ption
inf ected
Ġple asure
Ġantib iotic
Ġconclud es
Ġmamm al
Ġmamm als
roph ic
Ġchlor ine
Ġinstruction al
Ġdepth s
Ġroof s
ĠBrazil ian
Ġwealth y
ĠSlovak ian
Ġexplan ations
Ġpick ed
Ġgall ery
ĠMiss ouri
ĠAbra him
Ġasc ending
ĠPri or
Ġexplo itation
Ġkit chen
Ġunp reced
Ġstret ch
ĠCub a
child ren
Ġearn ings
Ġpond s
Ġcompris es
last name
Ġpharm aceut
Ġbio f
Ġru ins
ĠOS HA
ĠPt ole
Ġscar ce
Ġfest ival
Ġhurric ane
Ġstead y
Ġestuar ius
Ġdrain age
ĠJur Ã©ia
Sec ond
Ġtriang ular
Ġunconform ity
ĠSex ual
Sem itism
Ġlibert ies
Child ren
ĠObserv atory
Ġlent iform
Ġlam ina
ĠFa ith
ĠBus iness
ĠBran ch
ĠNeb raska
ĠVien na
econ omic
ropri ate
ĠBalt imore
auc as
dri ven
quar ters
ĠTai wan
opithe cus
Ġpries ts
ĠSwitzer land
Ġunpreced ented
" ),
. :
A ust
A ugust
B o
C al
C om
D D
G A
G u
H um
K ey
L A
M ake
N I
O D
O ld
S earch
T rans
b ee
c ost
d on
f erence
g iving
h ol
i ography
k er
l ink
l ovak
l ocked
m us
n ote
p a
p owered
p ositive
s ur
s upp
t rue
Ġt ul
Ġa ids
he el
re tt
Ġthe atre
er ce
er ness
en burg
Ġc ing
Ġc ourage
Ġw ra
is a
or on
Ġp el
Ġp ione
Ġb ills
Ġf f
Ġf ool
Ġm i
Ġm es
Ġm ask
ro ck
Ġh ang
Ġl over
om ics
se tt
ol as
ol ves
Ġg est
Ġg ods
ra ce
ĠA urora
ur ally
ow nt
ĠS P
ĠS EO
ĠC ert
ĠC ode
ig ra
ay er
ĠM ath
Ġy east
Ġor chest
ĠP ain
ĠP aper
Ġal ign
ĠB ot
ĠH E
ĠH og
ĠH end
ĠH ep
ĠH uss
ĠH yp
os ke
est ry
Ġv ign
ĠD ream
ĠE s
ĠW a
ĠW or
ĠR an
ĠR un
ĠF ri
ĠF ather
ĠF ull
oc ene
Ġse aw
ĠN ort
ĠN umber
un ity
Ġch arm
Ġch ains
Ġch ances
Ġch urches
ĠG rant
ant in
ort ant
ĠL iving
ĠL ead
Ġcan on
Ġsh ale
Ġsp ark
all ic
ĠJ acks
du e
ear l
ff er
ĠU lt
Ġk iss
Ġinc ons
Ġ19 24
Ġ19 36
Ġcomp elling
Ġcl ouds
Ġman agers
ach a
ach s
ult an
Ġapp et
ord on
Ġinf er
Ġout s
Ġout ward
ber ta
Ġcomm erce
ĠCh ap
ĠCh amber
ĠCh annel
ail ing
Ġtra pped
Ġcol ony
cess ion
Ġrel ies
Ġrel ate
Ġbl isters
Ġtr unk
Ġsub tle
Ġsub stitute
Ġpr ints
Ġpr isons
row se
ne g
Ġ5 4
Ġwhere by
In ter
ins ic
ĠPro duction
Ġform ally
Ġhum id
Ġref usal
Ġfound ations
Ġimport ed
ix on
Ġke ys
Ġ6 4
Ġend ocr
Ġ7 8
Ġactiv ated
Ġorgan ism
Ġcontin uity
Ġsol ids
ĠSc out
Ġexpl os
Ġexpl osion
ier ra
Ġperson ally
Ġca ution
Ġplace ment
iqu ity
Ġpract icing
Ġrest ing
Ġmeth yl
Ġeduc ate
Ġhand ful
ĠSe lect
ĠCan al
Ġve ctor
Ġpass word
Ġunt rusted
ĠEn c
Ġsuccess ion
Ġ17 89
Ġdri ver
Ġimpro ves
Ġprom oted
Ġmot ivated
Ġ0 4
Ġdiscuss es
Ġshort ages
ĠLe ft
Ġmonth ly
vious ly
Ġworks he
Ġvir al
ĠTe aching
Ġsimilar ly
Ġsens or
Ġast on
Ġdr ill
sh ire
An sw
Ġsepar ates
unt ing
Ġcop e
Ġsum mit
iam i
ĠCons ul
Ġindic ators
Ġdig est
Ġteac hes
Ġred irect
Ġcat aly
Ġhistor ically
ĠCont ent
Ġsym met
Ġbat tles
Ġreason ing
Ġsure ly
Ġtext ure
ĠMan ager
ĠGu idelines
ĠUN CLOS
Ġinteg rate
Ġpoll en
pro f
pro v
mon th
mon ary
ĠHar old
Ġ196 7
Ġeffic acy
Ġcy ber
Ġsou p
Ġassess ed
Ġtalk ed
ĠAg ree
Ġimag ination
Ġec ology
ĠPr int
Ġevalu ating
Ġacid osis
Ġreview s
Ġmom ents
Ġsyn agogue
Ġrock y
ĠPers on
Ġstress es
ĠArt icle
Ġwood s
Ġpul se
ĠPlan et
Ġutil ized
Ġfaith ful
ĠUnder standing
IS E
ĠTrans port
Ġround ed
Ġworth y
Ġperman ently
Ġmiss ed
Ġpip es
Sc ience
Ġcontem pl
Ġfavor able
Ġprohib it
Ġrat ified
Ġsynt hes
Ġinterpret ations
Ġband width
Ġdrop s
Ġabsor bed
Ġrecept ors
Ġnarr ator
Ġwitness ed
Ġhur t
Ġmist aken
OL OGY
Ġphr ases
Ġhemisp heres
Ġpure ly
Ġconstit uted
fe eding
Ġlesb ians
Ġcert ified
Ġfirm ly
phal on
Ġcandid ates
Ġspray ing
Ġhun ger
Ġoutl ined
ĠCle an
Ġprosec ut
Ġprev ents
ĠRom ans
Ġimper ial
ĠPub lishing
spe ed
Ġram us
ĠPt osis
Ġacknow ledge
Ġcomfort able
Ġwavelength s
Ġneighb ors
Ġcommission ed
Ġinsc riptions
Ġtu ber
ĠFred er
ĠCarl os
Ġhurric anes
Ġsulf ate
ĠCond itions
ĠLu is
ĠCambod ia
ĠBol ivia
ĠIndust rial
Ġresc ue
Ġprivile ge
Ġmart yr
Ġpock ets
Ġinert ia
Ġbail iff
Ġenthusi asts
Ġmyster ious
Ġcommem or
Rel ated
Ġcot ton
Ġorch id
Post ed
Ġtong ue
Ġneare st
Ġdiarr hea
ĠLith uan
ĠExec utive
Dav id
Ġcaud ate
ĠDelt a
, âĢĻ
< /
? )
C ast
G o
L a
L ocation
M ass
R et
R em
T ime
T ION
a ic
b ro
c ounter
h ill
h ard
h man
k m
l ihood
m o
m ain
p ost
p end
r ise
s un
t ia
v ance
y an
Ã º
â Ħ
ã ĥ
he art
in z
in cy
re ach
Ġo val
er ver
on i
on ite
Ġs ibl
Ġs aints
en ergy
Ġc ob
Ġc odes
Ġw ax
it ted
it ects
Ġp m
Ġp t
Ġp uls
Ġp roud
al in
Ġb aking
Ġb orrow
Ġf ring
Ġf illing
Ġin ability
Ġin exp
Ġm uc
Ġm irror
ou ver
Ġd y
Ġd ens
Ġd ump
le m
Ġh ast
il er
Ġre nder
Ġl ion
Ġl ad
Ġl ining
Ġl oud
Ġl ighter
st own
Ġn emat
Ġg lands
Ġg rie
id ic
ra red
ut her
et ch
ĠA th
ur i
ur ate
ot ypes
ow ing
ĠS Y
ĠS ac
ĠC ru
ĠC aucas
Ġu mb
ver bs
ĠI R
ĠI BS
ir th
Ġas h
Ġcon gress
ĠM C
ĠM es
ĠM iami
ĠP u
od or
op athy
ĠB an
ĠB esides
ĠH em
ĠH ence
ore nce
os m
os itions
os cop
and al
em por
est y
Ġsu ited
Ġv ascular
ĠD at
ĠD ry
ĠE ric
ĠW rite
ĠF all
ĠF lu
ĠF alls
Ġse ign
ĠN a
ĠN utrition
Ġch ips
ĠG ust
ĠL T
ĠL au
Ġsp ik
ĠJ VM
ard ing
ell o
ell er
Ġpl un
ĠU ntil
pt ical
Ġdis asters
ru bs
pl ess
Ġres ident
Ġ19 39
Ġbut t
Ġj e
Ġj unction
Ġar teries
ĠTh y
ĠTh ings
ace ous
Ġme ets
ĠK ol
âĢĿ )
Ġinf ringe
ĠCh romos
Ġpre acher
Ġpre liminary
ĠSt ill
Ġsc rub
Ġte ens
Ġrec alled
Ġdes irable
ĠV it
Ġtra ced
Ġover se
Ġgen omic
te in
ific ant
Ġoff set
ov al
Ġspec imens
Ġtr an
Ġexp orted
ath an
Ġatt ending
Ġcount less
Ġass ent
Ġass isted
Ġinv isible
Ġinter vals
Ġdisc rim
oy le
Ġgra m
ĠAmeric as
Ġeven ing
Ġdef ormation
Ġ18 0
19 70
ĠAl ong
Ġbu nd
ah u
Ġsec ured
Ġrequ ested
Ġpat ches
Ġty ros
Ġappro ached
Ġtreat s
Ġcomple ting
Ġcap ability
Ġsoc ially
Ġread s
Ġbo om
Ġ8 2
Ġ8 3
Ġmain tains
Ġdesign er
Ġstr ont
Ġpublic ly
Ġmar row
Ġsl ide
Ġequ ity
Ġequ ilibrium
Ġphys iology
az z
ccess ful
Ġmat urity
Ġmat hematic
Ġhand ic
eng ers
less ly
Ġcult ivation
Ġimm ense
Ġprop ri
Ġconst ra
Ġhome work
Ġmen u
Ġpost er
ĠSh ia
Ġprom ised
Ġprom otes
Ġname ly
ĠMed ic
Ġauthor ized
ĠEx erc
Ġreal istic
let ion
Ġshort ly
Ġcrit ically
Ġrele ases
Ġz oster
St ep
ĠOr der
Ġwind ing
ĠGe ological
lement ary
sc heme
Ġdest ination
Ġsix th
yl on
PA C
ĠComp rehens
acc o
Ġcit ations
Ġsqu ee
sect or
Ġbr ush
199 3
199 8
Ġcivil ian
Ġstop s
Ġaltern ating
uck y
ĠTra ditional
Ġremov es
Ġnation wide
Ġ196 5
Ġemb arr
Ġcalc ulate
rest rial
Ġcompl aints
Ġsal ts
ript ive
eed back
Ġselect ing
ĠEm ployment
Ġmicro bial
Ġnut s
Ġwebs ites
Ġtransport ed
Ġgot ten
Ġillust ration
Ġillust rates
Ġinn ings
ĠReg ister
Ġphil os
Ġsurround ings
Ġeth ylene
Ġharm ony
Ġstrength s
Ġstay ed
Ex pl
ĠAlex and
Ġautom atic
ĠUnder stands
Ã¡ t
bl ack
Ġexcept ions
Ġcru st
Ġtempor arily
umin ous
aus ing
Ġrang es
ĠArch ae
iling ual
ĠAre as
Ġancest or
ĠFin land
Ġscen es
Ġign or
Ġcry pt
ii i
Ġsick ness
ĠNav al
Ġfro g
Ġuns u
Ġcooper ative
ĠMag azine
Ġconclud e
ĠGal en
Ġdisapp eared
Ġwet lands
ogl io
Ġrub ber
Ġextract ed
Ġsatell ites
Ġmit igation
ĠPort ug
Ġacceler ate
athy roid
Ġchick ens
Ġgall on
ĠRad io
Ġtherap ist
Ġprem ature
Ġinject ion
ĠEc osystem
Ġspray ed
Ġaband on
Ġmanifest ation
Ġcounsel or
Ġtunn els
Ġnutrition al
Ġrecy cled
Se ptember
Ġclust ering
ĠExpl ore
ĠEff ects
ĠPolit ical
Im age
ĠCreat ive
Ġod ds
Ġalleged ly
Ġabd omen
Ġpus hed
Ġble eding
Ġtransf ers
ĠWeek ly
Ġimpair ment
ĠDisord ers
Ġgate way
Ġcontrovers ial
Ġmater nal
Ġinfect ious
Ġcardi ovascular
ĠGran ada
Har ry
Ġenerg ized
Ġfrag ile
Des alination
Ġoverwhel ming
Ġdevast ating
ĠAssess ment
Ġtrem endous
ĠMend el
Ġlegit imate
ĠTreat y
ĠMean while
ewards hip
Ġpractition ers
Ġepithel ial
Ġpenal ty
erenn ial
lis hers
Ġnur se
Ġpharmaceut ical
âĦ ¢
Ġsibl ings
" ).
+ +
B el
G S
G ood
H ung
H uman
H aving
L ife
M ET
M ENT
P ers
P ri
P ublished
T op
U L
a issance
b ian
c al
c all
c ogene
d ale
e ight
f alls
h ang
m ination
p erson
t ered
t ures
t ension
u f
u er
w l
z ens
Ġ ions
Ġt ears
in stein
in burgh
at ar
at tle
Ġw ished
Ġw ires
is se
or us
or ia
or ous
al o
Ġb ass
Ġb ars
Ġf ant
Ġf ier
Ġf usion
Ġf oster
Ġf ouling
Ġm ercury
Ġto ys
Ġd irt
Ġd uties
Ġh atch
Ġth umb
Ġe cho
Ġe ighth
il ty
Ġl unar
om nia
Ġbe aches
ĠT el
ĠT ag
ĠT aj
se a
se arch
Ġg el
Ġg ms
ce eds
ra cle
ut able
et i
ĠA CT
ĠA BS
ch i
Ġfor ty
ow ell
ĠS ab
ĠS outheast
ĠC r
ĠC od
ĠC over
ĠC IA
ĠC hemistry
ul ose
ad vant
ĠM aking
Ġan at
Ġwh ale
ĠP SoC
th ree
ers ion
ere m
ĠB u
ĠB est
ĠB ah
ĠB ird
ect ar
ĠH ind
ĠH old
ĠH ills
ĠH umbold
ore tto
os er
os lovak
and o
Ġhe al
est het
iv ative
ĠD id
ĠW right
ĠW riting
igh ters
nt y
nt ario
ĠR F
ĠN uclear
ĠN elson
Ġle uk
ĠL ink
Ġcan v
Ġen rolled
Ġen abling
Ġsp erm
og g
og ly
og el
ĠJ am
our ing
Ġint ens
Ġint imid
ĠO t
Ġdis par
pl ants
ec s
are n
vel t
ust ion
Ġ19 16
Ġ19 33
ry pt
Ġcl ays
Ġcl ips
Ġj ew
Ġj ack
ass y
Ġun ch
ĠK os
Ġinf ilt
Ġout do
Ġpre jud
ces ter
Ġup right
Ġrec ru
Ġrec ited
Ġrec alls
Ġsome where
ĠV o
ĠV ar
ĠV iol
ph abet
ph ony
ob ility
Ġcons p
Ġra ises
Ġkn ife
Ġunder way
Ġuse less
ĠUn it
ĠY u
oss ary
Ġprodu cer
Ġspec ially
Ġexp end
Ġdec ay
Ġdec iding
hen k
Ġsub ur
ert o
Ġmet ast
Ġfe at
Ġfe es
Ġfl avor
Ġmod ification
Ġgra b
Ġgra ms
Ġref rig
Ġpers pectives
Ġafter life
ck ing
Ġco ating
Ġ6 1
Ġpat ri
Ġpat ron
Ġsign ifies
Ġent ity
Ġappro aching
Ġorgan ised
ĠWe ather
Ġsol vent
ĠInd ependence
Ġtem pt
ĠSp ect
Ġvis iting
Ġserv ants
Ġaff irm
Ġaff inity
oh yd
Ġop ium
ien cies
Ġmar vel
Ġequ ations
ĠRes ults
Ġeconom ically
Ġgu ilty
Ġ9 4
ĠSe pt
Ġhy gien
ĠAd ditional
isc al
pect ral
Ġpur ple
Ġtop s
ĠPl ato
Ġbi ologists
Ġdel iber
oph ila
Ġ0 5
ĠAct ivity
ĠAct ivities
be ans
val uation
duct or
lim ited
Ġalong side
Ġconsider ably
Ġfund ament
abit at
Ġgr asp
Ġcirc ular
Ġsepar ately
Ġclaim ing
Ġdest iny
Ġlive lihood
Ġrecogn ised
ĠCar bon
Ġindic ator
ĠBl air
Ġbat ch
ĠNe h
Ġut er
Ġengine ered
Ġintrodu cing
Ġbr ass
Ġver ify
Ġver ification
ĠPer iod
199 4
Ġlat ency
Ġsearch ing
ĠCo al
Ġ194 1
ĠDevelop ing
Ġslow er
ĠEd inburgh
Ġreflect ing
Ġcompl iance
ĠInt elligence
Ġnews let
Ġtur b
ĠIsrael i
Ġec o
Ġcra fts
ĠCor por
ĠCor ps
ĠCor rection
Ġcompet ent
Ġbreak down
ĠPart icip
Ġfoot print
Ġdraw s
Pro t
Pro cess
Ġextra ction
Ġcou pled
Ġund ers
Ġillust rations
Ġillust rating
Ġbase ball
ĠTechn ical
Ġvacc ination
Ġjur ists
Ġrespond ed
ĠBuddh a
ĠRepublic an
Ġutil isation
ĠMc G
ĠNot es
equ al
ĠMa j
ĠMa o
ĠDem onst
ĠRef orm
ipl inary
Ġvit ro
Ġreprodu ce
Ġpip elines
Ġlandsc apes
Ġsen ator
Ġsufficient ly
bal a
Ġspect acular
Ġexpect ations
Ġign ore
Ġdu ct
ĠBro ad
BS D
unk er
Ġsecret ary
Ġpray ers
Ġlisten er
Ġfram es
Ġantib odies
Ġinhib itors
Ġimmig rant
Ġtour ism
icy cle
Ġerr no
Ġacceler ation
ĠPen insula
Ġroll ing
Ġcrew s
agn etic
Ġimmun ity
ĠEc ology
Ġhydro ly
Ġstret ching
Ġrein force
ĠEth iop
Ġflo ating
ĠCamp bell
ĠVen us
____ ____
Def inition
Ġembry onic
Ġreef s
Ġincent ive
osc ow
ĠLands at
ĠSO HO
Ġcurren cy
ĠIss ue
ĠResp onse
ĠAuthor ity
ĠZion ist
ĠBeh av
ĠHay dn
Ġhierarch y
Ear th
Ġrelie ve
ester day
Ġassemb led
Ġsel dom
ĠHon or
Ġreson ance
Ġanticip ated
Ġcas ual
ĠLic ense
Ġpron ounced
health y
Ġincred ibly
Ġtox ins
Eng lish
Ġenvelop e
Ġconstitu ents
Ġcous ins
Oct ober
Ġmini ature
Ġartif acts
ĠLip ica
Ġproport ions
Ġadul thood
ĠStrate g
Ġdeclar ation
acchar ides
fund ed
Ġtransist ors
ĠMist ake
antal ou
ĠPtole my
antin ople
) ||
D U
D an
D ue
F R
F T
G od
H I
M o
P ublic
S N
S um
S pe
S yn
U SA
V ER
b in
b led
b ury
b iology
c urd
d ate
f lo
h arm
k ers
l i
l ated
l ie
m ay
p oll
r ons
s l
s r
u um
u pt
v n
w er
¼ m
Î »
Ö ´
Ġt ric
Ġt ertiary
Ġa fore
he um
in as
in ology
at ible
Ġc ows
Ġw ool
or se
Ġp s
Ġp od
Ġp lex
Ġb ites
Ġb esides
Ġf ans
Ġf ont
Ġf ired
Ġf iction
an ical
Ġm ars
Ġto b
Ġd well
ent er
Ġl id
Ġl uc
Ġl ymph
st rong
ĠT al
ĠT art
ĠT alk
ĠT AL
ĠT ogether
ĠT elescope
Ġg land
Ġg aps
ra ke
ra ble
et ry
ĠA im
ĠA zer
ot ted
Ġfor cing
ĠS a
ĠS ay
ĠS ound
ĠS ource
ĠC E
ĠC ulture
ĠC itiz
ĠC ITES
ig m
ig nty
Ġst ere
ul ent
el an
Ġcon ception
ĠM ason
ĠM ental
ĠM oscow
Ġan ch
Ġan ten
ĠP ere
ĠP ip
ĠP IN
ĠP alm
ment ioned
od ge
op en
ere nd
us er
ĠB our
ĠB ase
ĠB alk
ect in
ĠH I
ĠH alf
ab lished
ill o
ill ation
um ing
Ġat he
ac i
Ġv oted
ĠD M
ĠD ur
ĠD un
ĠD ros
ĠD ensity
ĠW ang
ĠW ool
ĠR ub
ĠR ule
ke e
ĠF light
ĠF idel
ĠF LE
Ġse pt
Ġse asons
ĠN az
un s
Ġch a
Ġr h
ĠG ay
ĠG reg
ort iculture
ĠL ance
ĠL uc
ĠL ocation
ĠL inux
Ġsh ock
Ġsh rubs
Ġsp ores
og amous
ĠJ Ã¡t
Ġwor ried
Ġab oard
Ġim bal
are t
ide a
Ġinc idence
Ġres il
Ġres ervo
Ġ19 22
Ġ19 31
Ġper cept
Ġper for
Ġcomp ression
so e
so on
Ġcl ues
ass ment
Ġimp orts
ord er
Ġun related
Ġun real
ĠK re
ian g
ĠCh arm
Ġup coming
ang el
ric s
Ġqu iz
over ning
Ġdes perate
ĠV ern
ĠV ideo
ĠV lad
Ġtra il
ie ve
ob ject
Ġra cing
ll or
ific ates
Ġany way
Ġdiff ers
ĠY esh
Ġem ission
ov o
Ġreg ulating
Ġfirst name
ĠHe y
Ġexp ense
gra nd
Ġshould ers
Ġpr ide
Ġrese mble
oth ing
Ġsupp ress
ĠAs her
ĠAs sy
Ġwhere ver
ont o
In c
Ġcent ered
Ġmod ules
Ġmed ull
Ġtrans itions
Ġhum iliation
Ġlar v
Ġfound ing
Ġdef lection
Ġdef icit
Ġext ensively
led soe
Ġart ic
io ch
ĠAl berta
Ġpub lishing
ues ts
ah o
Ġsee ks
Ġback ed
Ġcar cin
Ġmin istry
Ġcor related
the ir
Ġcur ious
ĠAr thur
ĠRe qu
Ġpop ulated
Ġ10 1
ĠAn ne
gen cies
Ġgrow ers
Ġstr ang
Ġstr ata
Ġconf er
Ġpract ically
Ġland ed
me ga
Ġleg ally
ĠCon c
Ġrest art
ats on
Ġbra d
ĠZ one
Ġaccess ing
Ġprof ile
ĠSh al
Ġsocial ist
Ġrecord er
Ġexam inations
Ġperiod ic
Ġ12 8
ĠSy mb
Ġdel icate
Ġ0 1
Ġrad ius
Ġlo ans
Ġrele asing
Ġrele vance
Ġpast eur
ĠNorth west
Ġmult ipl
Ġ14 5
Ġsimilar ity
Ġlower ing
Ġconsider ations
ĠUS DA
Ġsent enced
Ġsix ty
ĠCD C
yl um
Ġreturn s
Ġreported ly
Ġpay ments
ĠCont act
Ġflu x
ĠJu venile
Ġintrodu ces
ĠHist oric
Ġexerc ising
199 2
sequ ently
ĠGra de
Ġviol ations
bre aking
Ġ194 3
ĠBo erne
Ġ196 6
Ġcy cles
Ġconsist ed
ĠIm perial
Ġtur tles
Ġpack ed
Ġdiagn ostic
ĠAustral opithecus
ey ed
Ġselect ive
Ġcompet e
ĠBar b
ĠBar n
Ġsoon er
Ġexc luded
ĠPers ons
Ġencoura ging
ĠRec ord
ĠHuman ism
Ġbehavior al
Ġsil ent
Ġsem inar
Ġdemand ing
HE D
ĠCommun ication
ĠAccording ly
Un fortunately
Ġemp ower
Ġutil ize
Ġutil izing
ĠPat ients
ĠMc C
Ġtou ched
Ġemphas ized
Ġkid neys
Ġphysic ists
Ġexhib its
Ġnegot iation
ĠDem ocr
Ġpan ic
Ġpip e
Ġincor rect
che ck
Ġ189 0
Ġille g
ĠMat hemat
cont rol
Ġesc aped
Ġroyal ty
Ġcoal ition
Ġnav igation
AP I
Ġtrig gers
Ġhaz ards
Ġassum ption
Ġfro gs
ĠSum mer
Ġinhib itor
Ġfell ows
Ġmist ake
Ġadvoc ate
Ġadvoc acy
Ġmanufacture r
ĠTer ms
ĠSk ills
ĠDisc rimination
Ġinvent ed
Ġphotos ynt
ĠIll ust
ĠRab b
Ġrub b
Ġmail ing
Ġneighbor ing
Ġtraff icked
ĠKar uk
ĠPri ze
ĠNol an
Ġadequ ately
Ġexplo ited
Ġpermit ting
ĠBru cellosis
Ġhyper tension
Ġrein for
ĠAgricult ural
Ġredund ant
Ġmand atory
Ġcann on
ĠKn orr
ĠCreat or
Ġassign ments
ĠPsych ology
Ġfertiliz ers
ĠAccess ed
ĠVis ual
ĠMur ray
Ġdepart ments
Ġparas ite
Ġexclus ive
ĠLy me
Ġtransf ormation
Ġabnormal ities
Per haps
Ge orge
Ġremed y
Ġestuar ine
Ġsecre ts
Ġaccommod ate
Ġmira cle
Ġforb idden
Ġpy ram
Ġstrand s
Ġalgorith m
Ġcommunic ating
Art icle
ĠMeth od
Ġexped ition
Ġannounce ment
Ġic onic
Ġcompress or
ĠVT L
Ġsynchron ous
Ġtort ure
ĠBatt in
product s
ĠHug hes
ĠKir k
Ġsovere ignty
roit in
Ġcarb ohyd
ĠRepresent atives
Ġrepet itive
Feb ruary
Ġchap ters
Ġtradem ark
ĠDynam ic
ĠYaz id
ĠSunn i
Ġupt ake
opic rin
Ġsurg ical
ĠScript ure
Ġglob ally
ĠLazare tto
Ġunn ecess
Ġemanc ipation
Ġveloc ity
Ġwast ewater
ĠHispan ic
ĠHuss ain
ĠJacks on
Ġfring ed
Ġinexp ensive
Ġoutdo ors
ĠDros ophila
ĠJÃ¡t iva
" :
D O
H C
H i
H CR
M us
M ain
P E
S W
S te
S outh
S ometimes
S ocial
T ext
a it
c ausing
f ro
g ood
h is
h al
h om
h alf
j e
l at
l ab
l os
m uch
m issions
m aker
n at
o S
o ct
o ons
p ack
r ator
w ere
x y
Î ¿
Ġ ib
Ġt ones
Ġa rom
in st
re nder
Ġo ught
Ġs id
Ġs ends
en z
Ġc f
Ġc yl
Ġw ishes
or as
or ike
Ġp ose
Ġp ediatric
Ġp seud
Ġb ull
Ġb apt
Ġb unch
Ġf ence
an ed
an an
Ġin ning
Ġin app
Ġin acc
Ġin effective
Ġin aug
ar re
ar an
ar ium
Ġm arsh
ou ch
ic ulus
Ġd orm
le tt
le vant
as is
Ġh ind
Ġh int
il iated
Ġre habilitation
Ġl enses
Ġn u
Ġn ights
Ġbe et
se at
Ġg ly
Ġg ross
Ġg ently
Ġg overning
Ġg uests
im ir
im mer
id uous
ĠA id
ĠA ges
ĠS ag
ĠS elf
ĠC hen
ĠC inc
ĠC ats
ĠC ox
ĠC emetery
ĠC hemical
ĠC ultural
ig ion
ig ma
Ġu pl
Ġst ain
ir rel
ay ers
ĠM and
ĠM other
Ġan ger
Ġ1 15
Ġ( $
ĠP G
Ġal ien
Ġal pha
op ath
op ping
ĠB ac
ĠB uff
ĠB CE
ĠH erm
ĠH aga
ri pp
rom es
est in
est inal
Ġv i
Ġv est
ĠD F
ĠD oyle
ĠE ra
ĠE sp
ĠR osen
ĠF ra
ĠF ern
ĠF ortunately
ĠN ixon
Ġr um
Ġr ings
Ġnot ably
ĠL ate
ĠL DH
Ġsh out
Ġsh ifted
Ġsp r
ĠJ oint
gh rib
ell es
ĠU RL
ĠO N
ĠO ntario
ight ed
Ġdis h
ast ogi
ag u
ag us
Ġinc oming
ong ol
Ġhas n
Ġ19 27
Ġ19 38
Ġper f
Ġper sec
Ġcomp act
Ġdo zens
Ġj un
Ġun bel
ĠK DE
av y
av ian
ĠCh ass
Ġpre st
ĠSt one
ĠSt ef
Ġsc ored
Ġup set
own ers
ail ability
Ġqu ail
Ġtra ins
lic t
ph ase
ob a
te ch
Ġra y
ond ing
ond roitin
we b
we ed
rit ical
Ġrep ent
ific ent
Ġrel iability
Ġbl acks
Ġoff shore
Ġem blem
Ġtr ies
Ġtr ash
Ġob taining
Ġshould er
Ġcount ing
Ġ5 2
Ġ5 8
Ġsupp l
Ġmet a
Ġmet res
Ġinter section
Ġdisc ern
Ġdisc iples
Ġfe as
Ġfe eds
Ġfe athers
Ġfl ies
ex pl
Ġform ul
Ġplan es
Ġlong est
ĠAl f
Ġcommun al
omm ended
Th ough
ah at
Ġco h
Ġ6 7
Ġ6 8
Ġdist ribut
10 2
Ġmon opoly
Ġcor ners
the ning
Ġser pent
Ġma pped
ven ue
Ġevery body
Ġins ert
Ġgroup ed
12 0
Ġsol itary
Ġsoc ietal
ĠAn th
Ġbo ards
Ġredu ctions
up s
Ġgl ad
Ġdesign ation
Ġdesign ers
ĠJew ry
Ġconf ined
Ġpress ed
Ġpress ing
Ġgener ic
Ġpublic ations
ĠRes ervation
acter ial
Ġ9 3
rop ical
rop ortion
ax is
Ġpresent ly
az e
az ar
Ġmat ches
Ġmat rix
gin ning
Ġbuild s
osp el
esp ecially
Ġtre k
Ġhere in
Ġprop oses
Ġplay er
work ers
Ġfree zing
Ġfin anc
Ġindu ce
Ġrecord ings
Ġcost ly
Ġestab lishes
sp ace
ik a
ung le
Ġprevent ive
let in
Ġcomb ining
ĠLe ase
Ġer y
Ġz er
Ġvol umes
ĠTe achers
anc ies
Ġsimilar ities
ĠGen esis
Ġmag ic
Ġann iversary
ĠUS EPA
Ġdr inks
ann af
ĠMay be
Ġsun ny
Ġparticip ant
Ġconduct or
het orical
ĠCar ter
Ġstri p
PA A
Ġdig ging
Ġlib eration
Ġreason ably
Ġ197 1
ĠNe ed
ĠNe ither
Ġce ment
Ġcollect ively
Ġsqu irrel
Ġep igen
Ġreact ors
Ġstop ping
bre v
Ġwin ters
Ġ194 8
Ġcoll aps
On ly
Ġemb od
ĠInf ect
Ġful vic
Ġcompl aint
ĠInt erest
Ġjo ins
bo ards
ĠQu arter
Ġexc ite
Ġfoot ball
ĠPar ks
ĠSl avery
ĠCour se
Ġmanufact ured
Ġformer ly
Ġcapt ive
Ġhost s
Ġconce ived
Ġinstruct or
Ġx er
ĠKe elan
Ġfear s
ĠFl orence
Ġdoub led
Ġjournal ists
aur us
Ġ195 2
Ġsn aps
Ġtou ching
Ġpen insula
ĠJud ge
Ġenter prise
Ġenter prises
ĠMa ghrib
Ġexhib ited
Ġpit cher
ĠGr iff
Ġrecommend ation
ĠProf essional
Ġinput s
ĠMat thew
Ġsurvey ed
Ġalt itude
Ġalt ogether
Ġreb els
Ġharvest ing
ĠMil itary
Ġexcell ence
Ġpun ish
ĠCom oglio
Ġnav igate
ĠCzech oslovak
ĠElect ronic
Ġtrig gered
Ġspot ted
ĠTor ral
part y
Ġcollabor ative
,' '
Ġath lete
ĠMem bers
Ġstim ulation
ĠRem ember
Ġinnov ations
step s
mas ters
Ġdro pping
Ġreject ion
Ġdial ogue
Ġfort une
Rec ent
Ġconqu est
RI Z
Ġlik ed
ĠHand el
Ġplas mid
Ġdepos ited
Ġscan ned
Ġhorm ones
ĠBir mingham
Ġsched ul
umul ative
ĠGold en
Ġbackup s
ĠTr uth
oglob in
Ġguarant eed
orr h
Ġembry os
new s
ĠSar ah
Ġstrengthen ed
Ġinstitution al
ĠMur Ã§
Ġworksh ops
Ġcab inet
Ġcomprom ise
Ġirre vers
Ġindirect ly
Ġprecip itation
ĠJob s
ĠLess on
Ġbutterf ly
ĠCambod ian
Ġghost s
ĠSwed en
ĠSwed ish
Ġagn ates
ĠAnc estry
ĠNev sky
Ġarchae ological
Ġalgorith ms
arg on
ĠIb n
Ġrhyth ms
Ġerect ed
Ġassim il
Ġtransp arent
Ġauton omous
dep th
Ġrig id
Ġape x
Ġgran ite
ĠUr ban
Ġacoust ic
ĠRedu ction
Ġpanc reas
Ġenfor ced
Ġdesk top
Ġvot ers
ĠFRE E
ĠGent iles
Ġamphip ods
ĠKid ney
Ġacknowled ged
Current ly
Ġinev itable
ĠAMP s
Ġber ries
ĠFamil ies
oub ted
Ġcompuls ory
Ġrebell ion
ĠAmb ass
ĠNob el
ĠMau i
ĠDak ota
ĠSym ptoms
ĠSynd rome
ĠHep at
oske letal
Ġappet ite
Ġendocr ine
Cast leton
odor ov
Ġinfringe ment
ĠMedic are
Ġjew el
antalou pe
Ġtob acco
ĠFLE GT
Ġlarv ae
ĠCinc inn
) ?
, )
- ,
. --
/ .
B er
D ar
D isc
D NA
D Ã©
H S
H el
K E
L ib
L ocal
M a
M ary
N C
N ear
O s
O ff
P ER
S ur
S ign
U P
U ntil
W ashington
b us
b ands
b ai
b ecause
d ig
f ather
f eld
h our
h ave
k or
l v
l ock
m ans
m ile
m orph
n orth
o op
p ot
s ource
t reat
t own
t ailed
u art
v acy
z antine
â Ī
Ġ rib
Ġt ear
Ġt one
Ġt rough
Ġt elescope
he ads
he patic
in ars
Ġthe ology
Ġo wing
er ion
er able
at ri
at oes
Ġs ap
Ġw re
Ġw icked
or o
Ġp ills
al i
Ġb ent
Ġb il
Ġb od
Ġb old
Ġb ron
Ġb ureau
an z
an en
Ġin k
Ġin gest
ing ton
Ġm ph
ou p
Ġd ent
Ġd ots
Ġd rew
Ġd airy
Ġd inner
Ġd ownt
Ġh ards
il ized
Ġre ver
Ġl ign
Ġl bs
Ġl aund
st ones
Ġn a
Ġn as
Ġn orm
ĠT ests
ĠT ools
Ġg au
im ated
ra ul
ra its
ut en
ĠA L
Ġfor ums
Ġfor amen
ĠS ent
ĠS el
ĠS quare
ĠC and
ĠC amer
ĠC ognitive
ig her
ĠI ron
her lands
ad ded
ĠM t
ĠM ine
ĠM enn
ĠM CI
Ġwith stand
Ġy es
ter a
if th
ĠP ay
ĠP ric
ĠP ict
ĠP RO
ĠP rison
th an
us ually
ĠB oc
ĠB ert
ĠB rig
ĠB ledsoe
ĠH S
ĠH u
ĠH amp
ĠH ope
um atic
os lav
ri en
ri el
Ġsu cc
Ġat e
ac s
ac ious
Ġv oting
ud a
ĠD er
ĠD aily
ĠE X
ĠE ve
ĠE nt
ĠR SS
oc aust
Ġse ats
ĠN am
Ġch at
Ġr ats
ĠG n
ĠG ir
ĠG ib
ĠG rowth
ĠL E
ĠL as
ĠL ook
Ġsh ifts
Ġen cyclopedia
ell ation
ff icking
out heastern
ĠU b
ĠO K
ĠO pp
Ġdis in
Ġdis advant
iz er
ĠIn it
Ġinc ub
end ent
Ġ19 21
Ġ19 34
Ġcomp assion
ire t
Ġman usc
Ġj et
ress ions
ass er
ace ae
Ġun cle
ĠK o
ĠK ur
ĠK ie
ĠK amrul
au er
ian ces
Ġpre aching
ĠSt aff
ors ed
Ġrec overed
ons cious
ĠV eter
ph p
ph ones
lud es
Ġover th
te g
we et
we ek
Ġunder ne
Ġrep utation
Ġeff luent
Ġbl end
Ġam ate
uc ing
uc hea
Ġ20 5
Ġind oor
Ġpr inces
cy th
oth s
Ġpo ore
old en
ne a
Ġsupp orters
Ġmet ropolitan
Ġfl ames
ex cept
ĠPro grams
Ġform ations
Ġloc als
Ġloc ked
Ġref ined
ism ic
Ġext rem
Ġ18 50
Ġ18 70
ict ing
ruct ures
ah n
Ġsim ulation
Ġ6 20
10 16
Ġmon oc
Ġdep letion
Ġend e
Ġfollow ers
Ġresearch ing
Ġgovern ed
Ġappro x
Ġest rogen
Ġins ulation
Ġ7 3
Ġ7 7
Ġcontin ually
read ing
Ġnow here
ĠAn imal
ring ton
Ġbo ats
any on
Ġperson ality
Ġconf used
ĠPh o
ĠDe an
Ġfun gal
inc ome
Ġsl ope
Ġlow ered
Ġant agon
eng ine
less ness
Ġwar ned
Ġwar nings
Ġdon ors
Ġbelie ving
Ġrun away
ĠAd olf
Ġmark ers
ĠComm and
Ġel ite
Ġel abor
Ġprof its
ĠSh ar
ĠMed ica
Ġcomput ational
Ġ16 5
Ġdel ib
Ġ0 8
for ward
ĠEurope ans
Ġemploy er
ĠAll ied
Ġcomb ustion
Ġfil ib
Ġknowledge able
Ġfail ures
Ġprofess ions
St ill
Ġstrong est
ffic iency
ĠSo on
Ġey el
Ġcreat ivity
app ro
med iated
Ġdam aging
Ġexpress ions
Ġri pe
Ġstat ues
Ġsuper f
Ġsuper vision
Ġstri ps
reg ulated
Ġaccording ly
af e
Ġpay load
ĠShe ld
oll ar
umb u
Ġ197 4
Ġrepl ication
Ġdisp roportion
Ġcontact s
ĠAfric ans
Ġut ilities
Ġur ged
Ġcolor ful
Ġemer ge
Ġbar rier
ĠMan ual
Ġinj ust
cil iation
ĠÂ £
Ġcr ash
ĠGra m
Ġfat ten
Ġpred ator
Ġmagn ificent
Ġ194 9
Ġ196 1
Ġcy t
Ġaccount ed
Ġassess ing
oly tic
apt ist
Ġunc onscious
Ġcompl ained
OR K
Ġdecl are
Ġdecl ines
Ġdecl ining
Ġcapac ities
Ġdecre asing
Ġ190 4
Ġpopular ity
ĠPart ners
oles cent
ĠCount ries
Ġcompan ions
Ġspir al
Ġmicro organ
Ġlif ting
ĠPers ians
Pro v
With in
Ġadop ting
Ġoccup ants
Ġund oubted
Ġsem icon
Ġsequ encing
ĠDo ctor
uff le
ĠBer g
Ġinstruct ed
Ġjur or
Ġfem in
ĠSer ra
ĠSer ies
Ġbad ly
Ġconflic ting
Ġmut ation
Ġdark er
Ex p
Ġinsp ire
ĠPM E
Ġcompar isons
Ġball ot
ste pping
ĠOs ages
Ġder ive
Ġpoly mers
ĠJud ah
Ġmis con
Ġlegisl ative
Ġmig ratory
Ġconver ts
ĠNet BSD
Ġpit ch
ĠRef uge
198 5
Ġbox es
Ġcounter parts
Ġnovel s
Ġdiss olve
Ġ186 2
ĠSocial ist
Ġsen ators
Ġarm ies
Ġexec ution
Ġexec ute
Ġexec uted
rag on
ĠWol f
Ġterrit orial
Ġalle v
Is lam
ĠKh umbu
Ġdu rability
Ġconvent ions
ĠCommission er
Ġcampaign s
ĠRich mond
Ġclim bing
ĠElect ive
ĠPal estin
II I
Ġsac rific
ĠTor onto
Ġsynd romes
Ġhus bands
Ġassum ptions
Ġcolle ges
Ġmic roscope
ĠUp on
Ġmel ting
Ġmist akes
Ġelectron ics
Ġradio activity
Ġfasc iculus
Ġgraph ic
Ġerr one
Ġtoler ate
Ġadapt ation
Ġconstit utes
ĠValenc ian
ĠBul gar
ĠNor way
Stud ies
Ġanth rac
ĠPort land
Ġappoint ment
En ergy
Ġax ons
Ġrid ge
ĠStep hens
ĠRad iation
ĠKar bala
Ġfed erations
Ġoverl ooked
Ġdefend ants
Ġtal ents
ĠAp ache
ĠSand y
ĠHel p
Ġlabel ed
Ġkin etics
Ġattend ance
ĠTop ics
Ġhorizont ally
Ġpool s
Ġid ol
Ġlawy er
ĠRen aissance
ĠQual itative
Ġsan ct
Ġgym n
ĠVen ice
Ġprompt ed
Ġoccas ions
Ġbell s
Ġscript ure
Ġarrange ments
cons cious
Ġsoy beans
ĠScott ish
Ġchair man
Ġaccum ulation
ĠRNA i
Ġcomprom ised
Ref erence
Ġadverse ly
ĠIss ues
Ġmorph ology
Ġfer mentation
Ġembra ced
ĠÃĩ ahat
ĠEaster ly
Ġincomp lete
Ġuncertain ty
ĠConst antinople
Ġdimin ished
Ġbutterf lies
Ġtick et
Ġcup s
Ġq adi
Ġintern ationally
Ġquas i
ĠCAL s
ĠAnc ient
Ġmultip ly
oglobulin emia
aund ers
develop ed
Ġdispers ed
Ġbare ly
Ġassim ilation
Ġauton omy
Dep artment
ĠIndividual s
ĠUpd ated
Ġarbit rary
ĠKamp uchea
Ġprophe ts
Ġcatal og
ilk oot
Ġamyl oid
Prof essor
ĠCorn ell
ocyt es
Ġadvert ising
ĠKent ucky
Ġpreserv ing
Ġwarri ors
educ ation
Ġrend ered
ĠPy th
ĠAgain st
Ġadmin ister
ĠSus an
ĠArk ansas
Ġvic inity
ĠYO U
Ġgor illas
Ġsatisfact ion
Ġgamb iae
ĠVerm ont
Aust ral
Ġcing ulate
ĠWor cester
ĠFreder ick
Ġtyros ine
ĠHumbold t
ĠTAL EN
RIZ A
ĠCincinn ati
Ġunderne ath
! âĢĿ
A lex
B s
B orn
C ertain
C ES
D ata
G H
H en
H itler
L ess
M em
M ult
N evertheless
O b
P rodu
S L
S QL
T E
V is
a ver
b ek
c ity
c ology
d r
e as
e lection
f ig
f illed
f requ
i aries
i ologic
j u
l act
m eth
n ear
n als
p it
p ret
p rim
r ut
s erv
w ent
w all
w art
w age
w au
Ö °
Ö ¹
× Ķ
Ġt in
Ġt am
Ġt ide
Ġt itled
Ġt sun
Ġa wards
he w
in v
re r
Ġo ven
er r
on eme
Ġs pp
Ġs lick
Ġs outheast
Ġc ough
Ġc ues
Ġw ound
Ġw ounds
is ure
is ite
or b
or por
Ġp enn
Ġp enc
Ġp heasant
Ġb on
Ġb om
Ġb ribes
Ġb oron
Ġf imb
Ġm im
Ġm asters
ic iary
Ġd ictionary
Ġd ynasty
Ġh ay
Ġth rowing
Ġth rive
Ġe ager
Ġre jo
Ġl b
Ġl augh
Ġl asts
ve t
Ġn m
Ġn ests
Ġn ails
Ġn ausea
Ġn ectar
Ġbe ef
ĠT ar
ĠT ru
ĠT ry
ĠT rib
ĠT aking
ol en
ol lo
Ġg rief
Ġg lyc
Ġg astro
et ting
ĠA er
ĠA le
ch ap
ur ated
ĠS z
ĠS ina
ĠS aunders
ĠC L
ĠC ool
ĠC apt
ĠC eti
ĠC anyon
ig uous
Ġu l
Ġst ays
Ġst atic
Ġst uck
ul ator
Ġpro state
Ġas ylum
Ġcon gen
Ġcon greg
ĠM ang
ĠM aster
ĠM oor
Ġ1 11
Ġwh ilst
Ġ( -
Ġy esterday
if iable
ĠP ul
ĠP CI
ĠP HED
Ġal ge
od rome
th a
Ġde alt
Ġde generation
ĠB act
ĠB ibl
ĠB BC
ĠH imal
Ġex otic
ab is
ill es
ill ary
ess ed
ist ically
Ġcom et
ac cess
ac les
Ġwas hed
Ġv ine
Ġv ocation
iv ic
ĠD A
ĠD re
ĠD ol
ĠD ays
ĠE sc
ĠW I
ĠW alt
ĠW HO
ĠW inter
ĠW atson
Ġha ptic
ĠR ain
ĠR ip
ĠR ivers
ke ley
Ġ2 15
ĠN T
ĠN W
ĠN it
ĠN ich
ĠN OS
un ks
Ġr igorous
ĠG il
Ġnot ing
Ġnot eb
Ġle aks
Ġle thal
ĠL i
ĠL am
ĠL ive
ĠL akes
ĠL inks
ĠL uther
Ġsp ine
all as
The ir
ĠJ os
ĠJ ury
ĠJ enn
Ġpl ots
Ġint ric
ĠO wn
ĠO SI
ĠO stro
Ġdis l
Ġdis ob
ast ics
ec hes
iz ational
iz oph
are r
Ġall ocation
ak i
Ġinc on
Ġad ject
Ġad apter
Ġad herence
end ers
Ġres ervation
Ġ19 26
Ġcomp ressed
ire ment
Ġman ga
Ġj ail
Ġj oy
ose velt
Ġimp ose
Ġimp rison
ĠCh ilkoot
ĠSt ory
Ġdes erve
Ġro oted
ĠV M
ĠV ogel
Ġwork station
ren ia
Ġover head
Ġunder going
Ġrep el
Ġany more
ĠUn iverse
ĠUn iversal
Ġrel ied
ĠY im
ĠY ale
iss ive
Ġem peror
Ġreg ards
Ġexp orts
uc le
int on
Ġdec is
Ġsub mission
Ġadd itives
ink el
Ġinv ite
Ġmet allic
Ġinter sect
Ġdisc oura
ont an
ract or
land o
Ġmod ify
Ġnum bered
ident ified
Ġsm ugg
Ġdef ending
other mal
Ġed it
Ġ18 80
Ġ18 59
ĠAl pha
Th ree
Ġke en
Ġback yard
Ġ6 40
Ġdifferent ial
10 8
10 38
Ġdep ort
Ġdep icts
Ġend uring
Ġend orsed
vironment al
omet hing
Ġsol uble
ĠAn sw
ĠSc henk
gen e
orth y
Ġ8 7
Ġ8 8
Ġmain land
ĠSp rings
ivid ed
Ġdirect ories
ium s
Ġcare g
Ġcare ers
ĠRes ource
Ġadv ised
acter ia
Ġgu ys
Ġmeas les
Ġ9 6
Ġ9 8
Ġ9 78
ĠCon cept
Ġrest s
az ines
Ġmat ched
Ġhand ed
Ġve gan
Ġide ological
Ġoper ates
Ġbas ics
Ġbas ket
Ġpot able
Ġpot atoes
Ġmethod ologies
Ġlast ing
Ġrun off
ĠZ e
Ġsuccess or
Ġsuccess ive
Ġel astic
work ing
Ġcertain ty
Ġaccess ibility
Ġpur g
Ġopen ly
Ġfin ite
Ġmen ing
ĠSh ow
ĠPl us
idd ing
Ġexam s
Ġpri ze
Ġperiod ically
Ġsince re
Ġ0 9
ik i
rim on
icult ural
Ġsing ing
Ġhead ing
Ġshort age
Ġenc oun
Ġopt imize
Ġwat ched
-- --
ĠJohn s
Ġprotect ions
Ġsens ing
sh ould
Ġdest ructive
Ġphot ography
ĠAust in
Ġrecogn izing
Ġstri ped
ae a
ai ro
ĠMar g
ĠMar itime
Ġstandard ized
Ġdemonst rations
Ġbar g
Ġarch ive
199 0
ĠGra du
ĠGra vity
Ġfat ty
Ġcourt room
Ġsouth west
Ġ196 4
Ġ196 8
Ġdeb ates
Ġaud iences
ĠEd it
ĠRuss ians
Ġsat i
ĠIm age
ĠMor oc
EN R
Ġacqu iring
Ġevalu ations
Ġcra cks
Ġ190 3
ĠCor inth
Ġcompet itive
Ġbroad ly
Ġmill ennium
Ġreve aling
Ġbal ancing
ĠQu incy
Ġhon est
ĠCong o
With out
ĠRec ent
ĠRec overy
Ġbott led
Ġcapt ivity
resp ons
ĠBer ks
ĠBer keley
Ġeth anol
Ġadminist rators
rec ord
Ġlength s
Ġpret rial
Ġpet als
Ġflood s
ĠFranc o
Ġstrugg led
Ġenh ancing
Ġcoord inated
Ġball s
ÃŃ a
AS H
Ġanaly zing
Ġsch izoph
Ġpen alties
ĠPublic ations
ĠNet herlands
Ġpurch ases
Ġpurch asing
Ġnegot iated
Ġelim inating
Ġcorrespond s
Ġliqu ids
ĠPaul o
Ġnucle i
ĠInter active
che ll
Ġhit ting
rick x
Ġ186 1
ĠArch ive
Ġbackground s
ĠCap tain
Ġfif teen
ias m
ĠFin ancial
ĠAcadem ic
cont ent
ett es
ĠConstitution al
Ġmeant ime
mark ed
Ġjoint ly
Ġarchitect ural
Sp ace
Ã§ eff
Ġcomment ary
Ġfisher y
Ġinhib its
Ġimmig ration
Cl imate
Ġbrief ly
Ġadvoc ated
Ġgraph ics
ĠImp act
Ġinvent ions
Ġgar age
De velop
Ġcoc on
Ġorb iting
Ġcos mic
ĠBul letin
ĠNor we
Ġrub bing
Ġfol ks
Ġacceler ated
ĠHG H
ĠBas ic
Ġenhance ment
Ġrab bi
Ġsimpl er
ĠAnn ual
Ġinject ed
EE E
ĠCa vern
Ġaggress ion
organ ic
ĠKen ya
Ġoutl ook
Ġrecip es
olit ical
Ġmyth s
ĠRom ance
Bl ack
Ġpig ment
ĠDown load
Ġhepat ocyte
ĠEff ect
Ġcann ib
Ġcann abis
Ġlob es
ĠMark et
Ġdiscipl ines
Ġveter ans
Ġveter inary
ĠEqu ipment
Ġfraction al
Ġquiet ly
ĠVis it
eur ial
Ġtransc ription
Ġpus hing
ĠBa um
Ġtom orrow
ĠPass ion
ĠAppro val
Am ong
Ġintervent ricular
Ġcorpor ate
disc iplinary
Ġacre age
ĠIU GR
Ġfract ions
Ġhierarch ical
ĠPL oS
Ġcro pping
ĠJeff erson
Ġneurolog ical
Ġfurn iture
Ġwed ding
rov iral
Ġhummingb ird
Ġhummingb irds
Ġlapt op
ĠCooper ative
Ġportray ed
Ġrabb is
Ġrestaur ants
Ġcatast rophic
Ġrecur rence
Ġbrows er
ĠEvent ually
ĠNO AA
Ġhypers pectral
ĠFisher ies
Ġperipher al
Ġnumer ical
Ġstagn ation
Ġhered itary
ĠChair man
Ġdestro ying
Ġcommod ities
Ġvoy age
Ġdetain ees
ĠHolly wood
ĠHawai i
Ġdeploy ed
Cal if
Key words
ĠHend rickx
Ġdens ities
ĠComprehens ive
Ġfundament ally
Syn copation
heum at
Ġplex us
erend um
Ġperfor ated
ĠVern on
ĠVlad imir
Ġrubb ings
Ġunnecess ary
fro st
Ġsid ew
Ġinapp ropriate
ĠHamp shire
iret roviral
Ġanthrac is
frequ ency
Ġtsun ami
Ġschizoph renia
1 12
C B
D R
D iff
E m
G iven
H R
K B
K ing
L ist
L eg
M C
M art
M icro
N O
O K
P L
P at
P ar
P op
R S
R T
R AN
S and
T ER
T itle
U ST
W est
b our
b uilding
c ient
d ied
d rop
e ment
e very
f ol
f ra
f amily
g ate
g rim
i om
l ich
l ined
l isher
n i
n as
n ik
n utrition
p ose
p orts
r ils
s er
s ign
s ensitive
t ub
v iolet
z s
| <
Ã ´
× ¢
Ġ ]
Ġt un
Ġt ours
he ll
in is
