{"<bos>":0,"<eos>":1,"<pad>":2,"<unk>":3,"!":4,"\"":5,"#":6,"$":7,"%":8,"&":9,"'":10,"(":11,")":12,"*":13,"+":14,",":15,"-":16,".":17,"/":18,"0":19,"1":20,"2":21,"3":22,"4":23,"5":24,"6":25,"7":26,"8":27,"9":28,":":29,";":30,"<":31,"=":32,">":33,"?":34,"@":35,"A":36,"B":37,"C":38,"D":39,"E":40,"F":41,"G":42,"H":43,"I":44,"J":45,"K":46,"L":47,"M":48,"N":49,"O":50,"P":51,"Q":52,"R":53,"S":54,"T":55,"U":56,"V":57,"W":58,"X":59,"Y":60,"Z":61,"[":62,"\\":63,"]":64,"^":65,"_":66,"`":67,"a":68,"b":69,"c":70,"d":71,"e":72,"f":73,"g":74,"h":75,"i":76,"j":77,"k":78,"l":79,"m":80,"n":81,"o":82,"p":83,"q":84,"r":85,"s":86,"t":87,"u":88,"v":89,"w":90,"x":91,"y":92,"z":93,"{":94,"|":95,"}":96,"~":97,"¡":98,"¢":99,"£":100,"¤":101,"¥":102,"¦":103,"§":104,"¨":105,"©":106,"ª":107,"«":108,"¬":109,"®":110,"¯":111,"°":112,"±":113,"²":114,"³":115,"´":116,"µ":117,"¶":118,"·":119,"¸":120,"¹":121,"º":122,"»":123,"¼":124,"½":125,"¾":126,"¿":127,"À":128,"Á":129,"Â":130,"Ã":131,"Ä":132,"Å":133,"Æ":134,"Ç":135,"È":136,"É":137,"Ê":138,"Ë":139,"Ì":140,"Í":141,"Î":142,"Ï":143,"Ð":144,"Ñ":145,"Ò":146,"Ó":147,"Ô":148,"Õ":149,"Ö":150,"×":151,"Ø":152,"Ù":153,"Ú":154,"Û":155,"Ü":156,"Ý":157,"Þ":158,"ß":159,"à":160,"á":161,"â":162,"ã":163,"ä":164,"å":165,"æ":166,"ç":167,"è":168,"é":169,"ê":170,"ë":171,"ì":172,"í":173,"î":174,"ï":175,"ð":176,"ñ":177,"ò":178,"ó":179,"ô":180,"õ":181,"ö":182,"÷":183,"ø":184,"ù":185,"ú":186,"û":187,"ü":188,"ý":189,"þ":190,"ÿ":191,"Ā":192,"ā":193,"Ă":194,"ă":195,"Ą":196,"ą":197,"Ć":198,"ć":199,"Ĉ":200,"ĉ":201,"Ċ":202,"ċ":203,"Č":204,"č":205,"Ď":206,"ď":207,"Đ":208,"đ":209,"Ē":210,"ē":211,"Ĕ":212,"ĕ":213,"Ė":214,"ė":215,"Ę":216,"ę":217,"Ě":218,"ě":219,"Ĝ":220,"ĝ":221,"Ğ":222,"ğ":223,"Ġ":224,"ġ":225,"Ģ":226,"ģ":227,"Ĥ":228,"ĥ":229,"Ħ":230,"ħ":231,"Ĩ":232,"ĩ":233,"Ī":234,"ī":235,"Ĭ":236,"ĭ":237,"Į":238,"į":239,"İ":240,"ı":241,"Ĳ":242,"ĳ":243,"Ĵ":244,"ĵ":245,"Ķ":246,"ķ":247,"ĸ":248,"Ĺ":249,"ĺ":250,"Ļ":251,"ļ":252,"Ľ":253,"ľ":254,"Ŀ":255,"ŀ":256,"Ł":257,"ł":258,"Ń":259,"Ġt":260,"Ġa":261,"he":262,"in":263,"re":264,"Ġthe":265,"Ġo":266,"er":267,"on":268,"at":269,"Ġs":270,"en":271,"Ġc":272,"es":273,"Ġw":274,"nd":275,"is":276,"or":277,"it":278,"Ġp":279,"ed":280,"Ġof":281,"al":282,"Ġb":283,"Ġf":284,"an":285,"Ġin":286,"ing":287,"ar":288,"Ġm":289,"Ġand":290,"ou":291,"ic":292,"Ġto":293,"ion":294,"Ġd":295,"ro":296,"le":297,"as":298,"Ġh":299,"ent":300,"Ġth":301,"ct":302,"Ġe":303,"il":304,"Ġre":305,"Ġl":306,"ve":307,"st":308,"om":309,"Ġn":310,"ly":311,"Ġbe":312,"ation":313,"Ġis":314,"ĠT":315,"se":316,"ol":317,"Ġg":318,"im":319,"id":320,"ce":321,"ra":322,"ut":323,"et":324,"ĠA":325,"ch":326,"ur":327,"ot":328,"Ġfor":329,"ow":330,"ĠS":331,"ĠC":332,"ig":333,"Ġthat":334,"Ġon":335,"Ġu":336,"ver":337,"âĢ":338,"ĠI":339,"Ġst":340,"ir":341,"ul":342,"am":343,"ay":344,"Ġpro":345,"el":346,"Ġas":347,"her":348,"ith":349,"Ġcon":350,"ad":351,"ĠM":352,"Ġan":353,"Ġare":354,"Ġwith":355,"Ġ1":356,"Ġwh":357,"Ġ(":358,"Ġy":359,"Ġor":360,"ter":361,"if":362,"Ġit":363,"ĠP":364,"Ġal":365,"ĠThe":366,"ment":367,"ts":368,"od":369,"ies":370,"op":371,"ge":372,"th":373,"ers":374,"Ġde":375,"ate":376,"ere":377,"us":378,"ity":379,"ĠB":380,"ect":381,"ĠH":382,"Ġex":383,"ab":384,"ill":385,"ure":386,"ore":387,"um":388,"os":389,"ess":390,"Ġby":391,"and":392,"ist":393,"Ġhe":394,"ri":395,"Ġcom":396,"em":397,"ld":398,"rom":399,"est":400,"Ġsu":401,"Ġat":402,"ac":403,"pp":404,"ain":405,"ive":406,"Ġyou":407,"Ġwas":408,"qu":409,"Ġv":410,"ud":411,"iv":412,"ĠD":413,"ĠE":414,"Ġfrom":415,"ĠW":416,"igh":417,"Ġha":418,"nt":419,"ĠR":420,"ke":421,"ĠF":422,"oc":423,"Ġse":424,"res":425,"Ġ2":426,"Ġne":427,"ĠN":428,"un":429,"Ġch":430,"Ġr":431,"ĠG":432,"Ġnot":433,"ial":434,"ant":435,"ical":436,"ort":437,"Ġle":438,"ĠL":439,"00":440,"Ġhave":441,"Ġcan":442,"Ġsh":443,"Ġen":444,"Ġsp":445,"og":446,"all":447,"art":448,"The":449,"ould":450,"rou":451,"ich":452,"Ġthis":453,"ĠJ":454,"ther":455,"gh":456,"âĢĻ":457,"ap":458,"'s":459,"Ġwor":460,"du":461,"ated":462,"ions":463,"ard":464,"our":465,"Ġab":466,"ell":467,"ome":468,"ost":469,"ear":470,"ia":471,"Ġpl":472,"ff":473,"act":474,"Ġint":475,"out":476,"Ġim":477,"Ġtheir":478,"Ġwe":479,"ĠU":480,"ans":481,"ĠO":482,"ine":483,"age":484,"ew":485,"ight":486,"ĠâĢ":487,"Ġwhich":488,"pt":489,"Ġus":490,"Ġdis":491,"per":492,"Ġcont":493,"ru":494,"ast":495,"pl":496,"ec":497,"iz":498,"ĠIn":499,"ag":500,"ous":501,"are":502,"Ġ\"":503,"ide":504,"Ġk":505,"cc":506,"ib":507,"ater":508,"vel":509,"Ġwere":510,"ations":511,"ust":512,"Ġall":513,"Ġwhe":514,"ak":515,"ary":516,"Ġmore":517,"orm":518,"Ġinc":519,"Ġthey":520,"ong":521,"Ġad":522,"end":523,"ip":524,"Ġres":525,"Ġhas":526,"Ġ19":527,"Ġper":528,"Ġcomp":529,"ual":530,"ire":531,"Ġdo":532,"ood":533,"Ġbut":534,"Ġother":535,"so":536,"ry":537,"ance":538,"ild":539,"Ġwill":540,"Ġcl":541,"Ġman":542,"ep":543,"ence":544,"Ġj":545,"able":546,"ach":547,"ose":548,"ks":549,"Ġar":550,"ress":551,"ĠTh":552,"ult":553,"ass":554,"Ġapp":555,"Ġone":556,"ace":557,"Ġme":558,"ase":559,"Ġimp":560,"reat":561,"Ġev":562,"ord":563,"ction":564,"ind":565,"Ġun":566,"ign":567,"Ġalso":568,"ĠK":569,"Ġhis":570,"ice":571,"au":572,"âĢĿ":573,"ount":574,"av":575,"Ġinf":576,"Ġwho":577,"ory":578,"ish":579,"Ġso":580,"Ġout":581,"ents":582,"ens":583,"ian":584,"ber":585,"Ġcomm":586,"ĠCh":587,"ame":588,"Ġpre":589,"ĠSt":590,"Ġpart":591,"Ġsc":592,"ite":593,"ition":594,"ake":595,"ub":596,"ime":597,"Ġabout":598,"ack":599,").":600,"Ġte":601,"ree":602,"ces":603,"very":604,"olog":605,"ors":606,"Ġsy":607,"Ġthan":608,"ound":609,"one":610,"Ġbeen":611,"Ġyour":612,"Ġthem":613,"Ġup":614,"Ġrec":615,"Ġmay":616,"ile":617,"Ġyear":618,"Ġpe":619,"ang":620,"Ġsome":621,"Ġthere":622,"ue":623,"Ġits":624,"own":625,"ates":626,"ric":627,"Ġag":628,"ok":629,"Ġstud":630,"ail":631,"ĠâĢľ":632,"mer":633,"ons":634,"low":635,"Ġqu":636,"Ġinto":637,"Ġbec":638,"ike":639,"nder":640,"Ġhad":641,"over":642,"Ġdes":643,"Ġro":644,"ough":645,"ays":646,"tern":647,"ĠV":648,"rough":649,"Ġtra":650,"ings":651,"ie":652,"lic":653,"Ġwork":654,"ren":655,"erv":656,"velop":657,"ph":658,"ĠIt":659,"ities":660,"ople":661,"hed":662,"lect":663,"ob":664,"iff":665,"vers":666,"Ġ3":667,"ms":668,"lud":669,"Ġ-":670,"ject":671,"Ġact":672,"ally":673,"Ġthese":674,"Ġover":675,"Ġgen":676,"Ġbet":677,"Ġcons":678,"te":679,"Ġra":680,"Ġtw":681,"Ġwould":682,"ond":683,"ational":684,"Ġkn":685,"Ġnew":686,"we":687,"rit":688,"Ġwhen":689,"ove":690,"Ġunder":691,"ments":692,"Ġ200":693,"Ġsa":694,"Ġrep":695,"stem":696,"ll":697,"Ġtime":698,"ys":699,"ific":700,"irst":701,"Ġeff":702,"wn":703,"ause":704,"Ġsuch":705,"Ġpeople":706,"Ġcol":707,"Ġuse":708,"Ġmost":709,"ĠThis":710,"Ġany":711,"red":712,"ĠUn":713,"Ġhow":714,"ient":715,"cess":716,"ious":717,"les":718,"Ġdiff":719,"ative":720,"Ġrel":721,"Ġacc":722,"Ġbl":723,"Ġno":724,"ced":725,"ning":726,"Ġinclud":727,"Ġdevelop":728,"ĠY":729,"Ġprov":730,"Ġoff":731,"Ġam":732,"oss":733,"iss":734,"Ġlike":735,"Ġprodu":736,"rib":737,"Ġchild":738,"Ġem":739,"ov":740,"Ġspec":741,"Ġph":742,"),":743,"Ġtwo":744,"Ġtr":745,"amp":746,"Ġonly":747,"Ġthrough":748,"Ġneed":749,"Ġif":750,"ular":751,"Ġob":752,"ied":753,"Ġreg":754,"ating":755,"ution":756,"ook":757,"Ġfirst":758,"ĠHe":759,"Ġsur":760,"Ġexp":761,"arch":762,"uc":763,"Ġmany":764,"Ġour":765,"fter":766,"Ġ20":767,"round":768,"ature":769,"Ġ4":770,"Ġac":771,"int":772,"alth":773,"aw":774,"Ġused":775,"uring":776,"erm":777,"Ġdec":778,"Ġsystem":779,"Ġwater":780,"Ġwhat":781,"ased":782,"ran":783,"ark":784,"hen":785,"als":786,"ility":787,"ool":788,"Ġind":789,"ween":790,"Ġsub":791,"gra":792,"ists":793,"ics":794,"Ġshould":795,"Ġyears":796,"Ġpol":797,"ert":798,"ited":799,"Ġpr":800,"ath":801,"cy":802,"ower":803,"iet":804,"Ġbetween":805,"Ġadd":806,"Ġrem":807,"ft":808,"pe":809,"gan":810,"Ġrese":811,"oth":812,"Ġcould":813,"Ġatt":814,"Ġpo":815,"ble":816,"ever":817,"row":818,"ful":819,"old":820,"ise":821,"ink":822,"lp":823,"ible":824,"ne":825,"Ġcount":826,"Ġ5":827,"Ġsupp":828,"Ġass":829,"Ġpres":830,"ormation":831,"Ġinv":832,"Ġmet":833,"Ġinter":834,"ered":835,"Ġdisc":836,"Ġhelp":837,"ten":838,"ĠAs":839,"fore":840,"Ġfe":841,"Ġfl":842,"ife":843,"Ġwhere":844,"ont":845,"sel":846,"oy":847,"In":848,"ract":849,"Ġcent":850,"uch":851,"ex":852,"Ġhigh":853,"Ġdiffere":854,"ade":855,"Ġthose":856,"ology":857,"land":858,"hes":859,"Ġwell":860,"ick":861,"ins":862,"Ġmod":863,"..":864,"Ġmed":865,"meric":866,"its":867,"Ġnum":868,"Ġear":869,"ident":870,"ines":871,"Ġeffect":872,"Ġgo":873,"Ġtrans":874,"cent":875,"ted":876,"ily":877,"ĠPro":878,"Ġher":879,"Ġcall":880,"chn":881,"Ġform":882,"Ġhum":883,"ural":884,"Ġgra":885,"gy":886,"Ġsm":887,"Ġloc":888,"Ġref":889,"ng":890,"Ġplan":891,"ivers":892,"ĠAmeric":893,"Ġsaid":894,"Ġlar":895,"Ġfound":896,"ork":897,"ism":898,"Ġinst":899,"ange":900,".\"":901,"ars":902,"Ġpers":903,"ases":904,"ually":905,"Ġcell":906,"Ġlong":907,"Ġfact":908,"vent":909,"Ġincre":910,"Ġeven":911,"ata":912,"overn":913,"eral":914,"Ġdef":915,"ds":916,"ures":917,"Ġext":918,"ward":919,"Ġimport":920,"Ġmake":921,"led":922,"Ġdet":923,"Ġafter":924,"Ġinformation":925,"other":926,"Ġprocess":927,"chool":928,"Ġway":929,"Ġworld":930,"Ġart":931,"Ġjust":932,"iron":933,"ef":934,"Ġbecause":935,"ection":936,"ved":937,"Ġmem":938,"Ġed":939,"Ġexper":940,"urn":941,"Ġ18":942,"19":943,"Ġsame":944,"Ġthen":945,"io":946,"Ġget":947,"ĠAl":948,"Ġcommun":949,"ollow":950,"Ġbu":951,"ience":952,"Ġknow":953,"ict":954,"ically":955,"omm":956,"Ġpub":957,"ives":958,"iew":959,"Ġfam":960,"ck":961,"Th":962,"cer":963,"cept":964,"ages":965,"ues":966,"ruct":967,"Ġvery":968,"ized":969,"con":970,"ah":971,"Ġsec":972,"Ġpartic":973,"Ġrequ":974,"Ġsee":975,"Ġco":976,"ty":977,"ix":978,"Ġbeing":979,"ting":980,"||":981,"Ġhealth":982,"Ġke":983,"Ġeach":984,"Ġresp":985,"viron":986,"Ġback":987,"Ġsim":988,"ample":989,"Ġcar":990,"Ġmuch":991,"Ġchildren":992,"Ġ6":993,"ather":994,"Ġdist":995,"Ġdifferent":996,"hem":997,"Ġocc":998,"10":999,"aking":1000,"oun":1001,"ral":1002,"Ġmin":1003,"Ġduring":1004,"Ġtechn":1005,"tle":1006,"imes":1007,"Ġvar":1008,"Ġmon":1009,"roup":1010,"Ġpat":1011,"Ġagain":1012,"get":1013,"ness":1014,"ize":1015,"Ġdep":1016,"Ġty":1017,"Ġhim":1018,"ĠFor":1019,"Ġstate":1020,"ĠWh":1021,"Ġset":1022,"Ġsign":1023,"Ġcor":1024,"'t":1025,"Ġlear":1026,"irect":1027,"Ġend":1028,"hing":1029,"the":1030,"Ġown":1031,"ination":1032,"Ġfollow":1033,"Ġcur":1034,"Ġent":1035,"Ġresearch":1036,"Ġshe":1037,"Ġser":1038,",\"":1039,"form":1040,"rol":1041,"und":1042,"ĠThey":1043,"Ġgovern":1044,"Ġcre":1045,"iversity":1046,"Ġimportant":1047,"iel":1048,"Ġmade":1049,"ros":1050,"ands":1051,"ince":1052,"ished":1053,"Ġma":1054,"Ġappro":1055,"Ġdata":1056,"ĠAr":1057,"ven":1058,"Ġaut":1059,"vironment":1060,"Ġest":1061,"Ġevery":1062,"Ġshow":1063,"Ġins":1064,"Ġproble":1065,"ĠNew":1066,"Ġtreat":1067,"ury":1068,"ides":1069,"ĠRe":1070,"gg":1071,"omet":1072,"Ġdoes":1073,"arm":1074,"Ġ7":1075,"Ġprogra":1076,"Ġpop":1077,"ined":1078,"Ġactiv":1079,"Ġboth":1080,"Ġlevel":1081,"Ġcomple":1082,"Ġsmall":1083,"ected":1084,"ave":1085,"ior":1086,"Ġcap":1087,"Ġorgan":1088,"Ġmy":1089,"ĠWe":1090,"ially":1091,"ute":1092,"Ġcontin":1093,"Ġgroup":1094,"Ġprot":1095,"Ġ199":1096,"12":1097,"Ġbefore":1098,"Ġdown":1099,"Ġfind":1100,"Ġpower":1101,"Ġthree":1102,"ving":1103,"read":1104,".,":1105,"Ġav":1106,"Ġdise":1107,"ergy":1108,"Ġnow":1109,"ĠIs":1110,"ĠHow":1111,"Ġlife":1112,"ron":1113,"Ġsol":1114,"Ġpar":1115,"Ġelect":1116,"Ġcour":1117,"Ġ10":1118,"Ġsoc":1119,"hip":1120,"Ġposs":1121,"inal":1122,"ĠAn":1123,"Ġexample":1124,"ĠâĢĵ":1125,"ĠIf":1126,"ices":1127,"Ġstudy":1128,"ĠSc":1129,"Ġnumber":1130,"omen":1131,"uss":1132,"ital":1133,"Ġoften":1134,"Ġlaw":1135,"Ġhuman":1136,"stit":1137,"ĠInd":1138,"osed":1139,"Ġgood":1140,"ring":1141,"Ġread":1142,"imate":1143,"Ġbo":1144,"Ġredu":1145,"Ġschool":1146,"ains":1147,"Ġusing":1148,"gen":1149,"Ġtest":1150,"Ġlead":1151,"Ġdid":1152,"ock":1153,"xt":1154,"ody":1155,"000":1156,"air":1157,"Ġtem":1158,"Ġgrow":1159,"Ġexpl":1160,"orth":1161,"up":1162,"ves":1163,"any":1164,"stand":1165,"ights":1166,"ared":1167,"Ġ8":1168,"Ġmust":1169,"Ġgl":1170,"Ġhist":1171,"rent":1172,"Ġbel":1173,"ier":1174,"Ġmain":1175,"Ġwhile":1176,"ries":1177,"ĠSp":1178,"Ġdesc":1179,"ton":1180,"ters":1181,"Ġdesign":1182,"Ġcalled":1183,"Ġless":1184,"ians":1185,"Ġlarge":1186,"ee":1187,"ants":1188,"Ġperson":1189,"Ġvis":1190,".âĢĿ":1191,"der":1192,"ivid":1193,"âĢĶ":1194,"Ġthough":1195,"Ġpercent":1196,"ality":1197,"orts":1198,"Ġconsid":1199,"Ġstr":1200,"Ġdirect":1201,"outh":1202,"Ġchar":1203,"nce":1204,"ĠJew":1205,"Ġlit":1206,"ale":1207,"Ġfood":1208,"hers":1209,"iation":1210,"Ġincluding":1211,"Ġserv":1212,"lear":1213,"Ġstill":1214,"ĠBut":1215,"Ġ'":1216,"conom":1217,"cl":1218,"Ġaround":1219,"Ġconf":1220,"bers":1221,"Ġallow":1222,"Ġstudents":1223,"ulation":1224,"ources":1225,"Ġcommon":1226,"self":1227,"ĠPh":1228,"de":1229,"ĠDe":1230,"ner":1231,"itions":1232,"11":1233,"ium":1234,"Ġpress":1235,"Ġagainst":1236,"Ġgovernment":1237,"Ġca":1238,"20":1239,"day":1240,"Ġsk":1241,"Ġaff":1242,"Ġval":1243,"ĠUniversity":1244,"oh":1245,"Ġplace":1246,"Ġop":1247,"Ġret":1248,"ired":1249,"iqu":1250,"Ġfun":1251,"Ġgener":1252,"Ġgreat":1253,"iety":1254,"jor":1255,"orn":1256,"ained":1257,"Ġenvironment":1258,"aterial":1259,"Ġreport":1260,"Wh":1261,"Ġmight":1262,"ption":1263,"Ġpublic":1264,"ouse":1265,"omp":1266,"Ġsupport":1267,"ization":1268,"Ġclass":1269,"man":1270,"erest":1271,"Ġcare":1272,"This":1273,"iver":1274,"Ġmil":1275,"ien":1276,"inc":1277,"dition":1278,"Ġris":1279,"ĠAmerican":1280,"rist":1281,"way":1282,"illion":1283,"Ġmar":1284,"ull":1285,"ration":1286,"Ġsl":1287,"Ġdem":1288,"ger":1289,"Ġwithout":1290,"Ġequ":1291,"Ġday":1292,"ĠRes":1293,"use":1294,"Ġlook":1295,"Ġadv":1296,"reen":1297,"ertain":1298,"ense":1299,"Ġthink":1300,"Ġdevelopment":1301,"Ġphys":1302,"ĠAnd":1303,"Ġenergy":1304,"iven":1305,"Ġright":1306,"Ġdisease":1307,"Ġpract":1308,"Ġland":1309,"ults":1310,"iving":1311,"Ġfew":1312,"Ġcontrol":1313,"ross":1314,"acter":1315,"ording":1316,"ional":1317,"ĠGod":1318,"Ġtake":1319,"Ġeconom":1320,"Ġproduct":1321,"ified":1322,"Ġgu":1323,"akes":1324,"lished":1325,"ris":1326,"tt":1327,"ining":1328,"Ġknown":1329,"me":1330,"Ġmeas":1331,"Ġ9":1332,"rop":1333,"ids":1334,"ax":1335,"face":1336,"Ġlow":1337,"Ġleg":1338,"ĠCon":1339,"bs":1340,"Ġcells":1341,"Ġ15":1342,"ĠThere":1343,"Ġscient":1344,"Ġpresent":1345,"Ġchang":1346,"Ġrest":1347,"olution":1348,"ield":1349,"ww":1350,"Ġinterest":1351,"Ġmeth":1352,"Ġsays":1353,"Ġmajor":1354,"az":1355,"Ġstand":1356,"ccess":1357,"Ġunderstand":1358,"Ġeduc":1359,"Ġsit":1360,"Ġmaterial":1361,"Ġarea":1362,"ived":1363,"Ġoccur":1364,"Ġant":1365,"iod":1366,"hor":1367,"Ġwithin":1368,"Ġmat":1369,"Ġhand":1370,"Ġbody":1371,"ĠUnited":1372,"Ġobject":1373,"ĠSe":1374,"Ġanother":1375,"Ġspecies":1376,"ĠCan":1377,"ological":1378,"here":1379,"eng":1380,"less":1381,"Ġve":1382,"ina":1383,"Ġwar":1384,"ential":1385,"ission":1386,"Ġide":1387,"Ġfore":1388,"Ġproper":1389,"Ġlim":1390,"Ġproject":1391,"atural":1392,"Ġresult":1393,"Ġet":1394,"ploy":1395,"Ġbro":1396,"Ġiss":1397,"Ġpass":1398,"Ġsever":1399,"ards":1400,"Ġlater":1401,"Ġsomet":1402,"gin":1403,"Ġtri":1404,"Ġwrit":1405,"ern":1406,"atic":1407,"rodu":1408,"Ġnear":1409,"ĠCent":1410,"els":1411,"Ġchange":1412,"Ġquest":1413,"Ġlocal":1414,"Ġunt":1415,"It":1416,"lish":1417,"ering":1418,"uro":1419,"ĠCol":1420,"ĠThese":1421,"ware":1422,"itive":1423,"Ġold":1424,"Ġbeh":1425,"ently":1426,"ĠEn":1427,"Ġprogram":1428,"Ġinclude":1429,"ĠHowever":1430,"Ġ&":1431,"Ġoper":1432,"Ġcountry":1433,"Ġdon":1434,"Ġfamily":1435,"ets":1436,"ason":1437,"Ġeng":1438,"erc":1439,"Ġbas":1440,"ĠAt":1441,"Ġcaus":1442,"ug":1443,"though":1444,"Ġopp":1445,"Ġpot":1446,"Ġbuild":1447,"osp":1448,"Ġwomen":1449,"Ġinvol":1450,"arc":1451,"Ġblood":1452,"ned":1453,"Ġprovide":1454,"Ġeas":1455,"Ġbir":1456,"âĢľ":1457,"ĠChrist":1458,"eg":1459,"Ġaddition":1460,"cing":1461,"Ġident":1462,"esp":1463,"Ġbre":1464,"Ġseveral":1465,"Ġcult":1466,"Ġtreatment":1467,"ole":1468,"ple":1469,"Ġstart":1470,"Ġsay":1471,"Ġearly":1472,"Ġcurrent":1473,"line":1474,"ify":1475,"angu":1476,"Ġamong":1477,"Ġpoint":1478,"Ġbelie":1479,"ource":1480,"ividual":1481,"ats":1482,"Ġmethod":1483,"Ġhig":1484,"ĠCl":1485,"Ġavail":1486,",âĢĿ":1487,"oid":1488,"alk":1489,"oms":1490,"ape":1491,"ests":1492,"Ġlab":1493,"Ġimm":1494,"par":1495,"ories":1496,"Ġtoo":1497,"Ġlast":1498,"Ġele":1499,"ples":1500,"ĠStates":1501,"Ġparticular":1502,"Ġhy":1503,"idence":1504,"Ġdev":1505,"Ġrun":1506,"ĠAd":1507,"Ġperform":1508,"Ġbra":1509,"ote":1510,"Ġfre":1511,"Ġmus":1512,"Ġmark":1513,"Ġplant":1514,"Ġtre":1515,"Ġspe":1516,"ability":1517,"Ġtyp":1518,"ĠZ":1519,"ision":1520,"isc":1521,"Ġfour":1522,"Ġareas":1523,"Ġhere":1524,"ĠComm":1525,"ternational":1526,"Ġsecond":1527,"Ġprop":1528,"Ġsuccess":1529,"Ġplay":1530,"ĠEng":1531,"ended":1532,"Ġapplic":1533,"pect":1534,"Ġmove":1535,"Ġel":1536,"Ġpressure":1537,"lu":1538,"ĠNational":1539,"ental":1540,"...":1541,"com":1542,"of":1543,"work":1544,"ention":1545,"perature":1546,"NA":1547,"Ġdra":1548,"Ġwant":1549,"Ġsurface":1550,"Ġcertain":1551,"Ġconst":1552,"Ġaccess":1553,"Ġfollowing":1554,"ged":1555,"Ġorig":1556,"ably":1557,"ogra":1558,"Ġter":1559,"Ġtimes":1560,"18":1561,"aim":1562,"Ġprof":1563,"to":1564,"Ġben":1565,"Ġhome":1566,"Ġlight":1567,"Ġ17":1568,"Ġpur":1569,"Ġfree":1570,"Ġview":1571,"Ġpolit":1572,"Ġpossible":1573,"mit":1574,"Ġorder":1575,"Ġleft":1576,"ĠâĢĶ":1577,"Ġopen":1578,"Ġfin":1579,"Ġanim":1580,"Ġpain":1581,"Ġmen":1582,"ĠTo":1583,"mb":1584,"ĠYou":1585,"Ġpost":1586,"Ġfar":1587,"Ġindu":1588,"Ġ[":1589,"Ġbased":1590,"ames":1591,"Ġbecome":1592,"Ġprovid":1593,"Ġindividual":1594,"Ġrece":1595,"ways":1596,"ither":1597,"Ġdri":1598,"Ġkeep":1599,"ĠSh":1600,"Ġcountries":1601,"13":1602,"Ġtop":1603,"ĠPl":1604,"rug":1605,"Ġimpro":1606,"Ġbetter":1607,"Ġsocial":1608,"Ġavailable":1609,"Ġtemperature":1610,"ler":1611,"Ġgiven":1612,"urther":1613,"Ġstruct":1614,"Ġprom":1615,"Ġcause":1616,"Ġpos":1617,"Ġbest":1618,"ĠWhen":1619,"Ġmeans":1620,"Ġlist":1621,"Ġname":1622,"Ġrecord":1623,"Ġobs":1624,"ĠQ":1625,"Ġrev":1626,"une":1627,"Ġfac":1628,"ĠMed":1629,"ills":1630,"ude":1631,"Ġcentury":1632,"Ġcost":1633,"Ġcases":1634,"idd":1635,"etic":1636,"Ġexam":1637,"ret":1638,"Ġpri":1639,"urope":1640,"Ġair":1641,"Ġanal":1642,"Ġ198":1643,"ek":1644,"ilar":1645,"Ġseem":1646,"Ġothers":1647,"Ġperiod":1648,"Ġcomput":1649,"ead":1650,"ued":1651,"Ġsince":1652,"Ġ16":1653,"Ġleast":1654,"Ġhard":1655,"Ġcase":1656,"ances":1657,"Ġbi":1658,"Ġestab":1659,"Ġuntil":1660,"Ġ12":1661,"Ġauthor":1662,"Ġdescrib":1663,"ends":1664,"ĠSy":1665,"âĢĵ":1666,"Ġconn":1667,"aps":1668,"Ġproblem":1669,"ling":1670,"sy":1671,"Ġturn":1672,"Ġdel":1673,"Ġrisk":1674,"gn":1675,"Ġche":1676,"Ġsaf":1677,"Ġtru":1678,"oph":1679,"icle":1680,"Ġabove":1681,"Ġmot":1682,"ogn":1683,"ledge":1684,"sp":1685,"Ġ0":1686,"Ġrad":1687,"ik":1688,"Ġnatural":1689,"ĠOn":1690,"Ġput":1691,"alt":1692,"Ġthings":1693,"ured":1694,"Ġable":1695,"Ġcommunity":1696,"ung":1697,"oks":1698,"ator":1699,"icial":1700,"Ġlo":1701,"ĠEx":1702,"Ġlangu":1703,"Ġcond":1704,"ored":1705,"Ġhistory":1706,"50":1707,"rim":1708,"Ġchem":1709,"ray":1710,"ivil":1711,"Ġmean":1712,"ivity":1713,"Ġproblems":1714,"for":1715,"por":1716,"rate":1717,"Ġpare":1718,"Ġ13":1719,"Ġprevent":1720,"We":1721,"alf":1722,"Ġmillion":1723,"icult":1724,"ately":1725,"resent":1726,"Ġhowever":1727,"Ġsite":1728,"Ġbus":1729,"Ġhapp":1730,"Ġrights":1731,"Ġsugg":1732,"200":1733,"ĠEurope":1734,"Ġdiscuss":1735,"Ġsing":1736,"aster":1737,"aper":1738,"Ġreal":1739,"ograph":1740,"Ġclear":1741,"let":1742,"Ġhead":1743,"Ġshort":1744,"Ġdue":1745,"Ġemploy":1746,"Ġcourse":1747,"As":1748,"cop":1749,"ilities":1750,"ohn":1751,"iated":1752,"Ġage":1753,"Ġcrit":1754,"Ġrele":1755,"ĠAll":1756,"Ġresults":1757,"Ġsignific":1758,"Ġcomb":1759,"Ġcome":1760,"ĠEar":1761,"earch":1762,"Ġplants":1763,"aken":1764,"Ġnon":1765,"ĠAct":1766,"Ġappear":1767,"Ġlay":1768,"irc":1769,"Ġcancer":1770,"iness":1771,"Ġpast":1772,"ĠLe":1773,"Ġmonth":1774,"ients":1775,"Ġdrug":1776,"ĠNorth":1777,"Ġdeterm":1778,"SA":1779,"ĠBe":1780,"Ġenc":1781,"Ġwords":1782,"Ġill":1783,"be":1784,"ream":1785,"ank":1786,"ule":1787,"val":1788,"Ġlet":1789,"agement":1790,"ash":1791,"Ġexist":1792,"Ġlittle":1793,"atory":1794,"orld":1795,"Ġstep":1796,"Ġlevels":1797,"nal":1798,"Ġfil":1799,"Ġspace":1800,"obal":1801,"vious":1802,"Ġer":1803,"Ġnet":1804,"ront":1805,"ised":1806,"Ġworks":1807,"Ġ--":1808,"Ġfunction":1809,"Ġla":1810,"duct":1811,"Ġmembers":1812,"Ġz":1813,"ipp":1814,"Ġgre":1815,"Ġassoc":1816,"Ġpopulation":1817,"ocus":1818,"ane":1819,"Ġground":1820,"ges":1821,"ma":1822,"rid":1823,"eds":1824,"Ġhaving":1825,"Ġdoct":1826,"Ġsystems":1827,"Ġmult":1828,"Ġdeath":1829,"aining":1830,"Ġlikely":1831,"Ġspecial":1832,"Ġoil":1833,"ication":1834,"Ġvol":1835,"Ġcal":1836,"Ġnever":1837,"ortun":1838,"ĠâĢĺ":1839,"wh":1840,"ively":1841,"ecially":1842,"Ġindust":1843,"rated":1844,"Ġusually":1845,"Ġbenef":1846,"Ġhigher":1847,"gress":1848,"Ġsw":1849,"Ġresearc":1850,"Ġeffects":1851,"15":1852,"Ġvir":1853,"Ġvarious":1854,"by":1855,"Ġ14":1856,"Ġspecific":1857,"Ġincrease":1858,"not":1859,"ĠTe":1860,"ode":1861,"Ġgeneral":1862,"selves":1863,"ots":1864,"ĠHis":1865,"Ġsex":1866,"min":1867,"asing":1868,"Ġimpact":1869,"most":1870,"ency":1871,"Ġprote":1872,"Ġprim":1873,"ox":1874,"pr":1875,"Ġesp":1876,"ĠGerm":1877,"Ġknowledge":1878,"lim":1879,"Ġfail":1880,"anc":1881,"iment":1882,"utes":1883,"Ġworking":1884,"Ġsubst":1885,"ires":1886,"Ġ30":1887,"ules":1888,"istic":1889,"Ġprofess":1890,"If":1891,"oint":1892,"Ġsimilar":1893,"ones":1894,"Ġeducation":1895,"Ġbegin":1896,"Ġtechnology":1897,"ĠWhat":1898,"Ġchanges":1899,"Ġbook":1900,"rap":1901,"hib":1902,"Ġalong":1903,"Ġdi":1904,"Ġdays":1905,"Ġlower":1906,"uture":1907,"ĠWar":1908,"Ġ$":1909,"Ġbecame":1910,"Ġneg":1911,"There":1912,"Ġlearning":1913,"Ġfall":1914,"Ġask":1915,"ending":1916,"Ġrequire":1917,"iting":1918,"Ġnecess":1919,"Ġplac":1920,"Ġstudies":1921,"Ġactivity":1922,"17":1923,"sw":1924,"Ġtoget":1925,"Ġdeveloped":1926,"Ġtogether":1927,"Ġside":1928,"ird":1929,"osis":1930,"Ġseen":1931,"Ġenough":1932,"Ġinvest":1933,"Ġconditions":1934,"ĠMus":1935,"ĠBrit":1936,"St":1937,"mp":1938,"Ġopt":1939,"Ġyoung":1940,"Ġinflu":1941,"Ġpolic":1942,"ley":1943,"ĠSoc":1944,"Ġevidence":1945,"Ġwat":1946,"Ġfurther":1947,"ĠOr":1948,"nts":1949,"Ġregion":1950,"Ġrespons":1951,"Ġcharacter":1952,"Ġeconomic":1953,"Ġespecially":1954,"ours":1955,"--":1956,"Ġwind":1957,"ederal":1958,"Ġfield":1959,"lection":1960,"ĠSome":1961,"ĠGen":1962,"Ġdifficult":1963,"Ġstrong":1964,"lam":1965,"mber":1966,"ators":1967,"Ġfocus":1968,"Ġmag":1969,"icro":1970,"erence":1971,"ffic":1972,"Ġlearn":1973,"Ġsomething":1974,"ĠAb":1975,"ĠSo":1976,"Ġsoft":1977,"ĠYork":1978,"Ġthought":1979,"Ġ.":1980,"rel":1981,"lo":1982,"Ġaway":1983,"Ġfive":1984,"Ġnext":1985,"aves":1986,"Ġpolitical":1987,"ĠGe":1988,"Ġtype":1989,"Ġsignificant":1990,"ember":1991,"lor":1992,"ruction":1993,"ublic":1994,"Ġflow":1995,"Ġtoday":1996,"ĠJohn":1997,"Ġrepresent":1998,"Ġamount":1999,"elf":2000,"Ġprotect":2001,"onst":2002,"Ġsens":2003,"ison":2004,"ications":2005,"lement":2006,"Ġactivities":2007,"What":2008,"Ġconsider":2009,"Ġfra":2010,"Ġeither":2011,"ery":2012,"Ġfund":2013,"Ġmov":2014,"Ġey":2015,"Ġprob":2016,"Ġconcer":2017,"Ġkind":2018,"ormal":2019,"ready":2020,"ĠJewish":2021,"Ġsingle":2022,"Ġterm":2023,"Ġcity":2024,"Ġwhether":2025,"Ġupon":2026,"Ġneeds":2027,"Ġast":2028,"Ġcreat":2029,"itor":2030,"Ġann":2031,"Ġevent":2032,"Ġtry":2033,"Ġhouse":2034,"ĠPol":2035,"abit":2036,"ĠWorld":2037,"ocu":2038,"Ġrather":2039,"ĠUS":2040,"app":2041,"oot":2042,"yr":2043,"Ġsize":2044,"Ġgr":2045,"ibility":2046,"Ġphysical":2047,"Ġobserv":2048,"Ġfull":2049,"Ġdr":2050,"ĠII":2051,"thing":2052,"ĠThat":2053,"Ġexperience":2054,"\".":2055,"ann":2056,"Ġincreased":2057,"Ġfamil":2058,"Ġcreate":2059,"cle":2060,"sh":2061,"Ġcirc":2062,"ott":2063,"An":2064,"Ġsource":2065,"Ġfish":2066,"Ġalways":2067,"ournal":2068,"Ġcomplete":2069,"eb":2070,"Ġmaking":2071,"Ġwhite":2072,"Ġthemselves":2073,"Ġsubject":2074,"Ġsepar":2075,"Ġword":2076,"Ġresources":2077,"ĠJews":2078,"sc":2079,"Ġwhy":2080,"Ġkey":2081,"Ġproducts":2082,"med":2083,"side":2084,"Ġnational":2085,"eth":2086,"Ġclaim":2087,"Ġgrowth":2088,"Ġchemical":2089,"ID":2090,"Ġdom":2091,"ĠAmerica":2092,"Ġdest":2093,"ĠCal":2094,"Ġalready":2095,"Ġteam":2096,"Ġproduction":2097,"Ġlanguage":2098,"ĠEarth":2099,"Ġdam":2100,"ĠRep":2101,"Ġrole":2102,"Ġacross":2103,"bon":2104,"ĠAf":2105,"ĠSouth":2106,"ĠMay":2107,"Ġitself":2108,"ĠDr":2109,"ĠOne":2110,"Ġkill":2111,"Ġwhole":2112,"Ġexpress":2113,"Ġri":2114,"Ġsun":2115,"Ġmodel":2116,"ttp":2117,"Ġresearchers":2118,"14":2119,"Ġhalf":2120,"Ġbelow":2121,"Ġrelations":2122,"Ġparticip":2123,"Ġfrequ":2124,"chie":2125,"ĠHealth":2126,"16":2127,"unt":2128,"itary":2129,"Ġgas":2130,"rought":2131,"overed":2132,"Ġgoing":2133,"Ġloss":2134,"rict":2135,"Ġprovides":2136,"Ġphot":2137,"Ġaddress":2138,"fer":2139,"gest":2140,"estern":2141,"Ġfuture":2142,"For":2143,"Ġwr":2144,"urity":2145,"artment":2146,"ĠResearch":2147,"Ġsent":2148,"ĠAust":2149,"30":2150,"Ġsix":2151,"Ġcop":2152,"Ġinit":2153,"ilt":2154,"Ġonce":2155,"Ġmodern":2156,"lex":2157,"Ġlive":2158,"ulations":2159,"Ġfeel":2160,"ched":2161,"iol":2162,"Ġsum":2163,"Ġways":2164,"Ġliving":2165,"Ġstat":2166,"Ġrecogn":2167,"Ġinteract":2168,"Ġbrain":2169,"enn":2170,"Ġwide":2171,"Ġreally":2172,"Ġconduct":2173,"Ġcomplex":2174,"Ġgroups":2175,".)":2176,"ches":2177,"rown":2178,"Ġstates":2179,"Ġcover":2180,"Ġgive":2181,"Ġarg":2182,"Ġneeded":2183,"iam":2184,"het":2185,"ows":2186,"ĠCD":2187,"Ġprograms":2188,"yl":2189,"org":2190,"ĠCar":2191,"Ġsuper":2192,"Ġ/":2193,"ils":2194,"ĠCons":2195,"epend":2196,"ribut":2197,"stitute":2198,"like":2199,"Ġbig":2200,"oman":2201,"Ġstri":2202,"Ġrecent":2203,"ĠCenter":2204,"reg":2205,"ene":2206,"ĠMin":2207,"Ġmeet":2208,"Ġindic":2209,"iddle":2210,"Ġnetwork":2211,"ae":2212,"ai":2213,"oes":2214,"inary":2215,"igure":2216,"ĠBl":2217,"Ġaccording":2218,"stitution":2219,"acy":2220,"Ġmedical":2221,"Ġconsidered":2222,"ĠCanad":2223,"aut":2224,"Ã©":2225,"atives":2226,"Ġtoward":2227,"Ġdone":2228,"aged":2229,"augh":2230,"Ġrequired":2231,"Ġvalue":2232,"Ġsitu":2233,"PA":2234,"ints":2235,"Ġpage":2236,"icine":2237,"Ġline":2238,"ĠComp":2239,"Ġ100":2240,"Ġrange":2241,"Ġcomputer":2242,"Ġdig":2243,"ects":2244,"ump":2245,"ique":2246,"ER":2247,"Ġtown":2248,"ĠMar":2249,"Ġcannot":2250,"ĠKing":2251,"Ġconsum":2252,"ĠAss":2253,"reme":2254,"lying":2255,"port":2256,"Ġess":2257,"Ġcoun":2258,"Ġlib":2259,"Ġclose":2260,"Ġport":2261,"ĠState":2262,"Ġteac":2263,"Ġreturn":2264,"ĠEnglish":2265,"dom":2266,"Ġpath":2267,"Ġred":2268,"ysis":2269,"Ġ50":2270,"Ġreported":2271,"olec":2272,"How":2273,"af":2274,"Ġforce":2275,"Ġsuggest":2276,"my":2277,"Ġcat":2278,"Ġjud":2279,"Ġprinc":2280,"Ġhistor":2281,"Ġtaken":2282,"Ġpay":2283,"Ġscience":2284,"Ġtradition":2285,"Ġmaterials":2286,"__":2287,"fact":2288,"Ġalmost":2289,"Ġscientists":2290,"Ġstandard":2291,"Ġpotential":2292,"//":2293,"Ġcame":2294,"ĠCont":2295,"Ġrelig":2296,"Ġtot":2297,"uls":2298,"Ġsym":2299,"Ġcreated":2300,"yn":2301,"Ġbat":2302,"Ġfront":2303,"omes":2304,"ĠShe":2305,"Ġansw":2306,"acc":2307,"Ġpublished":2308,"://":2309,"ze":2310,"ateg":2311,"Ġens":2312,"ym":2313,"oll":2314,"chan":2315,"Ġanc":2316,"Ġcho":2317,"Ġmemory":2318,"Ġpatients":2319,"Ġparts":2320,"Ġglobal":2321,"Ġpractice":2322,"uel":2323,"Ġweight":2324,"lt":2325,"Ġmakes":2326,"aching":2327,"Ġrelated":2328,"Ġflu":2329,"ĠX":2330,"Ġfile":2331,"oura":2332,"Ġnature":2333,"umb":2334,"Ġdisord":2335,"iple":2336,"Ġreduce":2337,"Ġquestion":2338,"Ġparents":2339,"Ġachie":2340,"ened":2341,"aring":2342,"Ġmass":2343,"Ġhold":2344,"ĠBy":2345,"Ġactually":2346,"Ġsound":2347,"Ġreason":2348,"Ġ197":2349,"Ġclimate":2350,"Ġsurv":2351,"ney":2352,"Ġtell":2353,"Ġdocu":2354,"Ġrepl":2355,"vere":2356,"Ġ11":2357,"ĠDep":2358,"Ġabs":2359,"Ġquality":2360,"Ġblack":2361,"Ġ2012":2362,"enc":2363,"Ġdia":2364,"Ġpriv":2365,"erous":2366,"eding":2367,"ĠNe":2368,"Ġability":2369,"Ġenvironmental":2370,"Ġmeasure":2371,"Ġbusiness":2372,"Al":2373,"Ġce":2374,"Ġcit":2375,"roll":2376,"ope":2377,"ried":2378,"Ġmanagement":2379,"ervation":2380,"Ġinvolved":2381,"Ġsense":2382,"Ġbegan":2383,"Ġdisp":2384,"ĠChina":2385,"Ġcollect":2386,"ext":2387,"Ġissues":2388,"ging":2389,"iate":2390,"xic":2391,"ables":2392,"Ġentire":2393,"Ġinternational":2394,"Ġtook":2395,"Ġconcent":2396,"Ġcontact":2397,"Ġarticle":2398,"Ġquestions":2399,"ĠAfric":2400,"now":2401,"Ġsqu":2402,"Ġsea":2403,"ification":2404,");":2405,"When":2406,"ections":2407,"Ġbehav":2408,"Ġut":2409,"Ġsure":2410,"Ġwild":2411,"Ġep":2412,"ĠJu":2413,"Ch":2414,"Ġur":2415,"ister":2416,"ales":2417,"Ġstory":2418,"Ġheart":2419,"Ġtraining":2420,"Ġengine":2421,"ĠAfter":2422,"ĠIran":2423,"Ġ25":2424,"Ġseries":2425,"Ġidea":2426,"Ġtypes":2427,"Ġtool":2428,"amb":2429,"amed":2430,"Ġintrodu":2431,"aches":2432,"Ġcolor":2433,"Ġestablished":2434,"Ġpaper":2435,"sect":2436,"imum":2437,"istance":2438,"Ġweek":2439,"izing":2440,"Ġofficial":2441,"Ġearth":2442,"Ġdesigned":2443,"Ġmusic":2444,"sych":2445,"Ġsources":2446,"rab":2447,"ety":2448,"ĠAm":2449,"ume":2450,"ĠDNA":2451,"Ġcontent":2452,"ternal":2453,"Ġproduce":2454,"Ġcentral":2455,"'re":2456,"ober":2457,"Ġbr":2458,"ĠHist":2459,"ival":2460,"ips":2461,"oney":2462,"Ġmarket":2463,"ĠMuslim":2464,"pts":2465,"Ġbur":2466,"ensive":2467,"Ġdeveloping":2468,"Ġunderstanding":2469,"view":2470,"ences":2471,"icles":2472,"Ġemer":2473,"ĠWith":2474,"Ġcontain":2475,"Ġdoctor":2476,"Ġcle":2477,"Ġthreat":2478,"abor":2479,"ptoms":2480,"ccording":2481,"Ġjob":2482,"Ġshows":2483,"Ġdemonst":2484,"Ġgreater":2485,"lies":2486,"ising":2487,"oses":2488,"Ġbuilding":2489,"ĠChristian":2490,"Ġbar":2491,"Ġfa":2492,"Ġreact":2493,"Ġnuc":2494,"Ġstra":2495,"Ġopportun":2496,"25":2497,"Ġdiet":2498,"lege":2499,"Ġyet":2500,"Ġarch":2501,"Ġtext":2502,"Ġelectric":2503,"Ġanimals":2504,"Ġfru":2505,"Ġled":2506,"Ġexerc":2507,"gram":2508,"Ġlabor":2509,"Ġgard":2510,"rial":2511,"estic":2512,"Ġchall":2513,"Ġshown":2514,"Ġapproach":2515,"Ġimprove":2516,"Ġver":2517,"hest":2518,"asc":2519,"ĠPer":2520,"Ġmechan":2521,"Ġprevious":2522,"Ġthroughout":2523,"Ġeffective":2524,"ES":2525,"tain":2526,"Ġtheory":2527,"Ġmor":2528,"ching":2529,"ĠMan":2530,"ĠGu":2531,"Ġfactors":2532,"199":2533,"Ġcontinued":2534,"Ġprovided":2535,"Ġinj":2536,"ille":2537,"cell":2538,"ription":2539,"ĠNo":2540,"ĠStud":2541,"Ġrelative":2542,"Ġlonger":2543,"Ġdetail":2544,"Ġaver":2545,"ites":2546,"ask":2547,"Ġlat":2548,"Ġrecomm":2549,"Ġnecessary":2550,"Ġsoftware":2551,"But":2552,"cil":2553,"uary":2554,"Ġ|":2555,"ĠFran":2556,"ĠUN":2557,"Ġ2010":2558,"Ġfeature":2559,"www":2560,"Ġtax":2561,"Ġevolution":2562,"Ġincreasing":2563,"haps":2564,"Ġcivil":2565,"aries":2566,"Ġste":2567,"Ġheld":2568,"Ġimplement":2569,"Ġproduced":2570,"Ġlegal":2571,"Ġprotein":2572,"Ġfamilies":2573,"Ġtotal":2574,"Ġcamp":2575,"Ġforms":2576,"usion":2577,"Ġregard":2578,"ashing":2579,"Ġhttp":2580,"Ġstop":2581,"To":2582,"go":2583,"ĠÂ":2584,"Ġself":2585,"Ġlink":2586,"Ġevents":2587,"minist":2588,"uk":2589,"Ġir":2590,"Ġinteg":2591,"reng":2592,"Ġpoll":2593,"ronic":2594,"Ġstructure":2595,"ius":2596,"rect":2597,"Ġsection":2598,"Ġlot":2599,"sequ":2600,"ĠMore":2601,"Ġaltern":2602,"Ġheat":2603,"ached":2604,"Ġrate":2605,"thern":2606,"Ġimage":2607,"ĠCalif":2608,"You":2609,"Ġcr":2610,"adem":2611,"uck":2612,"oon":2613,"cean":2614,"igation":2615,"Ġheav":2616,"udd":2617,"Ġscientific":2618,"Ġapplication":2619,"Ġprobably":2620,"Ġhabit":2621,"Ġsearch":2622,"Ġetc":2623,"Ġdescribed":2624,"pro":2625,"son":2626,"ties":2627,"Ġvers":2628,"Ġthous":2629,"ĠCo":2630,"Ġconc":2631,"ĠGra":2632,"Ġassociated":2633,"ners":2634,"Ġfat":2635,"oper":2636,"Ġcommunities":2637,"Ġmilitary":2638,"mosp":2639,"rary":2640,"Ġtests":2641,"Ġaid":2642,"Ġbul":2643,"Ġfri":2644,"ush":2645,"Ġking":2646,"Ġmonths":2647,"pri":2648,"ening":2649,"Ġcut":2650,"Ġmolec":2651,"osure":2652,"Ġviol":2653,"Ġcommit":2654,"Ġsymptoms":2655,"based":2656,"mon":2657,"Ġstar":2658,"ĠHar":2659,"Ġpred":2660,"ief":2661,"Ġincludes":2662,"vention":2663,"imately":2664,"Ġbasic":2665,"ĠBritish":2666,"ply":2667,"Ġtaking":2668,"Ġever":2669,"Ġnorth":2670,"Ġoutside":2671,"Ġgenetic":2672,"Ġ40":2673,"Ġmagn":2674,"bre":2675,"Ġsed":2676,"Ġdiv":2677,"eter":2678,"Ġwhose":2679,"ĠPres":2680,"uman":2681,"osition":2682,"Ġtravel":2683,"Ġcourt":2684,"ornia":2685,"Ġwin":2686,"ĠJan":2687,"ĠInstitute":2688,"Ġ194":2689,"Ġbirth":2690,"Ġposition":2691,"Ġaction":2692,"Ġsouth":2693,"ĠSec":2694,"aving":2695,"issions":2696,"Ġsimple":2697,"ĠPhil":2698,"Ġperformance":2699,"isms":2700,"arily":2701,"Ġhor":2702,"ĠTra":2703,"acks":2704,"Ġfib":2705,"Ġmind":2706,"Ġthus":2707,"uries":2708,"Ġprogress":2709,"ĠChar":2710,"ĠVal":2711,"Ġ2006":2712,"Ġpattern":2713,"Ġvisit":2714,"Ġadditional":2715,"Ġmethods":2716,"ON":2717,"put":2718,"Ġthird":2719,"vey":2720,"Ġgreen":2721,"utions":2722,"pper":2723,"Ġstudent":2724,"Ġ2008":2725,"Ġremov":2726,"Ġskin":2727,"ino":2728,"onse":2729,"Ġmount":2730,"Ġdou":2731,"âĢ¦":2732,"ĠPark":2733,"Ġprec":2734,"Ġago":2735,"Ġcoll":2736,"fully":2737,"Ġbuilt":2738,"Ġmatter":2739,"Ġpolicy":2740,"AT":2741,"ming":2742,"oor":2743,"esc":2744,"Ġhyd":2745,"Ġdrugs":2746,"Ġhours":2747,"Ġnation":2748,"urch":2749,"ades":2750,"Ġvide":2751,"ĠWhile":2752,"Ġgrowing":2753,"Ġstreng":2754,"Ġsust":2755,"Ġquick":2756,"Ġindepend":2757,"Ġpoor":2758,"iences":2759,"Ġcaused":2760,"ĠDepartment":2761,"):":2762,"hold":2763,"inated":2764,"Ġwall":2765,"Ġdeg":2766,"ĠBo":2767,"ĠRiver":2768,"Ġ196":2769,"ricult":2770,"Ġaccept":2771,"undred":2772,"Ġliter":2773,"ĠDevelop":2774,"Ġculture":2775,"On":2776,"rans":2777,"erior":2778,"rael":2779,"Ġeffic":2780,"Ġcarbon":2781,"Ġservice":2782,"Ġparticularly":2783,"Ġwaters":2784,"ashington":2785,"ĠPe":2786,"Ġ2009":2787,"Ġemb":2788,"Ġschools":2789,"Ġservices":2790,"Ġcalc":2791,"Ġprimary":2792,"pril":2793,"aff":2794,"att":2795,"Ġslow":2796,"Ġcy":2797,"Ġfederal":2798,"Ġlog":2799,"uth":2800,"ĠDav":2801,"apan":2802,"Ġ2011":2803,"nces":2804,"Ġsou":2805,"Ġdeb":2806,"Ġmedia":2807,"Ġestim":2808,"Ġcontinue":2809,"Ġterms":2810,"Ġrelationship":2811,"Ġaud":2812,"Ġpict":2813,"alu":2814,"urs":2815,"ĠMe":2816,"duc":2817,"Ġaccount":2818,"Ġassess":2819,"Ġoriginal":2820,"rapy":2821,"ĠCalifornia":2822,"Ġtalk":2823,"inate":2824,"Ġfire":2825,"Ġmother":2826,"Ġmoney":2827,"Ġlate":2828,"Ġnormal":2829,"ĠApp":2830,"ĠEd":2831,"Ġuses":2832,"ĠEuropean":2833,"ira":2834,"oly":2835,"Ġ24":2836,"apt":2837,"Ġcompared":2838,"rench":2839,"Ġrefer":2840,"iction":2841,"Ġavoid":2842,"ength":2843,"Ġbelieve":2844,"Ġreceived":2845,"rest":2846,"ĠInf":2847,"ĠInternational":2848,"Ġconsist":2849,"Ġveget":2850,"Ġwritten":2851,"lied":2852,"inks":2853,"arr":2854,"Ġmix":2855,"ops":2856,"ĠRuss":2857,"ĠJune":2858,"Ġunc":2859,"Ġworkers":2860,"Ġ2007":2861,"Ġincluded":2862,"Ġreflect":2863,"Ġcauses":2864,"mitted":2865,"Ġaverage":2866,"IN":2867,"ns":2868,"Ġsat":2869,"Ġbrought":2870,"Ġful":2871,"arian":2872,"ĠAc":2873,"Ġcompl":2874,"Ġattem":2875,"Ġvariety":2876,"Ġlimited":2877,"Ġseems":2878,"Ġmeaning":2879,"OR":2880,"where":2881,"ancy":2882,"ulate":2883,"Ġalthough":2884,"istics":2885,"Ġvill":2886,"Ġtherefore":2887,"Ġforest":2888,"Ġissue":2889,"Ġsometimes":2890,"AN":2891,"overy":2892,"Ġlack":2893,"ĠIm":2894,"ĠInt":2895,"Ġdeep":2896,"Ġ21":2897,"Ġjo":2898,"Ġnews":2899,"Ġrespect":2900,"Ġbehind":2901,"Ġbirds":2902,"22":2903,"IT":2904,"erve":2905,"ĠAnt":2906,"Ġdecl":2907,"Ġnearly":2908,"Ġanalysis":2909,"rance":2910,"Ġ,":2911,"Ġbring":2912,"Ġface":2913,"Ġsuff":2914,"Ġprep":2915,"Ġappropri":2916,"Ġgenerally":2917,"Ġapplications":2918,"Ġpurp":2919,"Ġsus":2920,"alination":2921,"Ġbacter":2922,"ĠAg":2923,"ĠMor":2924,"Ġdead":2925,"ĠBra":2926,"Ġshall":2927,"ression":2928,"Ġtur":2929,"ica":2930,"abet":2931,"Ġfactor":2932,"ĠIndia":2933,"Ġmovement":2934,"Ġtrue":2935,"hood":2936,"light":2937,"Ġtoxic":2938,"Ġge":2939,"ulated":2940,"ĠPre":2941,"Ġspread":2942,"Ġcontains":2943,"ecause":2944,"lands":2945,"Ġproperty":2946,"And":2947,"Ġwa":2948,"lease":2949,"Ġregular":2950,"ĠIsrael":2951,"Ġidentify":2952,"Ġsafety":2953,"Ġindustry":2954,"ĠGerman":2955,"EN":2956,"mission":2957,"ying":2958,"Ġox":2959,"Ġsal":2960,"isions":2961,"Ġdog":2962,"rogen":2963,"hern":2964,"ads":2965,"ĠMany":2966,"Ġcomes":2967,"ĠWashington":2968,"ĠJapan":2969,"ellow":2970,"Ġimag":2971,"ĠIndian":2972,"ĠAssoc":2973,"mat":2974,"Ġpack":2975,"Ġbit":2976,"Ġec":2977,"istry":2978,"ript":2979,"ĠWill":2980,"Ġnumbers":2981,"Ġextreme":2982,"eed":2983,"Ġhundred":2984,"ĠPr":2985,"ores":2986,"Ġefforts":2987,"ribution":2988,"gency":2989,"Ġindividuals":2990,"Ġlaun":2991,"eal":2992,"ises":2993,"Ġtrade":2994,"Ġgradu":2995,"ĠAlthough":2996,"Ġserious":2997,"Ġcapac":2998,"Ġsites":2999,"Ġlayer":3000,"Ġbeginning":3001,"Ġdiagn":3002,"AR":3003,"Ġlost":3004,"Ġrot":3005,"Ġdecre":3006,"hens":3007,"Ġsimply":3008,"ĠScience":3009,"Ġskills":3010,"udej":3011,"Ġap":3012,"Ġonline":3013,"ĠMet":3014,"ĠWest":3015,"ĠGl":3016,"ĠGree":3017,"Ġacqu":3018,"Ġfeet":3019,"ception":3020,"bor":3021,"ground":3022,"Ġlives":3023,"elling":3024,"Ġevalu":3025,"Ġbooks":3026,"Ġdirectly":3027,"Ġwriting":3028,"ĠAustral":3029,"ey":3030,"Ġcra":3031,"ĠSchool":3032,"Ġord":3033,"ĠPress":3034,"Ġatmosp":3035,"Ġselect":3036,"ĠOct":3037,"Ġ190":3038,"Ġpolice":3039,"Ġlaws":3040,"Ġaffect":3041,"orage":3042,"Ġhar":3043,"see":3044,"ĠCast":3045,"ĠMP":3046,"ĠMudej":3047,"osoph":3048,"ham":3049,"vest":3050,"Ġtrib":3051,"orthern":3052,"Ġcompon":3053,"Ġinstead":3054,"ese":3055,"Ġfather":3056,"anced":3057,"Ġmess":3058,"ĠCor":3059,"rie":3060,"Ġlarger":3061,"Ġspeak":3062,"Ġdamage":3063,"Ġcitiz":3064,"life":3065,"Ġwent":3066,"Ġmach":3067,"ico":3068,"iles":3069,"Ġcompet":3070,"Ġsecurity":3071,"Ġpopular":3072,"useum":3073,"Ġbroad":3074,"Ġbreak":3075,"26":3076,"ls":3077,"uge":3078,"Ġtar":3079,"ony":3080,"Ġmill":3081,"leb":3082,"ĠPart":3083,"ĠFrench":3084,"ĠLaw":3085,"ĠChild":3086,"ologies":3087,"Ġcarry":3088,"Ġprotection":3089,"Ġanimal":3090,"itation":3091,"Ġhom":3092,"ĠApril":3093,"Ġ2005":3094,"Ġacid":3095,"Ġadded":3096,"Ġremain":3097,"Ġformed":3098,"Ġsociety":3099,"ST":3100,"rast":3101,"rates":3102,"oles":3103,"Ġcondition":3104,"Ġdeal":3105,"Ġsexual":3106,"ĠSociety":3107,"Ġwrite":3108,"IC":3109,"bo":3110,"wise":3111,"edia":3112,"Ġreve":3113,"ĠCount":3114,"Ġagree":3115,"gypt":3116,"Ġveh":3117,"ĠEnvironment":3118,"ĠJuly":3119,"Â°":3120,"inct":3121,"Ġpsych":3122,"Ġden":3123,"Ġang":3124,"ields":3125,"Ġreview":3126,"uous":3127,"Ġcust":3128,"Ġfarm":3129,"Ġmom":3130,"ĠIS":3131,"ĠBar":3132,"Ġcompan":3133,"Ġactive":3134,"Ġresponse":3135,"Ġmilk":3136,"Ġcheck":3137,"Ġdetermine":3138,"40":3139,"AL":3140,"pid":3141,"Ġwarm":3142,"Ġbal":3143,"Ġthing":3144,"Ġlic":3145,"term":3146,"ander":3147,"ĠNA":3148,"Ġuser":3149,"Ġdecision":3150,"Ġdefin":3151,"Ġhealthy":3152,"ugust":3153,"Ġspeed":3154,"Ġtraditional":3155,"gar":3156,"Ġnamed":3157,"ided":3158,"ĠCity":3159,"Ġspir":3160,"apter":3161,"Ġhighly":3162,"Ġcapital":3163,"Ġreading":3164,"Ġobjects":3165,"Ġprivate":3166,"enic":3167,"Ġcard":3168,"Ġcross":3169,"Ġreach":3170,"Ġlands":3171,"odies":3172,"ĠEm":3173,"Ġsoon":3174,"Ġsyn":3175,"Ġhumans":3176,"Ġdoesn":3177,"Ġsolar":3178,"Ġideas":3179,"Ġorigin":3180,"ĠQu":3181,"CT":3182,"IV":3183,"Ġbab":3184,"ari":3185,"Ġren":3186,"ĠSm":3187,"Ġstru":3188,"Ġexc":3189,"Ġrout":3190,"alled":3191,"Ġweb":3192,"ptember":3193,"ension":3194,"Ġrock":3195,"abetes":3196,"One":3197,"ror":3198,"uz":3199,"water":3200,"Ġtend":3201,"Ġfoot":3202,"Ġmicro":3203,"asons":3204,"Ġeight":3205,"Ġlif":3206,"ĠPar":3207,"riage":3208,"ava":3209,"Ġsoil":3210,"ounts":3211,"He":3212,"come":3213,"Ġtakes":3214,"edi":3215,"Ġnut":3216,"ĠMost":3217,"aint":3218,"ĠEgypt":3219,"ĠUs":3220,"ĠOther":3221,"Ġshowed":3222,"Ġdrive":3223,"Ġsafe":3224,"fficient":3225,"dd":3226,"ĠPers":3227,"used":3228,"Ġrules":3229,"Ġkids":3230,"Ġinfection":3231,"overty":3232,"Ġdesalination":3233,"ĠIslam":3234,"Ġpersonal":3235,"Ġelse":3236,"Ġdraw":3237,"Ġensure":3238,"ufact":3239,"Ġhon":3240,"cember":3241,"ĠCoun":3242,"Ġstorage":3243,"ĠJournal":3244,"Ġdoing":3245,"Ġrecently":3246,"Ġelectr":3247,"Ġmiles":3248,"ĠJanuary":3249,"more":3250,"iter":3251,"ocol":3252,"Ġoffer":3253,"Ġlocation":3254,"Ġlargest":3255,"Ġhimself":3256,"Ġlooking":3257,"Ġproperties":3258,"Ġcosts":3259,"Ġencoura":3260,"Ġclean":3261,"ET":3262,"ĠCong":3263,"ĠMon":3264,"ĠMass":3265,"Ġwebs":3266,"lick":3267,"range":3268,"iques":3269,"Ġdevice":3270,"Ġdevices":3271,"Ġdocument":3272,"Pro":3273,"With":3274,"iers":3275,"Ġsle":3276,"Ġfoss":3277,"Ġlove":3278,"oming":3279,"Ġstream":3280,"Ġvict":3281,"ĠRec":3282,"Ġtransport":3283,"Ġcoast":3284,"Ġdiseases":3285,"Ġoccurs":3286,"Ġnegative":3287,"Ġeye":3288,"ĠCanada":3289,"Ġreligious":3290,"Ġcapacity":3291,"32":3292,"cks":3293,"iable":3294,"itude":3295,"Ġmid":3296,"Ġhands":3297,"Ġlines":3298,"ĠServ":3299,"ĠHuman":3300,"Ġseason":3301,"Ġadop":3302,"Ġparty":3303,"Ġfeed":3304,"Ġlocated":3305,"Ġextra":3306,"Ġbehavior":3307,"ero":3308,"Ġcou":3309,"Ġbillion":3310,"ider":3311,"ĠSl":3312,"ĠSan":3313,"uster":3314,"Ġquant":3315,"ternet":3316,"ĠVir":3317,"ĠUnion":3318,"Ġexposure":3319,"Ġremains":3320,"Ġinstit":3321,"iverse":3322,"So":3323,"oration":3324,"Ġfav":3325,"Ġinsect":3326,"Ġproced":3327,"ĠHer":3328,"ocr":3329,"Ġsevere":3330,"Ġdispl":3331,"Ġoccup":3332,"Ġvideo":3333,"yond":3334,"Ġten":3335,"icated":3336,"enth":3337,"ĠCour":3338,"izations":3339,"Ġplanet":3340,"Ġpersons":3341,"Ġanti":3342,"Ġstarted":3343,"ĠAssociation":3344,"ban":3345,"hy":3346,"lin":3347,"isl":3348,"Ġmental":3349,"olic":3350,"Ġgot":3351,"ida":3352,"Ġund":3353,"illed":3354,"Ġmanufact":3355,"Ġcommerc":3356,"aily":3357,"Ġinterp":3358,"Ġprocessing":3359,"Ġleaders":3360,"Ġallows":3361,"Ġforeign":3362,"\",":3363,"24":3364,"Ġwalk":3365,"room":3366,"iments":3367,"Ġstress":3368,"ĠBudd":3369,"ession":3370,"ĠEduc":3371,"Ġtele":3372,"Ġrob":3373,"Ġtrack":3374,"Ġleading":3375,"Ġelements":3376,"Ġillust":3377,"ĠPresident":3378,"Ġsil":3379,"Ġsem":3380,"Ġbase":3381,"ctions":3382,"sec":3383,"ĠArab":3384,"amin":3385,"aces":3386,"ĠEl":3387,"ĠFeb":3388,"Ġsequ":3389,"Ġshare":3390,"Ġquite":3391,"Ġattention":3392,"ĠArt":3393,"Ġinside":3394,"Ġmultiple":3395,"Ġvirus":3396,"ĠTechn":3397,"Ġplaces":3398,"Ġgarden":3399,"ĠDavid":3400,"60":3401,"aul":3402,"ps":3403,"iny":3404,"Ġbott":3405,"Ġfuel":3406,"Ġinn":3407,"entially":3408,"abilities":3409,"Ġattack":3410,"Ġminutes":3411,"Ġtesting":3412,"80":3413,"iples":3414,"lier":3415,"eration":3416,"Ġformer":3417,"ĠMount":3418,"ĠDo":3419,"ĠDis":3420,"ĠWater":3421,"Ġscreen":3422,"Ġprint":3423,"Ġgetting":3424,"Ġcapt":3425,"21":3426,"29":3427,"bit":3428,"upp":3429,"atur":3430,"Ġmob":3431,"ulf":3432,"ĠLord":3433,"Ġrequires":3434,"Ġserver":3435,"Ġsolution":3436,"Ġestablish":3437,"Ġmotor":3438,"Ġvirt":3439,"27":3440,"At":3441,"aid":3442,"uff":3443,"Ġaware":3444,"Ġwood":3445,"Ġdang":3446,"ceed":3447,"verse":3448,"tee":3449,"Ġrapid":3450,"Ġsupply":3451,"Ġcenter":3452,"Ġdifference":3453,"ĠReg":3454,"Ġaim":3455,"Ġmiddle":3456,"elt":3457,"ellect":3458,"ipment":3459,"Ġperhaps":3460,"ought":3461,"Ġmax":3462,"Ġpopulations":3463,"Ġaffected":3464,"Ġmeasures":3465,"Ġcritical":3466,"ancial":3467,"Ġancient":3468,"Ġdisorders":3469,"23":3470,"iology":3471,"na":3472,"nes":3473,"orge":3474,"Ġforces":3475,"ĠCivil":3476,"ĠMary":3477,"pping":3478,"Ġvacc":3479,"resp":3480,"Ġapplied":3481,"Ġrare":3482,"Ġphil":3483,"Ġsurround":3484,"oyal":3485,"inese":3486,"Ġcorrect":3487,"Ġdemand":3488,"Ġinfluence":3489,"Ġsustain":3490,"ĠCouncil":3491,"rations":3492,"Ġpul":3493,"leton":3494,"Ġhost":3495,"Ġgave":3496,"ĠSch":3497,"Ġconce":3498,"terior":3499,"ĠBer":3500,"ĠEast":3501,"ocks":3502,"ĠGreat":3503,"Ġreports":3504,"Ġcold":3505,"Ġtransl":3506,"Ġprocesses":3507,"ospital":3508,"ributed":3509,"Ġessential":3510,"Ġachieve":3511,"HE":3512,"bran":3513,"wo":3514,"itis":3515,"Ġfinal":3516,"Ġdry":3517,"roy":3518,"omb":3519,"Ġbeg":3520,"ĠAugust":3521,"osing":3522,"asses":3523,"ounds":3524,"Ġgene":3525,"ovember":3526,"Ġinstruct":3527,"ĠSeptember":3528,"Ġlateral":3529,"Ġtrial":3530,"ĠCommun":3531,"By":3532,"Ġsand":3533,"Ġcode":3534,"Ġdate":3535,"Ġult":3536,"Ġwhom":3537,"Ġnumerous":3538,"Ġmonitor":3539,"ĠRead":3540,"Ġsmaller":3541,"Ġmajority":3542,"Ġsteps":3543,"Ġinvestig":3544,"Ġanswer":3545,"ĠHistory":3546,"Ġquickly":3547,"ĠNASA":3548,"eks":3549,"gal":3550,"edom":3551,"Ġdied":3552,"asts":3553,"Ġvent":3554,"ĠFlor":3555,"Ġ23":3556,"Ġrule":3557,"Ġjur":3558,"achuse":3559,"Ġroom":3560,"Ġanything":3561,"Ġ60":3562,"Ġtechniques":3563,"Ġpatient":3564,"Ġequal":3565,"Ġthinking":3566,"Ġceleb":3567,"70":3568,"Ġtree":3569,"itle":3570,"Ġeth":3571,"set":3572,"Ġpregn":3573,"Ġgenes":3574,"Ġgoal":3575,"Ġeasy":3576,"Ġtrying":3577,"Ġobserved":3578,"tts":3579,"Ġx":3580,"ona":3581,"Ġhot":3582,"ĠAccording":3583,"Ġconcept":3584,"Ġrates":3585,"Ġadminist":3586,"Ġdiscovered":3587,"Ġasked":3588,"Ġsituation":3589,"Ġexercise":3590,"Ġchalleng":3591,"achusetts":3592,"ĠSol":3593,"ruary":3594,"ĠPlan":3595,"copation":3596,"Ġcompletely":3597,"Ġteachers":3598,"ĠDevelopment":3599,"Ġappropriate":3600,"Ġtarget":3601,"OS":3602,"time":3603,"yle":3604,"year":3605,"Ġsam":3606,"Ġeat":3607,"Ġnight":3608,"ĠMarch":3609,"These":3610,"ĠJes":3611,"ĠChinese":3612,"phas":3613,"Ġuseful":3614,"Ġdepend":3615,"Ġallowed":3616,"ĠSystem":3617,"Ġplaced":3618,"book":3619,"zing":3620,"Ġson":3621,"Ġsold":3622,"Ġfem":3623,"ĠSer":3624,"Ġones":3625,"ama":3626,"ĠMex":3627,"Ġalone":3628,"Ġchance":3629,"Ġarri":3630,"Ġsaw":3631,"Ġrespond":3632,"airs":3633,"ĠDecember":3634,"Ġexamples":3635,"Ġbenefits":3636,"Ġattempt":3637,"ĠWilliam":3638,"ĠBuddh":3639,"RE":3640,"Some":3641,"iar":3642,"Ġbad":3643,"ems":3644,"antic":3645,"Ġimages":3646,"ĠOff":3647,"ensity":3648,"ĠItal":3649,"Ġblock":3650,"ĠProt":3651,"ĠProgram":3652,"Ġeasily":3653,"Ġcurrently":3654,"ography":3655,"Ġfailure":3656,"Ġsediment":3657,"Ġcitizens":3658,"Ġwebsite":3659,"35":3660,"vant":3661,"Ġmission":3662,"irm":3663,"Ġagricult":3664,"Ġbecomes":3665,"rence":3666,"Ġhelps":3667,"Ġvalues":3668,"Ġeconomy":3669,"Ġstandards":3670,"Ġolder":3671,"Ġcultural":3672,"Ġprior":3673,"Ġexisting":3674,"Ġsubstance":3675,"Ġresponsible":3676,"ellectual":3677,"iations":3678,"kn":3679,"rec":3680,"Ġcred":3681,"oted":3682,"ĠHigh":3683,"Ġnothing":3684,"ĠJames":3685,"Ġimportance":3686,"Ġconflic":3687,"Ġdiabetes":3688,"Ġmoment":3689,"ding":3690,"mar":3691,"Ġpages":3692,"Ġfigure":3693,"icate":3694,"Ġlength":3695,"ster":3696,"ĠSim":3697,"ift":3698,"pped":3699,"ĠInc":3700,"Ġpret":3701,"Ġpoints":3702,"Ġstrateg":3703,"Ġslight":3704,"Ġinteresting":3705,"ĠRepublic":3706,"Un":3707,"rant":3708,"Ġpp":3709,"Ġborn":3710,"Ġdaily":3711,"Ġharm":3712,"Ġaspect":3713,"ĠGovern":3714,"irection":3715,"ĠKe":3716,"Ġworked":3717,"Ġexpand":3718,"Ġexpected":3719,"Ġreduced":3720,"Ġprojects":3721,"Ġbenefit":3722,"Ġofficials":3723,"bur":3724,"inical":3725,"Ġcool":3726,"Ġpet":3727,"Ġbeds":3728,"Ġbodies":3729,"Ġfear":3730,"Ġmut":3731,"Ġdark":3732,"enty":3733,"amm":3734,"ĠFrance":3735,"izes":3736,"aging":3737,"orms":3738,"Ġquar":3739,"Ġeffort":3740,"Ġtechnologies":3741,"Ġfollowed":3742,"Ġadvant":3743,"Ġproviding":3744,"Ġseparate":3745,"Ġtools":3746,"Ġstrength":3747,"CC":3748,"fect":3749,"Ġmal":3750,"ĠLib":3751,"Ġoffic":3752,"inson":3753,"Ġload":3754,"wide":3755,"icip":3756,"Ġtold":3757,"ĠTex":3758,"idel":3759,"ĠSam":3760,"Ġstay":3761,"ĠFl":3762,"ĠFirst":3763,"Ġattract":3764,"Ġlimit":3765,"rimination":3766,"Ġfully":3767,"ky":3768,"ura":3769,"rehens":3770,"Ġbord":3771,"Ġbran":3772,"Ġweather":3773,"ĠKore":3774,"Ġemp":3775,"Ġflood":3776,"gery":3777,"Ġconstant":3778,"Ġpositive":3779,"Ġdigital":3780,"Ġutil":3781,"Ġelectricity":3782,"Ġdoub":3783,"ĠMassachusetts":3784,"Ġcommercial":3785,"rote":3786,"Ġgives":3787,"ĠFound":3788,"resh":3789,"They":3790,"Ġpresident":3791,"Ġmembran":3792,"Ġfiles":3793,"Ġthousands":3794,"Ġcompanies":3795,"Ġsleep":3796,"king":3797,"men":3798,"Ġtum":3799,"Ġsect":3800,"isher":3801,"asion":3802,"Ġreasons":3803,"otic":3804,"astic":3805,"arent":3806,"related":3807,"Ġfruit":3808,"Ġalternative":3809,"ĠMPa":3810,"38":3811,"Ex":3812,"off":3813,"Ġban":3814,"Ġfight":3815,"idents":3816,"ĠPat":3817,"ĠDuring":3818,"Ġhair":3819,"ĠGo":3820,"Ġjournal":3821,"Ġtruth":3822,"Ġpresence":3823,"Ġearlier":3824,"wards":3825,"Ġinsp":3826,"Ġorganization":3827,"iency":3828,"Ġhighest":3829,"Ġtreated":3830,"Ġfinancial":3831,"ĠGeneral":3832,"Ġsummer":3833,"Ġargu":3834,"ĠFranc":3835,"Ġstrugg":3836,"yp":3837,"Ġocean":3838,"ĠAlex":3839,"ĠPM":3840,"Ġshape":3841,"Ġenh":3842,"Ġweeks":3843,"Ġcontroll":3844,"Ġcompar":3845,"ologist":3846,"Ġremained":3847,"ĠProv":3848,"ĠAmericans":3849,"Ġcommunication":3850,"Ġcoord":3851,"Ġbasis":3852,"ĠMedicine":3853,"Ġradiation":3854,"ridge":3855,"Ġriver":3856,"Ġestimated":3857,"Ġbacteria":3858,"known":3859,"aur":3860,"bi":3861,"back":3862,"war":3863,"head":3864,"Ġbeyond":3865,"Ġgame":3866,"Ġupper":3867,"Ġyouth":3868,"ĠNow":3869,"Ġrise":3870,"Ġadults":3871,"Ġcommand":3872,"Ġpeace":3873,"Ġ2003":3874,"Ġoffers":3875,"Ġautom":3876,"ĠRev":3877,"Ġfoods":3878,"Ġannual":3879,"Ġdrink":3880,"Ġstatus":3881,"Ġconducted":3882,"Ġfaith":3883,"Ġfibers":3884,"ĠOctober":3885,"DS":3886,"ees":3887,"iance":3888,"met":3889,"tained":3890,"ximately":3891,"Ġtiss":3892,"hel":3893,"ĠSee":3894,"Ġ195":3895,"Ġsolid":3896,"Ġdescription":3897,"Ġequipment":3898,"Ġsuccessful":3899,"Ġreceive":3900,"Ġparent":3901,"Ġdegree":3902,"just":3903,"oke":3904,"rs":3905,"ystem":3906,"Ġsn":3907,"Ġpoverty":3908,"Ġball":3909,"ula":3910,"ĠMc":3911,"ĠMod":3912,"ĠRed":3913,"Ġrul":3914,"ellig":3915,"Ġimpl":3916,"Ġ2004":3917,"Ġexperiment":3918,"Ġpassed":3919,"Ġbelieved":3920,"Ġrunning":3921,"Ġconstruct":3922,"Ġchemicals":3923,"Ġhistorical":3924,"ĠCourt":3925,"joy":3926,"ÃŃ":3927,"aling":3928,"Ġbound":3929,"ĠBecause":3930,"que":3931,"ĠDay":3932,"ĠEven":3933,"ĠFrom":3934,"Ġprison":3935,"Ġincreases":3936,"Ġemployment":3937,"Ġgrant":3938,"ĠAfrica":3939,"ĠFlorida":3940,"45":3941,"AS":3942,"xual":3943,"Ġtou":3944,"oring":3945,"Ġdivid":3946,"Ġhope":3947,"ste":3948,"Ġnor":3949,"Ġforward":3950,"ĠSur":3951,"odes":3952,"ĠDec":3953,"ĠUnder":3954,"Ġcollection":3955,"Ġemphas":3956,"Ġmedicine":3957,"Ġanaly":3958,"ĠFebruary":3959,"ht":3960,"Ġtable":3961,"rew":3962,"Ġwon":3963,"Ġwrote":3964,"itable":3965,"Ġpric":3966,"Ġfair":3967,"Ġnative":3968,"ĠAng":3969,"ĠTheir":3970,"ĠOs":3971,"Ġkid":3972,"Ġexperien":3973,"Ġeverything":3974,"Ġphysic":3975,"ĠCollege":3976,"Ġtypically":3977,"what":3978,"encies":3979,"ĠIranian":3980,"ĠTexas":3981,"IS":3982,"ken":3983,"ara":3984,"ĠTrans":3985,"ifically":3986,"ria":3987,"ĠWestern":3988,"igned":3989,"Ġsomeone":3990,"erved":3991,"Ġ2000":3992,"Ġtransfer":3993,"load":3994,"yright":3995,"respond":3996,"ĠJesus":3997,"eff":3998,"oo":3999,"Ã¡":4000,"Ġmention":4001,"Ġder":4002,"Ġbeaut":4003,"imal":4004,"ĠMy":4005,"Ġexact":4006,"Ġcoming":4007,"unn":4008,"Ġintellectual":4009,"ibly":4010,"Ġunique":4011,"Ġdesp":4012,"Ġexposed":4013,"Ġpoly":4014,"Ġcorn":4015,"Ġorganizations":4016,"ĠAtl":4017,"Ġreleased":4018,"Ġnuclear":4019,"Ġfeatures":4020,"ĠPeople":4021,"28":4022,"37":4023,"bl":4024,"itness":4025,"Ġdirection":4026,"âĢ¢":4027,"oday":4028,"ĠWork":4029,"Ġnoted":4030,"Ġoffice":4031,"Ġdiscover":4032,"ĠAsia":4033,"Ġfindings":4034,"Ġtemperatures":4035,"Ġindustrial":4036,"Ġdestroy":4037,"Ġphilosoph":4038,"Ġsch":4039,"Ġswe":4040,"Ġcities":4041,"orph":4042,"Ġpen":4043,"erson":4044,"ĠJud":4045,"Ġcontext":4046,"ĠInst":4047,"obe":4048,"icking":4049,"Ġcarried":4050,"Ġsett":4051,"Ġenter":4052,"Ġmarriage":4053,"Ġchanged":4054,"Ġhyp":4055,"Ġturned":4056,"hetic":4057,"ynam":4058,"ĠInformation":4059,"Ġpurpose":4060,"cial":4061,"Ġtim":4062,"Ġmis":4063,"icted":4064,"Ġhous":4065,"Ġisn":4066,"semb":4067,"ĠAN":4068,"ĠIts":4069,"aced":4070,"Ġneigh":4071,"Ġleave":4072,"Ġqual":4073,"Ġ2013":4074,"Ġdistance":4075,"Ġapproaches":4076,"ĠSpace":4077,"While":4078,"Ġlegisl":4079,"Ġmoving":4080,"Ġspirit":4081,"ĠCongress":4082,"Ar":4083,"ded":4084,"ygen":4085,"isp":4086,"itect":4087,"Ġmig":4088,"ĠBay":4089,"Ġseven":4090,"ĠNot":4091,"ĠNovember":4092,"Ġpartners":4093,"Ġdistinct":4094,"ĠSpec":4095,"ĠConf":4096,"Ġtrees":4097,"Ġstructures":4098,"Ġauthorities":4099,"Ġconnection":4100,"Ġsuggests":4101,"Ġhabitat":4102,"Ġcustom":4103,"36":4104,"All":4105,"gment":4106,"Ġwond":4107,"aria":4108,"omy":4109,"Ġgal":4110,"ĠSw":4111,"ender":4112,"Ġresistance":4113,"osexual":4114,"ĠChurch":4115,"Ġrain":4116,"Ġdecades":4117,"hemat":4118,"ĠEngland":4119,"Ġrecorded":4120,"Ġcombination":4121,"Ġprinciples":4122,"Ġopportunity":4123,"Ġpicture":4124,"equ":4125,"iant":4126,"ping":4127,"Ġ...":4128,"Ġtub":4129,"reet":4130,"itler":4131,"Ġconver":4132,"ĠMa":4133,"ĠPublic":4134,"ĠHen":4135,"Ġexhib":4136,"ivation":4137,"ĠNet":4138,"Ġround":4139,"rupt":4140,"iece":4141,"Ġgoes":4142,"Ġmaintain":4143,"ĠPhys":4144,"Ġpractices":4145,"pective":4146,"Ġconstruction":4147,"Ġpurch":4148,"Ġnegot":4149,"Ġbaby":4150,"house":4151,"erg":4152,"enge":4153,"Ġcrop":4154,"Ġpow":4155,"Ġbreat":4156,"Ġfert":4157,"ĠSince":4158,"Ġ28":4159,"ondon":4160,"Ġemissions":4161,"Ġregions":4162,"Ġinterested":4163,"Ġeducational":4164,"Ġproposed":4165,"Ġappears":4166,"Ġviolence":4167,"Ġfossil":4168,"orks":4169,"Ġpit":4170,"ingu":4171,"ĠHere":4172,"rian":4173,"rome":4174,"ĠDem":4175,"ĠRef":4176,"Ġ26":4177,"Ġchronic":4178,"Ġscale":4179,"Ġroad":4180,"Ġelim":4181,"ĠGermany":4182,"Ġprofessor":4183,"ĠMuslims":4184,"ĠCounty":4185,"ĠEnvironmental":4186,"Ġbottom":4187,"Â·":4188,"aled":4189,"Ġmer":4190,"Ġlived":4191,"uted":4192,"Ġexcept":4193,"rief":4194,"Ġworth":4195,"ĠInternet":4196,"Ġcompany":4197,"Ġsymb":4198,"Ġupd":4199,"Ġdifferences":4200,"ĠProject":4201,"Ġgrand":4202,"Ġbelong":4203,"Ġidentified":4204,"Ġclearly":4205,"aught":4206,"ĠChildren":4207,"ĠEducation":4208,"'ve":4209,"DA":4210,"See":4211,"yal":4212,"alm":4213,"Ġdim":4214,"Ġnorthern":4215,"ĠMiddle":4216,"ĠHIV":4217,"Ġusers":4218,"Ġappe":4219,"Ġinstru":4220,"198":4221,"clus":4222,"force":4223,"Ġvolunt":4224,"Ġrequirements":4225,"ĠGeorge":4226,"Ġrelatively":4227,"ĠCharles":4228,"ipl":4229,"lar":4230,"win":4231,"Ã¶":4232,"Ġcru":4233,"isation":4234,"orial":4235,"Ġgir":4236,"amer":4237,"Ġconstitution":4238,"ĠDan":4239,"ĠRet":4240,"ĠGr":4241,"Ġleaves":4242,"Ġconservation":4243,"Ġ2001":4244,"Ġplanning":4245,"Ġmember":4246,"Ġcorrespond":4247,"Ġlearned":4248,"Ġpowerful":4249,"Ġtempor":4250,"Ġcommonly":4251,"Ġgeneration":4252,"Ġcreating":4253,"Ġtowards":4254,"Ġopportunities":4255,"Ġ=":4256,"Ġi":4257,"erate":4258,"Ġcards":4259,"Ġliqu":4260,"Ġlinks":4261,"Ġnames":4262,"ĠPaul":4263,"umin":4264,"ĠRoman":4265,"Ġ22":4266,"ĠJer":4267,"Ġperman":4268,"Ġschem":4269,"Ġoverall":4270,"Ġ2002":4271,"issure":4272,"iox":4273,"ĠWeb":4274,"Ġbox":4275,"Ġdidn":4276,"Ġvision":4277,"Ġconnect":4278,"Ġdiscussion":4279,"Ġjobs":4280,"Ġrecommend":4281,"Ġheavy":4282,"Ġversion":4283,"Ġdisplay":4284,"aign":4285,"ih":4286,"pris":4287,"right":4288,"Ġwestern":4289,"Ġwoman":4290,"Ġpan":4291,"Ġmiss":4292,"oud":4293,"Ġnations":4294,"Ġconv":4295,"Ġconvers":4296,"Ġvit":4297,"ĠFederal":4298,"Ġshut":4299,"Ġenjoy":4300,"Ġstudied":4301,"Ġactual":4302,"Ġreprodu":4303,"Ġanyone":4304,"ĠIsland":4305,"Ġiniti":4306,"Ġnucle":4307,"ĠVirgin":4308,"SI":4309,"aus":4310,"band":4311,"cra":4312,"ev":4313,"hma":4314,"Ġcere":4315,"Ġpip":4316,"Ġstories":4317,"ĠMich":4318,"Ġvary":4319,"Ġrang":4320,"apers":4321,"Ġplans":4322,"Ġincor":4323,"Ġcolon":4324,"ĠYour":4325,"Ġdistribution":4326,"ĠCentral":4327,"Ġbreast":4328,"Ġbiological":4329,"Ġeyes":4330,"Ġcounter":4331,"Ġbattle":4332,"Ġindependent":4333,"Ġaudio":4334,"CE":4335,"Sc":4336,"Ġwest":4337,"Ġfix":4338,"ĠThen":4339,"Ġexcess":4340,"Ġhem":4341,"Ġ27":4342,"Ġnote":4343,"Ġspin":4344,"Ġcontem":4345,"ĠInter":4346,"Ġnovel":4347,"Ġapproximately":4348,"Ġorganisms":4349,"Ġimpacts":4350,"Ġprofessional":4351,"Ġkilled":4352,"Ġwidely":4353,"Ġmeeting":4354,"Ġfriend":4355,"Ġlandsc":4356,"Ġmaximum":4357,"htm":4358,"che":4359,"senic":4360,"Ġphen":4361,"Ġfields":4362,"Ġgain":4363,"Ġgiving":4364,"igen":4365,"Ġstars":4366,"Ġconsequ":4367,"ĠMars":4368,"ĠMuseum":4369,"istant":4370,"Ġhear":4371,"ĠEv":4372,"ĠGreen":4373,"rants":4374,"Ġmodels":4375,"Ġexpert":4376,"Ġrecords":4377,"Ġintroduced":4378,"Ġwinter":4379,"Ġpatterns":4380,"Ġbalance":4381,"33":4382,"After":4383,"EL":4384,"From":4385,"eer":4386,"ford":4387,"greg":4388,"Ġsong":4389,"Ġbond":4390,"Ġfig":4391,"Ġhit":4392,"ĠCO":4393,"ĠLat":4394,"ĠJon":4395,"ears":4396,"ĠOf":4397,"Ġdiss":4398,"rick":4399,"Ġrepe":4400,"Ġhelped":4401,"Ġ186":4402,"ĠArch":4403,"Ġ1990":4404,"Ġproteins":4405,"ĠSocial":4406,"Ġdomestic":4407,"ĠAfrican":4408,"Ġextremely":4409,"Ġvictim":4410,"Ġfavor":4411,"ĠFoundation":4412,"bed":4413,"onal":4414,"Ġsen":4415,"Ġsav":4416,"ĠAv":4417,"Ġstage":4418,"ĠEach":4419,"key":4420,"ocation":4421,"Ġrich":4422,"Ġspring":4423,"Ġarm":4424,"Ġarrest":4425,"ords":4426,"Ġconsists":4427,"Ġkept":4428,"Ġbackground":4429,"Ġsettle":4430,"Ġsigns":4431,"Ġ1999":4432,"Ġfunctions":4433,"Ġfreedom":4434,"spec":4435,"Ġlicens":4436,"Ġconcepts":4437,"can":4438,"iner":4439,"Ġtherapy":4440,"ĠCap":4441,"ulin":4442,"Ġanterior":4443,"Ġexec":4444,"aste":4445,"Ġcomprehens":4446,"Ġarmy":4447,"Ġtraffic":4448,"Ġdiscrimination":4449,"ĠProf":4450,"ĠAlso":4451,"Ġopin":4452,"ĠSea":4453,"Ġbrother":4454,"Ġoperating":4455,"Ġinvolve":4456,"Ġviews":4457,"Ġpromote":4458,"Ġoptions":4459,"Ġeventually":4460,"Ġteacher":4461,"Ġdisorder":4462,"cious":4463,"Ġcateg":4464,"Ġfif":4465,"Ġinternal":4466,"arrow":4467,"icit":4468,"iling":4469,"Ġreality":4470,"Ġisland":4471,"etics":4472,"Ġprohib":4473,"istan":4474,"ĠDar":4475,"ĠLabor":4476,"ormally":4477,"Ġextent":4478,"Ġdetect":4479,"Ġarticles":4480,"Ġminor":4481,"Ġserved":4482,"Ġoccurred":4483,"Ġrelease":4484,"Ġconcerned":4485,"Ġfrequently":4486,"Ġatmosphere":4487,"ĠService":4488,"ĠTechnology":4489,"ĠMexico":4490,"DP":4491,"New":4492,"Te":4493,"rees":4494,"onic":4495,"Ġfresh":4496,"omic":4497,"olved":4498,"iding":4499,"ĠAre":4500,"urrent":4501,"Ġstem":4502,"heric":4503,"Ġsufficient":4504,"unction":4505,"ĠLondon":4506,"earing":4507,"ressed":4508,"Ġapply":4509,"âĢĿ.":4510,"Ġ300":4511,"Ġmostly":4512,"Ġemail":4513,"Ġ189":4514,"Ġvisual":4515,"Ġpresented":4516,"Ġoperations":4517,"Ġimmedi":4518,"Ġconnected":4519,"Ġancest":4520,"Ġremoved":4521,"Ġoxygen":4522,"CO":4523,"HA":4524,"IG":4525,"comm":4526,"ias":4527,"rig":4528,"Ġille":4529,"Ġinput":4530,"rag":4531,"char":4532,"Ġforced":4533,"iring":4534,"ĠWol":4535,"ĠRel":4536,"Ġcontract":4537,"ously":4538,"Ġunf":4539,"Ġcreation":4540,"Ġprotocol":4541,"Ġ1995":4542,"Ġexplain":4543,"Ġresulted":4544,"Ġresulting":4545,"Ġimmune":4546,"Ġterrit":4547,"ĠMedical":4548,"Ġdetails":4549,"rieved":4550,"Ġrenew":4551,"Ġdespite":4552,"CR":4553,"cus":4554,"ped":4555,"pus":4556,"Ġinher":4557,"Ġmos":4558,"Ġhuge":4559,"ctic":4560,"olid":4561,"amental":4562,"ĠMat":4563,"iform":4564,"Ġalle":4565,"ĠHitler":4566,"ache":4567,"acher":4568,"Ġvia":4569,"ĠFin":4570,"Ġrat":4571,"ĠOur":4572,"Ġemot":4573,"Ġsurvey":4574,"Ġremember":4575,"Ġgets":4576,"Ġchanging":4577,"Ġtrend":4578,"aughter":4579,"zech":4580,"Ġefficient":4581,"ĠAcadem":4582,"Ġimmediately":4583,"31":4584,"cont":4585,"ean":4586,"uit":4587,"Ġsort":4588,"alle":4589,"Ġmap":4590,"ett":4591,"Ġstaff":4592,"Ġalt":4593,"Ġwaste":4594,"ĠEmp":4595,"ĠFore":4596,"ĠLou":4597,"ĠLife":4598,"aped":4599,"Ġresource":4600,"ĠThus":4601,"Ġscen":4602,"ĠVol":4603,"Ġeveryone":4604,"Ġcompleted":4605,"ifying":4606,"Ġrevolution":4607,"ĠSyn":4608,"Ġdetermined":4609,"ĠIII":4610,"Ġclaims":4611,"Ġdivided":4612,"Ph":4613,"bal":4614,"down":4615,"mal":4616,"rat":4617,"vity":4618,"inity":4619,"ĠMD":4620,"iful":4621,"Ġspect":4622,"ogen":4623,"apes":4624,"eces":4625,"ossible":4626,"Ġexperts":4627,"Ġminimum":4628,"ĠConstitution":4629,"Ġcombined":4630,"Ġillness":4631,"Ġcharacteristics":4632,"Ġsquare":4633,"Ġfriends":4634,"Ġlaunch":4635,"Ġslightly":4636,"CL":4637,"Is":4638,"OT":4639,"ua":4640,"zy":4641,"Ġice":4642,"Ġpiece":4643,"Ġfast":4644,"ĠSen":4645,"ĠHung":4646,"Ġcontrast":4647,"Ġunivers":4648,"ĠKh":4649,"ribute":4650,"ovak":4651,"Ġexpect":4652,"Ġacadem":4653,"cycl":4654,"Ġpresc":4655,"Ġgravel":4656,"Ġdefined":4657,"rolog":4658,"Ġelement":4659,"Ġperformed":4660,"Ġfinally":4661,"Ġfacilities":4662,"Ġletters":4663,"Ġmoved":4664,"ĠCanadian":4665,"Ġpollution":4666,"ĠAustralia":4667,"ĠOffice":4668,"Ġconflict":4669,"ĠKorea":4670,"ĠFrancisc":4671,"ED":4672,"bach":4673,"co":4674,"rition":4675,"Ġign":4676,"Ġesc":4677,"Ġegg":4678,"Ġreb":4679,"Ġgyr":4680,"ado":4681,"riz":4682,"ocal":4683,"ĠLear":4684,"Ġintended":4685,"Ġmeant":4686,"ologists":4687,"Ġroyal":4688,"Ġcolors":4689,"Ġcontinues":4690,"Ġreduction":4691,"risis":4692,"Ġmeasured":4693,"espite":4694,"Ġsuperior":4695,"Although":4696,"Ġharvest":4697,"Ġmachine":4698,"Ġchallenges":4699,"34":4700,"Many":4701,"uild":4702,"yt":4703,"Ġbone":4704,"ana":4705,"Ġinh":4706,"Ġtomat":4707,"Ġdu":4708,"iled":4709,"otes":4710,"Ġstore":4711,"ĠMal":4712,"ĠMil":4713,"ĠBro":4714,"ĠWind":4715,"ĠGre":4716,"Ġsports":4717,"ĠOver":4718,"Ġperfect":4719,"Ġinfected":4720,"Ġbecoming":4721,"Ġshowing":4722,"Ġelection":4723,"Ġimproved":4724,"idden":4725,"Ġpolicies":4726,"Ġannoun":4727,"Ġcircum":4728,"Ġexpression":4729,"Ġconsumption":4730,"Ġreturned":4731,"However":4732,"Ġpreviously":4733,"Ġmorning":4734,"going":4735,"Ġreferred":4736,"Ġprepared":4737,"ĠGreek":4738,"Most":4739,"cles":4740,"des":4741,"enced":4742,"Ġcry":4743,"Ġpaid":4744,"oma":4745,"ĠTur":4746,"urd":4747,"Ġconvent":4748,"ada":4749,"ĠBel":4750,"Ġexcell":4751,"osen":4752,"Ġheard":4753,"Ġspent":4754,"Ġweak":4755,"Ġmanner":4756,"Ġju":4757,"ishing":4758,"Ġsynt":4759,"Ġactions":4760,"Ġcollege":4761,"Ġdecided":4762,"Ġeffectively":4763,"Ġgoals":4764,"Ġreference":4765,"That":4766,"Ġserve":4767,"eech":4768,"ĠEnergy":4769,"Ġeastern":4770,"ĠCommission":4771,"Ġdescribe":4772,"Ġhappens":4773,"Ġsignificantly":4774,"Ġcampaign":4775,"Ġmessage":4776,"Ġinterpret":4777,"Ġventric":4778,"Ġadvantage":4779,"Ġgalax":4780,"89":4781,"BS":4782,"Be":4783,"mark":4784,"west":4785,"Ġwww":4786,"Ġband":4787,"Ġfaster":4788,"Ġthick":4789,"Ġles":4790,"omas":4791,"Ġnit":4792,"Ġisol":4793,"ram":4794,"ulum":4795,"umn":4796,"Ġheight":4797,"ĠWild":4798,"unk":4799,"ĠUse":4800,"ager":4801,"Ġsave":4802,"Ġformation":4803,"Ġparticles":4804,"Ġlargely":4805,"Ġmathemat":4806,"Ġtried":4807,"Ġlanguages":4808,"ortunately":4809,"Ġfrequency":4810,"Ġportion":4811,"Ġsector":4812,"Ġkidney":4813,"ĠHenry":4814,"Ab":4815,"Gen":4816,"Res":4817,"ha":4818,"tical":4819,"aters":4820,"Ġsend":4821,"Ġpun":4822,"Ġfine":4823,"Ġmere":4824,"Ġlung":4825,"ĠCom":4826,"ĠRich":4827,"Ġadult":4828,"Ġclim":4829,"Ġjoint":4830,"Ġcounty":4831,"Ġcoal":4832,"Ġstatement":4833,"Ġcontinuous":4834,"Ġdirector":4835,"Ġrelevant":4836,"Ġreaction":4837,"ĠParkinson":4838,"ĠGovernment":4839,"IP":4840,"LE":4841,"UN":4842,"lers":4843,"long":4844,"ux":4845,"wood":4846,"heim":4847,"Ġburn":4848,"Ġfo":4849,"Ġreached":4850,"Ġnav":4851,"umber":4852,"Ġleaving":4853,"ĠLa":4854,"Ġweap":4855,"Ġincome":4856,"Ġsupplies":4857,"Ġinstall":4858,"Ġinstance":4859,"Ġsecret":4860,"Ġgovernments":4861,"Ġ70":4862,"Ġfinding":4863,"standing":4864,"Ġpractical":4865,"Ġinterests":4866,"aimed":4867,"ographic":4868,"Ġlayers":4869,"ĠBritain":4870,"Ġarchitect":4871,"ĠRussia":4872,"ĠCastleton":4873,"Ġvehicles":4874,"ĠEmpire":4875,"ĠLouis":4876,"According":4877,"fort":4878,"ĠÃ":4879,"eria":4880,"atform":4881,"raw":4882,"ulating":4883,"Ġ29":4884,"ĠLake":4885,"Ġspeech":4886,"ague":4887,"Ġclos":4888,"reatment":4889,"Ġprefer":4890,"Ġteaching":4891,"Ġfamous":4892,"Ġorganized":4893,"Ġ1998":4894,"Ġmarine":4895,"Ġplayed":4896,"Ġdiscussed":4897,"Ġcritic":4898,"Ġexpressed":4899,"Ġdocuments":4900,"Ġlatter":4901,"Ġsouthern":4902,"Ġcomponents":4903,"Ġmembrane":4904,"Ġexperienced":4905,"AP":4906,"eor":4907,"ii":4908,"nic":4909,"Ġtask":4910,"Ġpi":4911,"Ġpray":4912,"alam":4913,"outhern":4914,"Ġdynam":4915,"Ġhop":4916,"ĠCzech":4917,"Ġstation":4918,"eles":4919,"osystem":4920,"ĠElect":4921,"ĠNatural":4922,"ibl":4923,"aks":4924,"âĢĿ,":4925,"Ġteeth":4926,"Ġnewsp":4927,"Ġfloor":4928,"Ġjustice":4929,"ictor":4930,"Ġtechnique":4931,"Ġorganic":4932,"Ġreducing":4933,"Ġsupported":4934,"Ġtrials":4935,"ĠColor":4936,"Ġsounds":4937,"Ġelectrical":4938,"ocratic":4939,"Ġprices":4940,"ĠRetrieved":4941,"craft":4942,".'":4943,"cher":4944,"ini":4945,"Ġcore":4946,"ĠMill":4947,"ĠPal":4948,"ĠBen":4949,"ĠDes":4950,"rust":4951,"Ġinform":4952,"Ġoffered":4953,"Ġspecifically":4954,"Ġtrig":4955,"Ġobvious":4956,"Ġ45":4957,"Ġdiscovery":4958,"Ġauthority":4959,"ognitive":4960,"Ġvolume":4961,"Ġprimarily":4962,"Ġsubstant":4963,"Ġinitial":4964,"Ġwatershed":4965,"Ġvillage":4966,"Ġsusp":4967,"ĠMudejar":4968,"Ġprocedures":4969,"Ġsymbol":4970,"ĠVirginia":4971,"'ll":4972,"HO":4973,"II":4974,"Now":4975,"ares":4976,"ault":4977,"jo":4978,"Ġsac":4979,"Ġsick":4980,"Ġwife":4981,"Ġpump":4982,"Ġmo":4983,"stream":4984,"Ġstated":4985,"that":4986,"Ġvast":4987,"Ġhaz":4988,"ĠFood":4989,"Ġspot":4990,"elled":4991,"oster":4992,"Ġperce":4993,"Ġroot":4994,"Ġ35":4995,"Ġ500":4996,"Ġbuy":4997,"Ġtested":4998,"Ġcharge":4999,"Ġlimits":5000,"Ġcausing":5001,"Ġbuildings":5002,"Ġwrong":5003,"Ġchoice":5004,"Ġvegetables":5005,"Ġinsects":5006,"ĠAlexander":5007,"Ġliquid":5008,"cyclop":5009,"39":5010,"CD":5011,"ios":5012,"zer":5013,"Ġcovered":5014,"itud":5015,"Ġfit":5016,"ingly":5017,"Ġdrop":5018,"Ġeast":5019,"ĠTor":5020,"ĠSu":5021,"Ġhearing":5022,"ĠJust":5023,"Ġcluster":5024,"Ġmeat":5025,"Ġuniverse":5026,"Ġteach":5027,"Ġsynd":5028,"Ġknew":5029,"Ġphone":5030,"Ġsurgery":5031,"Ġleader":5032,"Ġeasier":5033,"ĠCommit":5034,"Ġkinds":5035,"Ġemergency":5036,"Ġlinked":5037,"Ġtissue":5038,"Ġschol":5039,"Ġpermanent":5040,"Ġincorpor":5041,"AID":5042,"GO":5043,"pat":5044,"part":5045,"rum":5046,"inter":5047,"Ġpestic":5048,"Ġbed":5049,"Ġdoll":5050,"astern":5051,"Ġhus":5052,"ĠCath":5053,"Ġyellow":5054,"ifies":5055,"ĠBrown":5056,"Ġchief":5057,"ĠOb":5058,"akers":5059,"Ġunderst":5060,"Ġamounts":5061,"Ġassum":5062,"Ġcenturies":5063,"Ġmode":5064,"Ġformal":5065,"ĠWhy":5066,"Ġadvice":5067,"Ġ90":5068,"ĠOrgan":5069,"ĠCarol":5070,"Ġsuggested":5071,"Ġchallenge":5072,"Ġregarding":5073,"Ġcollabor":5074,"Ġhundreds":5075,"ĠMudejars":5076,"Ġmillions":5077,"idelines":5078,",'":5079,"RO":5080,"no":5081,"ses":5082,"ship":5083,"zil":5084,"Ġ:":5085,"Ġcand":5086,"Ġplease":5087,"Ġdat":5088,"Ġeating":5089,"uration":5090,"isted":5091,"estalt":5092,"Ġcontaining":5093,"Ġkm":5094,"Ġclinical":5095,"ensus":5096,"ĠStand":5097,"Ġprice":5098,"Ġremove":5099,"Ġcalls":5100,"iveness":5101,"Ġmotion":5102,"Ġhousehold":5103,"Ġparticipants":5104,"Ġabsor":5105,"Ġhonor":5106,"Ġbegins":5107,"Ġcredit":5108,"Ġdoubt":5109,"49":5110,"78":5111,"Sp":5112,"US":5113,"ball":5114,"cast":5115,"hors":5116,"press":5117,"uing":5118,"Ã§":5119,"Ġtape":5120,"Ġath":5121,"Ġsections":5122,"ishes":5123,"ĠAM":5124,"ĠChe":5125,"ĠMem":5126,"tery":5127,"Ġexternal":5128,"abil":5129,"illing":5130,"osh":5131,"Ġcomment":5132,"Ġsugar":5133,"Ġspl":5134,"oston":5135,"Ġimpossible":5136,"Ġunit":5137,"Ġparties":5138,"Ġ31":5139,"Ġruns":5140,"Ġlisten":5141,"Ġfram":5142,"Ġreligion":5143,"Ġmeasurements":5144,"Ġrecommended":5145,"Ġrelationships":5146,"Ġadopted":5147,"Ġrapidly":5148,"ĠMaryland":5149,"Ġstrategies":5150,"More":5151,"aj":5152,"inf":5153,"erals":5154,"Ġsul":5155,"Ġsalt":5156,"Ġpou":5157,"Ġple":5158,"Ġinact":5159,"rot":5160,"Ġhunt":5161,"Ġrecept":5162,"Ġstim":5163,"ĠMo":5164,"erences":5165,"usal":5166,"ĠDirect":5167,"ĠNav":5168,"Ġship":5169,"berg":5170,"Ġtrad":5171,"Ġdefects":5172,"ĠScient":5173,"Ġallowing":5174,"Ġguide":5175,"Ġantib":5176,"Ġpotentially":5177,"Ġmuscle":5178,"Ġposterior":5179,"Ġconcern":5180,"Ġgrass":5181,"Ġurban":5182,"Ġthousand":5183,"Ġmolecules":5184,"Ġcomponent":5185,"Ġinstitutions":5186,"Ġphenomen":5187,"Ġgyrus":5188,"ĠCommittee":5189,"BI":5190,"nam":5191,"Ġcrisis":5192,"Ġfro":5193,"Ġfisher":5194,"anish":5195,"Ġnarr":5196,"ĠTest":5197,"imize":5198,"essor":5199,"Ġdisk":5200,"Ġcolle":5201,"Ġhelping":5202,"Ġpatent":5203,"Ġboard":5204,"Ġdirected":5205,"clusion":5206,"Ġtopics":5207,"ĠQue":5208,"Ġletter":5209,"Ġcopy":5210,"Ġsurvival":5211,"Ġincreasingly":5212,"Ġmolecular":5213,"Ġhoriz":5214,"Ġtoxicity":5215,"Ġpregnancy":5216,"Ġfemale":5217,"Ġwonder":5218,"Ġappeared":5219,"Ġillegal":5220,"48":5221,"During":5222,"UR":5223,"chers":5224,"iot":5225,"well":5226,"Ġtrou":5227,"atric":5228,"Ġmic":5229,"Ġmouth":5230,"Ġnine":5231,"ĠSum":5232,"ĠCop":5233,"ĠRights":5234,"ĠRober":5235,"Ġnotes":5236,"Ġcontribut":5237,"agers":5238,"Ġotherwise":5239,"Ġjury":5240,"Ġuns":5241,"Ġcenters":5242,"Ġcooper":5243,"Ġparalle":5244,"Ġslaves":5245,"ĠColumb":5246,"Ġhappen":5247,"Ġfunding":5248,"Ġrecognized":5249,"Ġcycle":5250,"Ġselected":5251,"Ġhouses":5252,"Ġpieces":5253,"DT":5254,"Other":5255,"rating":5256,"van":5257,"ye":5258,"Ġtiny":5259,"inent":5260,"Ġther":5261,"Ġwitness":5262,"oral":5263,"Ġinhib":5264,"Ġhur":5265,"ĠSub":5266,"Ġstorm":5267,"ams":5268,"ĠMag":5269,"ods":5270,"Ġves":5271,"ĠRem":5272,"Ġrural":5273,"alls":5274,"ĠUp":5275,"Ġsomewhat":5276,"Ġfacts":5277,"Ġseek":5278,"ĠWhite":5279,"Ġsetting":5280,"ĠSciences":5281,"Ġclassroom":5282,"Ġsaying":5283,"Ġbelief":5284,"Ġimmig":5285,"Ġtypical":5286,"Ġdoctors":5287,"Ġprofession":5288,"Ġchoose":5289,"Ġinjury":5290,"Ġlatest":5291,"Ġconclud":5292,"Ġhorse":5293,"Ġwalls":5294,"ĠRussian":5295,"Ġinnov":5296,"Ġmonitoring":5297,"Ġdrinking":5298,"ĠWindows":5299,"05":5300,"46":5301,"55":5302,"Cl":5303,"bing":5304,"Ġtour":5305,"Ġfell":5306,"anks":5307,"Ġmamm":5308,"Ġnarrow":5309,"Ġnormally":5310,"ĠAut":5311,"tering":5312,"ĠDiv":5313,"ĠRo":5314,"Ġnotice":5315,"Ġplatform":5316,"ĠâĢ¦":5317,"place":5318,"Ġperm":5319,"Ġinferior":5320,"Ġaccur":5321,"ĠCancer":5322,"Ġoperation":5323,"Ġ1980":5324,"Ġfailed":5325,"Ġconcerns":5326,"Ġasthma":5327,"Ġhydrogen":5328,"Ġsequence":5329,"Ġsamples":5330,"Ġborder":5331,"commun":5332,"bial":5333,"Ġ>":5334,"Ġcrim":5335,"Ġbill":5336,"Ġbrief":5337,"Ġmel":5338,"Ġmour":5339,"Ġded":5340,"roph":5341,"step":5342,"olve":5343,"celer":5344,"change":5345,"ĠSuch":5346,"ĠCamb":5347,"oples":5348,"ĠBoston":5349,"osite":5350,"romos":5351,"ĠDef":5352,"ĠFurther":5353,"ĠLab":5354,"ĠJac":5355,"Ġintellig":5356,"ateral":5357,"Ġarsenic":5358,"Ġunless":5359,"Ġagency":5360,"Ġblue":5361,"Ġobtained":5362,"Ġdecisions":5363,"Ġsupposed":5364,"Ġassistance":5365,"Ġmedic":5366,"ĠNews":5367,"Ġmainly":5368,"Ġproperly":5369,"Ġanswers":5370,"Ġdogs":5371,"board":5372,"Ġinstructions":5373,"ĠLatin":5374,"ĠFrancisco":5375,"bachia":5376,"47":5377,"85":5378,"Con":5379,"Our":5380,"coh":5381,"hand":5382,"mas":5383,"mond":5384,"oe":5385,"ras":5386,"wing":5387,"Ġmist":5388,"Ġmale":5389,"iced":5390,"lete":5391,"Ġgold":5392,"Ġstored":5393,"ĠMart":5394,"ĠMET":5395,"ĠBet":5396,"ĠHall":5397,"anta":5398,"Ġshar":5399,"Ġadjust":5400,"Ġunion":5401,"Ġacts":5402,"ĠYet":5403,"Ġamino":5404,"Ġregist":5405,"Ġsurpris":5406,"Ġattacks":5407,"hesis":5408,"Ġbird":5409,"Ġwanted":5410,"ipping":5411,"Ġfishing":5412,"ĠCompany":5413,"Ġreplace":5414,"Ġstraight":5415,"Ġmechanism":5416,"ION":5417,"inet":5418,"Ġmice":5419,"ilit":5420,"ĠSun":5421,"ĠBook":5422,"ĠBoth":5423,"ective":5424,"employ":5425,"ĠRoyal":5426,"Ġchlor":5427,"ĠGal":5428,"ago":5429,"Ġapparent":5430,"Ġoutput":5431,"ĠViet":5432,"Ġconsult":5433,"Ġtransmission":5434,"Ġinstruction":5435,"Ġdepth":5436,"Ġowners":5437,"Ġelectron":5438,"Ġpossibility":5439,"Ġ80":5440,"Ġcareer":5441,"Ġadvoc":5442,"Ġbrown":5443,"Ġissued":5444,"Ġtrust":5445,"Ġradio":5446,"Ġflowers":5447,"Ġstrike":5448,"Ġbehavi":5449,"Ġlaboratory":5450,"Ġtaxes":5451,"Ġassessment":5452,"Ġdecrease":5453,"Ġmanufacture":5454,"Ġstruggle":5455,"Ġexactly":5456,"ioxide":5457,"Ġcontempor":5458,"Ġlandscape":5459,"ĠAcademy":5460,"65":5461,"col":5462,"ivery":5463,"vis":5464,"ville":5465,"with":5466,"indu":5467,"itage":5468,"itors":5469,"Ġpal":5470,"Ġfly":5471,"Ġfasc":5472,"Ġfissure":5473,"Ġdro":5474,"Ġlies":5475,"ĠTer":5476,"ĠSk":5477,"ĠSouthern":5478,"ested":5479,"ĠNative":5480,"ĠNature":5481,"Ġshared":5482,"ĠJose":5483,"Ġdisapp":5484,"Ġroof":5485,"Ġtwenty":5486,"ĠHebre":5487,"Ġ400":5488,"Ġsubsequ":5489,"Ġmedium":5490,"Ġgraph":5491,"ructure":5492,"Ġtreatments":5493,"ĠAnother":5494,"Ġexplore":5495,"Ġgreatly":5496,"Ġrisks":5497,"Ġbreeding":5498,"Ġstarting":5499,"Ġmovements":5500,"Ġlooks":5501,"Ġfamiliar":5502,"Ġsubjects":5503,"Ġinteractions":5504,"ĠConsuls":5505,"Ġlibrary":5506,"Ġtells":5507,"Ġconcentrations":5508,"Ġinjuries":5509,"ĠBrazil":5510,"Ġvehicle":5511,"Ġsurrounding":5512,"Ġfertil":5513,"ĠWolbachia":5514,"Ġmosqu":5515,"ĠHebrew":5516,"DE":5517,"cers":5518,"mail":5519,"point":5520,"rich":5521,"Ġwet":5522,"ndom":5523,"icy":5524,"Ġreject":5525,"ompl":5526,"Ġgrown":5527,"rad":5528,"Ġonto":5529,"ĠImp":5530,"ament":5531,"ĠMr":5532,"ĠPower":5533,"ĠDisc":5534,"ĠNE":5535,"Ġrough":5536,"Ġwealth":5537,"ĠOnce":5538,"ework":5539,"Ġindex":5540,"Ġinvent":5541,"Ġreform":5542,"Ġextensive":5543,"Ġexperiments":5544,"ĠArmy":5545,"Ġauthors":5546,"Ġidentity":5547,"Ġopened":5548,"Ġerr":5549,"Ġresponsibility":5550,"Ġphotos":5551,"Ġkingdom":5552,"Ġslowly":5553,"Ġaspects":5554,"Ġquarter":5555,"75":5556,"98":5557,"Here":5558,"No":5559,"OL":5560,"avery":5561,"field":5562,"ki":5563,"inant":5564,"Ġsin":5565,"Ġsides":5566,"Ġsnow":5567,"Ġpra":5568,"ancing":5569,"Ġtoler":5570,"ĠToday":5571,"olf":5572,"Ġgar":5573,"ĠIll":5574,"ĠHouse":5575,"ĠExt":5576,"ĠJava":5577,"Ġadapt":5578,"Ġclosed":5579,"Ġphr":5580,"Ġphase":5581,"Ġregional":5582,"ooking":5583,"Ġacids":5584,"vironments":5585,"Ġservers":5586,"Ġ130":5587,"cope":5588,"Ġsensitive":5589,"Ġfundamental":5590,"ĠBlack":5591,"Ġprincip":5592,"Ġmagnetic":5593,"aturally":5594,"Ġdangerous":5595,"burg":5596,"Ġcontrolled":5597,"Ġhemisp":5598,"heimer":5599,"Ġvessel":5600,"Ad":5601,"och":5602,"ss":5603,"ta":5604,"rete":5605,"Ġsample":5606,"ita":5607,"Ġpure":5608,"Ġdial":5609,"Ġdrought":5610,"Ġdaughter":5611,"Ġhomes":5612,"ctive":5613,"ston":5614,"omal":5615,"ĠTwo":5616,"Ġgone":5617,"ĠAS":5618,"Ġstock":5619,"irty":5620,"Ġconstit":5621,"Ġitems":5622,"ĠPac":5623,"Ġvo":5624,"ĠDise":5625,"ĠFree":5626,"ĠGulf":5627,"Ġshot":5628,"ogl":5629,"ansion":5630,"ĠOcean":5631,"ruption":5632,"Ġperception":5633,"Ġinfections":5634,"anged":5635,"Ġrace":5636,"Ġraised":5637,"ribed":5638,"Ġexpensive":5639,"Ġinterf":5640,"idential":5641,"Ġdefe":5642,"Ġdepression":5643,"Ġcapable":5644,"Ġgoods":5645,"Ġequival":5646,"Ġrestrict":5647,"Ġhappened":5648,"Ġexistence":5649,"which":5650,"Ġdemonstrated":5651,"ĠValenc":5652,"ĠIslamic":5653,"Ġsustainable":5654,"Ġagricultural":5655,"Ġexcellent":5656,"cyclopedia":5657,"ĠCatholic":5658,"ĠRobert":5659,"'m":5660,"De":5661,"do":5662,"ooth":5663,"such":5664,"Ġ~":5665,"reed":5666,"Ġcoc":5667,"Ġfelt":5668,"Ġhour":5669,"Ġhospital":5670,"Ġthin":5671,"ota":5672,"adel":5673,"ĠMicro":5674,"Ġorb":5675,"ureau":5676,"Ġvul":5677,"ĠRab":5678,"Ġseed":5679,"ĠNGO":5680,"Ġcontam":5681,"agues":5682,"Ġmanif":5683,"Ġunknown":5684,"ĠVictor":5685,"Ġrandom":5686,"Ġproducing":5687,"oviet":5688,"ieties":5689,"Ġattached":5690,"Ġtechnical":5691,"ĠArctic":5692,"Ġpossess":5693,"Ġrecognize":5694,"Ġachieved":5695,"Ġengineering":5696,"Ġdegrees":5697,"ĠSlovak":5698,"Ġmobile":5699,"Ġpretty":5700,"Ġbeautiful":5701,"sembly":5702,"Ġgirls":5703,"Ġfigures":5704,"ĠJonah":5705,"ĠSyncopation":5706,"01":5707,"69":5708,"Americ":5709,"vision":5710,"Ġtro":5711,"Ġtail":5712,"Ġaqu":5713,"inations":5714,"oned":5715,"Ġcos":5716,"Ġnaturally":5717,"Ġgun":5718,"urance":5719,"ĠBul":5720,"ĠHospital":5721,"osal":5722,"ĠDon":5723,"ĠNor":5724,"Ġchosen":5725,"Ġrub":5726,"ortion":5727,"ansas":5728,"Ġmanage":5729,"oved":5730,"Ġwhereas":5731,"Ġextract":5732,"Ġexplained":5733,"Ġclasses":5734,"Ġadvanced":5735,"Ġemployed":5736,"Stud":5737,"Ġfocused":5738,"Ġtowns":5739,"___":5740,"ĠStudents":5741,"Ġmountain":5742,"Ġprecise":5743,"ING":5744,"Ġsatell":5745,"Ġwarming":5746,"Ġvaccine":5747,"Ġphilosophy":5748,"Ã¶n":5749,"*]":5750,"CI":5751,"My":5752,"Sh":5753,"care":5754,"flow":5755,"then":5756,"Ġoption":5757,"itch":5758,"alse":5759,"Ġfle":5760,"Ġfol":5761,"Ġmit":5762,"Ġmail":5763,"Ġtow":5764,"amil":5765,"Ġanth":5766,"ĠPort":5767,"ĠHim":5768,"unch":5769,"orted":5770,"Ġplate":5771,"Ġappoint":5772,"Ġaccompl":5773,"Ġacceler":5774,"Ġflag":5775,"Ġmedial":5776,"Ġdepending":5777,"Ġshel":5778,"Ġ1997":5779,"ĠSpanish":5780,"Ġlooked":5781,"Ġadvance":5782,"ĠTherefore":5783,"Ġdelivery":5784,"Ġwindow":5785,"Ġindicate":5786,"ltry":5787,"ĠManagement":5788,"ĠGuide":5789,"Ġliterature":5790,"Ġcompetition":5791,"Ġfarmers":5792,"Ġmentioned":5793,"Ġdestroyed":5794,"Ġneighbor":5795,"Ġnucleus":5796,"Ġparallel":5797,"cohol":5798,"En":5799,"fe":5800,"gl":5801,"yd":5802,"za":5803,"zen":5804,"Ġ+":5805,"Ġtitle":5806,"Ġax":5807,"Ġsession":5808,"Ġcognitive":5809,"orical":5810,"sex":5811,"Ġgames":5812,"imens":5813,"ĠAT":5814,"Ġfort":5815,"âĢĳ":5816,"Ġstyle":5817,"atever":5818,"erent":5819,"ĠEPA":5820,"ĠNations":5821,"Ġenvironments":5822,"ĠOil":5823,"ĠOld":5824,"Ġcloth":5825,"ĠSte":5826,"Ġpeoples":5827,"Ġblog":5828,"issivity":5829,"Ġsurf":5830,"athy":5831,"Ġremote":5832,"Ġlocations":5833,"Ġrefers":5834,"Ġexplains":5835,"Ġphysics":5836,"Ġbroken":5837,"Ġinvolves":5838,"Ġpaint":5839,"Ġsubstances":5840,"lamm":5841,"Ġseparated":5842,"ĠMinistry":5843,"Ġclosely":5844,"ĠFrank":5845,"ĠValley":5846,"Ġdouble":5847,"Ġregularly":5848,"riptions":5849,"ĠInstead":5850,"Ġvictims":5851,"Ġacademic":5852,"Ġlesb":5853,"90":5854,"AM":5855,"LL":5856,"ael":5857,"iability":5858,"rigation":5859,"ture":5860,"zheimer":5861,"Ġcert":5862,"Ġfold":5863,"Ġdioxide":5864,"Ġnest":5865,"ĠTHE":5866,"Ġgay":5867,"amorph":5868,"ĠMS":5869,"ĠPen":5870,"Ġchick":5871,"ifications":5872,"Ġsubs":5873,"Ġadding":5874,"Ġremark":5875,"Ġcourts":5876,"Ġexplan":5877,"ĠAdminist":5878,"Ġperiods":5879,"Ġbiology":5880,"Another":5881,"Ġprinciple":5882,"Ġintegrated":5883,"ĠPhiladel":5884,"Ġefficiency":5885,"ĠLibrary":5886,"html":5887,"ĠPhiladelph":5888,"PD":5889,"Re":5890,"[*]":5891,"called":5892,"matic":5893,"pen":5894,"taining":5895,"works":5896,"Ġaf":5897,"Ġwire":5898,"Ġpick":5899,"Ġdie":5900,"level":5901,"Ġgall":5902,"ĠAriz":5903,"oting":5904,"irie":5905,"Ġpros":5906,"ĠBat":5907,"abled":5908,"Ġsuc":5909,"ĠEconom":5910,"Ġrid":5911,"Ġabuse":5912,"ĠUt":5913,"Ġdisabilities":5914,"ĠThomas":5915,"inding":5916,"Ġunits":5917,"ĠChr":5918,"ĠStep":5919,"Ġroll":5920,"Ġtraff":5921,"Ġextended":5922,"Ġsky":5923,"Ġgreatest":5924,"Ġoperate":5925,"Ġmarked":5926,"ipped":5927,"Ġastron":5928,"ĠControl":5929,"Ġfluid":5930,"Ġfruits":5931,"Ġindependence":5932,"Ġhomosexual":5933,"Ġroute":5934,"ĠUsing":5935,"Ġrarely":5936,"ĠAtlantic":5937,"Ġsweet":5938,"Ġcircumst":5939,"Ġhazard":5940,"Ġunderstood":5941,"41":5942,"500":5943,"Rec":5944,"den":5945,"ny":5946,"po":5947,"rative":5948,"rint":5949,"Ġiron":5950,"inos":5951,"Ġbones":5952,"ano":5953,"anes":5954,"Ġbeat":5955,"ĠST":5956,"ĠSal":5957,"Ġ(\"":5958,"ĠDist":5959,"ĠWomen":5960,"ĠRad":5961,"ocra":5962,"Ġchurch":5963,"ĠLet":5964,"Ġends":5965,"ogle":5966,"ibilities":5967,"ĠThose":5968,"riculum":5969,"Ġremaining":5970,"Ġgravity":5971,"ĠAlzheimer":5972,"Ġdepends":5973,"Ġcrew":5974,"Ġsolutions":5975,"Ġready":5976,"2012":5977,"Ġnearby":5978,"ĠChristians":5979,"comes":5980,"Ġcomputers":5981,"Ġappearance":5982,"Ġclaimed":5983,"ĠReport":5984,"Ġsituations":5985,"Ġholding":5986,"Ġpredict":5987,"Ġaccepted":5988,"Ġpurposes":5989,"ĠGlobal":5990,"Ġatmospheric":5991,"Ġencourage":5992,"Ġofficers":5993,"Ġtumor":5994,"igenous":5995,"atershed":5996,"Ġhusband":5997,"].":5998,"ga":5999,"gments":6000,"produ":6001,"tra":6002,"inating":6003,"Ġcast":6004,"isters":6005,"Ġbud":6006,"ario":6007,"eters":6008,"ĠSoper":6009,"Ġconqu":6010,"uses":6011,"ĠHG":6012,"Ġsup":6013,"ĠEvery":6014,"Ġselection":6015,"Ġneither":6016,"Ġchapter":6017,"ĠLand":6018,"active":6019,"Ġapprec":6020,"Ġagencies":6021,"luding":6022,"Ġdecade":6023,"Ġindeed":6024,"Ġpolar":6025,"Ġsecure":6026,"Ġcorpus":6027,"venile":6028,"Ġestimate":6029,"Ġpossibly":6030,"Ġlesson":6031,"Ġgenerate":6032,"ĠResources":6033,"Ġelev":6034,"Ġpurs":6035,"Ġkeeping":6036,"Ġexamine":6037,"Ġzero":6038,"Ġconsiderable":6039,"Ġsurvive":6040,"Ġcollected":6041,"Ġbright":6042,"Ġdetailed":6043,"ĠSecond":6044,"Ġpictures":6045,"Ġdiagnosed":6046,"Ġdefinition":6047,"Ġoriginally":6048,"Ġwalking":6049,"Ġmalaria":6050,"stein":6051,"Ġcomprehensive":6052,"Ġpoultry":6053,"ĠJacob":6054,"Ġmedicines":6055,"BN":6056,"Fig":6057,"Figure":6058,"Note":6059,"http":6060,"ij":6061,"kes":6062,"name":6063,"ato":6064,"Ġcrow":6065,"itivity":6066,"Ġbank":6067,"Ġfing":6068,"Ġnone":6069,"Ġbears":6070,"imental":6071,"othe":6072,"eline":6073,"ĠMu":6074,"ĠMiss":6075,"emia":6076,"ĠFre":6077,"resents":6078,"Ġspend":6079,"Ġusage":6080,"aker":6081,"Ġclick":6082,"ĠKar":6083,"Ġrecl":6084,"teb":6085,"Ġaccomp":6086,"arsh":6087,"Ġperspective":6088,"Ġdistrict":6089,"Ġoccasion":6090,"Ġfewer":6091,"Ġdriving":6092,"Ġseemed":6093,"Ġphoto":6094,"Ġreplaced":6095,"Ġconcentration":6096,"Ġdebate":6097,"Ġprepare":6098,"Ġcarrying":6099,"Ġagreement":6100,"Ġvirtual":6101,"Ġethnic":6102,"Ġinstrument":6103,"Ġcereb":6104,"Ġrepeated":6105,"ĠPhiladelphia":6106,"06":6107,"58":6108,"99":6109,"AD":6110,"eper":6111,"how":6112,"know":6113,"Ã³":6114,"Ġtherap":6115,"Ġsell":6116,"Ġsought":6117,"oric":6118,"Ġpull":6119,"Ġfirm":6120,"Ġmath":6121,"ĠSoviet":6122,"Ġanx":6123,"ĠBas":6124,"Ġexists":6125,"osph":6126,"Ġwasn":6127,"unicip":6128,"Ġenforce":6129,"iah":6130,"eck":6131,"agn":6132,"Ġcomposed":6133,"Ġmanaged":6134,"Ġscene":6135,"Ġyourself":6136,"Ġrow":6137,"ĠVill":6138,"Ġdecline":6139,"Ġflat":6140,"Ġartist":6141,"hips":6142,"Ġpercentage":6143,"anguage":6144,"ĠClass":6145,"Ġimmun":6146,"Ġtopic":6147,"Ġdescribes":6148,"ĠAbra":6149,"ĠStudies":6150,"Ġimplemented":6151,"Ġbulbs":6152,"Ġlaunched":6153,"Ġnutri":6154,"Ġcouple":6155,"Ġenhance":6156,"Ġspiritual":6157,"Ġopinion":6158,"Ġathlet":6159,"Ġcriminal":6160,"Ġmosquit":6161,"ĠPacific":6162,":||":6163,"AC":6164,"body":6165,"from":6166,"rus":6167,"ani":6168,"Ġholes":6169,"Ġlose":6170,"Ġnob":6171,"olute":6172,"Ġstable":6173,"Ġstages":6174,"Ġasc":6175,"ĠHome":6176,"ĠEnd":6177,"Ġshop":6178,"ogue":6179,"Ġkil":6180,"Ġcompound":6181,"Ġunus":6182,"Ġunlike":6183,"ĠChic":6184,"Ġprem":6185,"Ġprepar":6186,"phal":6187,"Ġrab":6188,"Ġtwice":6189,"Ġemissivity":6190,"Ġmetab":6191,"Ġfeeding":6192,"Ġsimpl":6193,"theless":6194,"Ġfollows":6195,"ĠArts":6196,"ĠReview":6197,"ĠAnn":6198,"Ġaffects":6199,"Ġrising":6200,"iodiversity":6201,"Ġmatters":6202,"Ġsecondary":6203,"Ġcertainly":6204,"Ġfacility":6205,"Ġaster":6206,"Ġindicated":6207,"Ġjudges":6208,"ictionary":6209,"Ġecosystem":6210,"Ġapart":6211,"Ġelectrons":6212,"Ġcandid":6213,"ĠArizona":6214,".|":6215,"44":6216,"RI":6217,"east":6218,"iary":6219,"inction":6220,"athe":6221,"Ġcamer":6222,"ora":6223,"Ġfill":6224,"Ġinject":6225,"icon":6226,"Ġlik":6227,"Ġbear":6228,"ĠTimes":6229,"irt":6230,"ĠPur":6231,"ĠPri":6232,"ategy":6233,"ĠHand":6234,"ĠData":6235,"ĠDDT":6236,"ĠEc":6237,"ĠFBI":6238,"ĠNol":6239,"ĠLong":6240,"Ġspray":6241,"Ġaband":6242,"ĠUK":6243,"ĠOut":6244,"Ġadequ":6245,"Ġappeal":6246,"ĠStar":6247,"Ġblocks":6248,"tenance":6249,"Ġfeud":6250,"exp":6251,"Ġfounded":6252,"Ġminute":6253,"Ġexplo":6254,"Ġstrategy":6255,"Ġfacilit":6256,"Ġassociation":6257,"Ġresponses":6258,"ĠGeorg":6259,"ĠPoland":6260,"Ġjudge":6261,"Ġmassive":6262,"Ġentirely":6263,"Ġthreatened":6264,"Ġcommitted":6265,"Ġjoined":6266,"Ġdeclared":6267,"ĠPrince":6268,"Ġdiagnosis":6269,"Ġrevealed":6270,"Ġtranslated":6271,"ĠItalian":6272,"warf":6273,"Ġventricle":6274,"Ġsyndrome":6275,"Ġequivalent":6276,"EE":6277,"gov":6278,"mic":6279,"wa":6280,"ype":6281,"esis":6282,"Ġwel":6283,"Ġfed":6284,"Ġmuseum":6285,"outs":6286,"Ġdiversity":6287,"Ġlobe":6288,"ĠCa":6289,"ulpt":6290,"ĠPot":6291,"Ġalcohol":6292,"iest":6293,"ĠDel":6294,"Ġneur":6295,"ĠGroup":6296,"Ġkit":6297,"ĠThrough":6298,"Ġpreced":6299,"Ġrecovery":6300,"Ġoverl":6301,"Ġexpansion":6302,"Ġmetal":6303,"Ġdefend":6304,"Ġsigned":6305,"Ġ75":6306,"ditional":6307,"Ġengaged":6308,"Ġlisted":6309,"Ġdeliver":6310,"Ġzone":6311,"Ġkilling":6312,"Ġfrequent":6313,"Ġhydro":6314,"ĠJapanese":6315,"Ġsoldiers":6316,"Ġagriculture":6317,"ĠGoogle":6318,"ĠRevolution":6319,"Ġcontemporary":6320,"76":6321,"Ind":6322,"National":6323,"een":6324,"ko":6325,"making":6326,"rite":6327,"Ġtal":6328,"atch":6329,"Ġwish":6330,"asks":6331,"Ġthalam":6332,"Ġlas":6333,"cel":6334,"utive":6335,"ĠAp":6336,"ĠAz":6337,"otland":6338,"ĠSand":6339,"iva":6340,"ĠWatershed":6341,"ĠGood":6342,"Ġenem":6343,"earchers":6344,"Ġplas":6345,"Ġresolution":6346,"Ġresidents":6347,"Ġpermit":6348,"Ġunions":6349,"Ġunemploy":6350,"Ġoutcome":6351,"ĠStat":6352,"Ġaggress":6353,"Ġraw":6354,"Ġcolumn":6355,"Ġrelation":6356,"Ġacres":6357,"everal":6358,"Ġmeters":6359,"example":6360,"Ġmedications":6361,"Ġworldwide":6362,"Ġdepos":6363,"ometimes":6364,"Ġelectronic":6365,"Ġleads":6366,"ĠSpain":6367,"ĠConn":6368,"azi":6369,"Ġpainting":6370,"Ġreceiving":6371,"Ġfilm":6372,"Ġwatch":6373,"Ġinteraction":6374,"Ġwildlife":6375,"aska":6376,"Ġirrigation":6377,"Ġmountains":6378,"ĠOsage":6379,"Ġweapons":6380,"Ġcloser":6381,"Ġmoist":6382,"Ġdatab":6383,"ĠColumbia":6384,"Ġvulner":6385,"Ġmanifest":6386,"77":6387,"Cont":6388,"Do":6389,"cd":6390,"cies":6391,"normal":6392,"zed":6393,"reated":6394,"Ġcart":6395,"Ġcats":6396,"organ":6397,"iti":6398,"Ġmac":6399,"Ġmort":6400,"Ġhun":6401,"state":6402,"stone":6403,"oln":6404,"idem":6405,"oto":6406,"ĠIN":6407,"ĠId":6408,"amily":6409,"Ġcomments":6410,"estone":6411,"Ġworse":6412,"Ġplastic":6413,"ĠOx":6414,"plant":6415,"arents":6416,"Ġarms":6417,"Ġunp":6418,"ĠKen":6419,"Ġoutl":6420,"teen":6421,"Ġrepresents":6422,"Ġregulations":6423,"ucose":6424,"Ġtransform":6425,"Ġextend":6426,"Ġartists":6427,"Ġexperiences":6428,"Ġpatch":6429,"Ġparam":6430,"Ġelected":6431,"Ġcourses":6432,"Ġgenerations":6433,"incoln":6434,"Ġguidelines":6435,"azine":6436,"Ġopposite":6437,"Ġinvolving":6438,"Ġspeaking":6439,"Ġsuccessfully":6440,"ippoc":6441,"Ġyounger":6442,"Ġsentence":6443,"Ġintroduction":6444,"ĠÂ·":6445,"Ġstarts":6446,"ĠParty":6447,"ĠParis":6448,"Ġelsewhere":6449,"Ġawareness":6450,"Ġsandy":6451,"Ġtouch":6452,"Ġconventional":6453,"ĠWildlife":6454,"Ġframework":6455,"Ġsucceed":6456,"'.":6457,"88":6458,"MO":6459,"Sub":6460,"born":6461,"fit":6462,"pread":6463,"run":6464,"oning":6465,"atis":6466,"Ġwid":6467,"Ġwave":6468,"lets":6469,"Ġlin":6470,"ĠAgency":6471,"Ġstret":6472,"Ġorbit":6473,"ifts":6474,"Ġalg":6475,"ĠBÃ¶n":6476,"essions":6477,"ĠLiter":6478,"ĠOF":6479,"Ġoutbre":6480,"Ġscan":6481,"Ġrecip":6482,"Ġ36":6483,"Ġinterview":6484,"Ġflight":6485,"Ġfoundation":6486,"idespread":6487,"Ġ1994":6488,"Ġafford":6489,"Ġengines":6490,"Ġopposition":6491,"ĠOnly":6492,"Ġcriteria":6493,"Ġerror":6494,"Ġfeeling":6495,"Ġcounsel":6496,"Ġbusinesses":6497,"Ġburning":6498,"Ġmechanical":6499,"Ġcommittee":6500,"ĠSecurity":6501,"Ġrotor":6502,"Ġordinary":6503,"ĠItaly":6504,"Ġempire":6505,"ĠProvince":6506,"ĠNetwork":6507,"Ġsaved":6508,"ĠColorado":6509,"ĠMiller":6510,"American":6511,"ocracy":6512,"02":6513,"?\"":6514,"CP":6515,"ao":6516,"gs":6517,"ka":6518,"tic":6519,"tion":6520,"uation":6521,"Ġtaste":6522,"Ġtheories":6523,"Ġwaves":6524,"Ġpounds":6525,"Ġdream":6526,"Ġhorm":6527,"ĠMac":6528,"Ġyield":6529,"ĠBru":6530,"ĠHel":6531,"Ġheel":6532,"emet":6533,"Ġsuitable":6534,"Ġchann":6535,"ĠLar":6536,"Ġenable":6537,"Ġages":6538,"Ġcentre":6539,"Ġlearner":6540,"Ġ1996":6541,"Ġvisible":6542,"Ġequally":6543,"Ġideal":6544,"Ġlabel":6545,"Ġhyper":6546,"Ġstrongly":6547,"Ġinteractive":6548,"Ġfluor":6549,"Ġ1970":6550,"Ġconcentrate":6551,"Ġimplementation":6552,"Ġvisitors":6553,"Ġtalking":6554,"ĠSmith":6555,"dden":6556,"Ġleadership":6557,"ĠProtection":6558,"Ġargument":6559,"ĠPMID":6560,"Ġbreathing":6561,"Ġscheme":6562,"ĠProfessor":6563,"Ġescape":6564,"Ġmerely":6565,"itudes":6566,"Ġscholars":6567,"communications":6568,"Last":6569,"RC":6570,"SU":6571,"gu":6572,"Ġâ":6573,"Ġtunn":6574,"Ġaward":6575,"Ġwage":6576,"itime":6577,"itative":6578,"Ġbru":6579,"Ġflex":6580,"Ġmild":6581,"Ġdwarf":6582,"asure":6583,"Ġrein":6584,"Ġlots":6585,"olit":6586,"Ġgap":6587,"ĠAst":6588,"Ġforget":6589,"ĠCur":6590,"ĠCub":6591,"iger":6592,"igor":6593,"ĠMah":6594,"ĠPan":6595,"ĠPenn":6596,"ĠBir":6597,"Ġheating":6598,"ĠEth":6599,"Ġneu":6600,"ĠLincoln":6601,"Ġkin":6602,"Ġreserved":6603,"Ġarts":6604,"ressive":6605,"Ġinflamm":6606,"ensions":6607,"Ġsched":6608,"Ġsculpt":6609,"Ġagreed":6610,"Ġproved":6611,"oven":6612,"Ġpoison":6613,"Ġinterface":6614,"Ġgray":6615,"Ġcommunicate":6616,"Ġvalid":6617,"Why":6618,"Ġcarefully":6619,"ĠConvention":6620,"Ġscientist":6621,"Ġopposed":6622,"Ġseconds":6623,"Ġpolitics":6624,"Ġdriven":6625,"Ġturns":6626,"Ġemployees":6627,"Ġinvestigation":6628,"Ġargue":6629,"Ġregarded":6630,"ĠAgricult":6631,"Ġevaluation":6632,"rastructure":6633,"Ġnutrition":6634,"Ġquantum":6635,"Ġprocedure":6636,"hyd":6637,"Ġconstructed":6638,"Ġgranted":6639,"Ġderived":6640,"Ġcrops":6641,"Ġpowers":6642,"Ġdollars":6643,"usalem":6644,"ĠDirector":6645,"ĠDivision":6646,"ĠJoseph":6647,"Ġasteroid":6648,"emetery":6649,"EC":6650,"SS":6651,"Since":6652,"bel":6653,"comp":6654,"free":6655,"lig":6656,"mes":6657,"pet":6658,"heast":6659,"atal":6660,"Ġfilled":6661,"Ġfalse":6662,"ĠTim":6663,"ĠTri":6664,"ĠTib":6665,"Ġgender":6666,"uty":6667,"child":6668,"ĠCle":6669,"vert":6670,"uled":6671,"Ġprosec":6672,"ĠBureau":6673,"umes":6674,"umul":6675,"esthetic":6676,"ivest":6677,"ivated":6678,"ĠRay":6679,"ĠNation":6680,"peror":6681,"ipital":6682,"Ġcomposition":6683,"Ġprev":6684,"ĠStation":6685,"Ġrecy":6686,"Ġpeak":6687,"Ġagents":6688,"erves":6689,"Ġunderlying":6690,"ificial":6691,"Ġrelief":6692,"Ġchildhood":6693,"Ġobtain":6694,"Ġsurve":6695,"Ġmetamorph":6696,"Ġearn":6697,"Ġforming":6698,"Ġgrade":6699,"Ġdefic":6700,"Ġdistributed":6701,"Ġdistingu":6702,"Ġmyth":6703,"Ġredund":6704,"Ġgenerated":6705,"Ġsupporting":6706,"tto":6707,"Ġhandle":6708,"Ġlaid":6709,"Ġdipl":6710,"ĠAbout":6711,"Ġdestruction":6712,"Ġhistoric":6713,"Ġabsolute":6714,"Ġmixed":6715,"Ġdecreased":6716,"Ġnegotiations":6717,"Ġfixed":6718,"Ġconsequences":6719,"specific":6720,"ĠLearning":6721,"Ġcolleagues":6722,"ĠValencia":6723,"Ġtroops":6724,"Ġcircumstances":6725,"ĠGeorgia":6726,"61":6727,"EM":6728,"First":6729,"IA":6730,"Se":6731,"aud":6732,"best":6733,"mad":6734,"xts":6735,"Ġ)":6736,"Ġtrop":6737,"rep":6738,"atically":6739,"Ġcited":6740,"Ġwants":6741,"Ġpond":6742,"Ġpapers":6743,"arant":6744,"Ġly":6745,"ĠTime":6746,"ola":6747,"Ġgy":6748,"idance":6749,"uts":6750,"ĠAP":6751,"Ġongoing":6752,"ĠMer":6753,"ĠMont":6754,"ĠBi":6755,"ĠHol":6756,"Ġsudden":6757,"ĠDespite":6758,"ĠNorthern":6759,"ĠLow":6760,"Ġintake":6761,"Ġdoi":6762,"Ġrose":6763,"Ġamb":6764,"ietal":6765,"Ġattend":6766,"rows":6767,"Ġassigned":6768,"Ġshell":6769,"Ġ1992":6770,"Ġconfir":6771,"Ġrestoration":6772,"Ġpassing":6773,"Ġmarkets":6774,"ĠCommon":6775,"Ġemployers":6776,"Ġsignificance":6777,"Ġera":6778,"while":6779,"Ġrepresented":6780,"Ġphotograph":6781,"Ġrecognition":6782,"Ġepidem":6783,"Ġsatis":6784,"Ġecological":6785,"ĠMetis":6786,"Ġtribes":6787,"Ġemphasis":6788,"Ġfairly":6789,"ĠAND":6790,"Ġcorresponding":6791,"gregation":6792,"Ġdynamic":6793,"Ġsulcus":6794,"66":6795,"BC":6796,"Pl":6797,"gent":6798,"rine":6799,"Ġtor":6800,"herent":6801,"Ġpor":6802,"edu":6803,"Ġmand":6804,"icks":6805,"Ġlists":6806,"ĠTop":6807,"Ġstrict":6808,"Ġprove":6809,"ĠPost":6810,"Ġexem":6811,"abul":6812,"Ġvoc":6813,"ĠDen":6814,"ĠWik":6815,"ĠRom":6816,"ĠGold":6817,"Ġimper":6818,"Ġcompris":6819,"soft":6820,"Ġclust":6821,"Ġarray":6822,"ĠStreet":6823,"ailed":6824,"Ġraise":6825,"Ġproduces":6826,"Ġpoet":6827,"Ġsupports":6828,"Ġhelpful":6829,"Ġmodified":6830,"Ġtransition":6831,"Ġgrains":6832,"Ġbackup":6833,"Ġdepartment":6834,"Ġsets":6835,"Ġcurriculum":6836,"Ġprotected":6837,"Ġtemple":6838,"Ġdescend":6839,"Ġpressures":6840,"rison":6841,"ĠEngine":6842,"bean":6843,"Ġnecessarily":6844,"Ġdifficulty":6845,"Ġsensitivity":6846,"Ġfrontal":6847,"Ġcontainers":6848,"Ġmechanisms":6849,"ĠBooks":6850,"Ġestimates":6851,"Ġjurors":6852,"ĠServer":6853,"Ġbranches":6854,"Ġcomparison":6855,"Ġpurchase":6856,"ĠJerusalem":6857,"Ġvitamin":6858,"Ġterritory":6859,"Ġgravels":6860,"Ġnitrogen":6861,"Ġhunting":6862,"Ġhorizont":6863,"Ġprincipal":6864,"ippocamp":6865,"71":6866,"74":6867,"Bl":6868,"iy":6869,"liam":6870,"uan":6871,"zym":6872,"ĠÎ":6873,"inic":6874,"Ġpig":6875,"Ġpark":6876,"Ġpool":6877,"Ġbot":6878,"Ġbag":6879,"asters":6880,"ĠTr":6881,"ĠAtt":6882,"urb":6883,"Ġforth":6884,"ĠMel":6885,"ĠPeter":6886,"Ġdegra":6887,"rier":6888,"ĠDown":6889,"ĠWell":6890,"Ġleaf":6891,"ĠLike":6892,"aph":6893,"Ġabund":6894,"Ġplain":6895,"Ġdisaster":6896,"Ġbutter":6897,"ĠKansas":6898,"Ġsole":6899,"iana":6900,"Ġthereby":6901,"ricts":6902,"Ġ32":6903,"Ġconscious":6904,"Ġpresents":6905,"ĠAsian":6906,"Ġdefine":6907,"ĠHoward":6908,"Ġstudying":6909,"Ġglucose":6910,"Ġvalu":6911,"Ġcareful":6912,"Ġengage":6913,"Ġopening":6914,"Ġimproving":6915,"Ġtruly":6916,"ĠExpl":6917,"ĠEarly":6918,"Ġzones":6919,"Ġgrew":6920,"Ġparticipation":6921,"ĠMoreover":6922,"Ġcrime":6923,"Ġconcrete":6924,"ĠGrand":6925,"Ġcalcium":6926,"Ġsuspect":6927,"ĠGreece":6928,"Ġtribe":6929,"Ġangle":6930,"Ġtransportation":6931,"Ġcoastal":6932,"Ġbranch":6933,"Ġmerch":6934,"Ġnewspaper":6935,"Ġperceived":6936,"ĠCarolina":6937,"Ġreceptor":6938,"oglob":6939,"Ġsurfaces":6940,"ĠAdministration":6941,"Ġhazardous":6942,"ĠChicago":6943,"59":6944,"ca":6945,"eenth":6946,"fall":6947,"last":6948,"under":6949,"Ġid":6950,"Ġtips":6951,"hea":6952,"inates":6953,"Ġcars":6954,"Ġft":6955,"arity":6956,"leg":6957,"Ġlie":6958,"Ġloyal":6959,"omed":6960,"imicro":6961,"uter":6962,"etime":6963,"ĠAff":6964,"Ġstands":6965,"Ġstreet":6966,"aying":6967,"add":6968,"Ġaren":6969,"ĠPub":6970,"ĠBell":6971,"Ġhepat":6972,"Ġvital":6973,"ĠDi":6974,"ĠEff":6975,"Ġrank":6976,"ĠLos":6977,"Ġcann":6978,"Ġenlar":6979,"Ġpermission":6980,"Ġjour":6981,"ĠKn":6982,"enses":6983,"bert":6984,"Ġtract":6985,"pha":6986,"weight":6987,"erted":6988,"Ġformat":6989,"hemical":6990,"Ġlawy":6991,"Ġboys":6992,"Ġmaintenance":6993,"mann":6994,"ditionally":6995,"ĠEncyclopedia":6996,"Ġplaying":6997,"Ġputting":6998,"2008":6999,"ĠPolit":7000,"Ġobservations":7001,"Ġparticipate":7002,"Ġcovers":7003,"Ġcovering":7004,"ĠMinister":7005,"ourage":7006,"Ġabsence":7007,"ĠÂ©":7008,"ĠCoast":7009,"Ġbullying":7010,"Ġsoul":7011,"Ġconsistent":7012,"Ġordered":7013,"ĠISBN":7014,"Ġmanufacturing":7015,"Ġadministration":7016,"Ġcooling":7017,"ĠGrass":7018,"Ġtemporal":7019,"Ġsettlement":7020,"Ġmathematics":7021,"ĠRichard":7022,"Ġpesticides":7023,"Ġhemisphere":7024,"Ġreclaimed":7025,"Ġneurons":7026,"liament":7027,"EO":7028,"aired":7029,"hus":7030,"spe":7031,"tes":7032,"ugg":7033,"inn":7034,"Ġpil":7035,"Ġhippocamp":7036,"Ġlob":7037,"oline":7038,"ceans":7039,"raction":7040,"uting":7041,"ĠSection":7042,"ĠIr":7043,"amar":7044,"ĠMap":7045,"ĠMark":7046,"Ġwhatever":7047,"ĠPract":7048,"ĠBible":7049,"ĠBuild":7050,"ĠRen":7051,"Ġdism":7052,"Ġcontained":7053,"Ġwilling":7054,"Ġinfrastructure":7055,"Ġtheme":7056,"Ġrocks":7057,"Ġconserv":7058,"Ġassist":7059,"Ġdiscipl":7060,"Ġgrazing":7061,"Ġsmooth":7062,"Ġplanned":7063,"Ġedition":7064,"Ġsignal":7065,"Ġentered":7066,"Ġfourth":7067,"Ġpositions":7068,"ĠQual":7069,"Ġvolt":7070,"Ġoptical":7071,"Ġfunds":7072,"Ġindicates":7073,"ENT":7074,"Ġpregnant":7075,"ĠSurvey":7076,"Ġphysician":7077,"Ġupdated":7078,"Ġinitiative":7079,"Ġmourning":7080,"ĠFurthermore":7081,"Ġphrase":7082,"Ġsatellite":7083,"Ġbudget":7084,"unicipal":7085,"Ġunusual":7086,"Ġvaluable":7087,"04":7088,"Add":7089,"Dr":7090,"EP":7091,"Even":7092,"Im":7093,"car":7094,"Ġsan":7095,"Ġsands":7096,"orrow":7097,"itals":7098,"Ġbin":7099,"anium":7100,"Ġhidden":7101,"Ġreven":7102,"Ġliver":7103,"ĠTw":7104,"rape":7105,"ette":7106,"ĠAir":7107,"ĠCreat":7108,"ĠIra":7109,"Ġorient":7110,"ĠHP":7111,"istent":7112,"Ġvote":7113,"ĠRock":7114,"ĠFigure":7115,"Ġintense":7116,"ĠObs":7117,"pling":7118,"ustain":7119,"ĠKnow":7120,"Ġrecording":7121,"Ġrac":7122,"Ġaccounts":7123,"Ġpharm":7124,"Ġassume":7125,"Ġflo":7126,"Ġinstalled":7127,"Ġexperimental":7128,"Ġknows":7129,"Ġrequest":7130,"Ġ600":7131,"roscop":7132,"Ġapproved":7133,"ometer":7134,"Ġguarant":7135,"Ġoccurring":7136,"Ġstructural":7137,"Ġprevention":7138,"Ġencry":7139,"Ġinfluenced":7140,"Ġprotective":7141,"Ġrivers":7142,"Ġdemonstrate":7143,"Ġattempts":7144,"Ġvillages":7145,"Ġforests":7146,"ediatric":7147,"Ġultimately":7148,"ĠSolar":7149,"Ġarrived":7150,"ĠMichael":7151,"ĠForest":7152,"Ġsplit":7153,"Ġsharp":7154,"Ġdatabase":7155,"',":7156,"Int":7157,"Read":7158,"Us":7159,"fortunately":7160,"pes":7161,"uy":7162,"Ġwidespread":7163,"orr":7164,"aly":7165,"Ġbow":7166,"aning":7167,"Ġmol":7168,"oul":7169,"lements":7170,"Ġthor":7171,"ima":7172,"rain":7173,"ĠCA":7174,"Ġalive":7175,"using":7176,"ĠBank":7177,"ĠHom":7178,"ĠHoly":7179,"Ġsport":7180,"Ġspok":7181,"Ġcontribute":7182,"ĠChapter":7183,"Ġtrain":7184,"Ġram":7185,"Ġdevelopments":7186,"Ġregul":7187,"Ġdeck":7188,"fulness":7189,"Ġassign":7190,"Ġknowing":7191,"Ġinsulin":7192,"Ġtreating":7193,"Ġelections":7194,"ĠSpring":7195,"Ġcharged":7196,"Ġoldest":7197,"Ġcultures":7198,"Ġmuscles":7199,"Ġhardware":7200,"Ġconnections":7201,"ĠLeon":7202,"Ġrepresentative":7203,"ĠCDs":7204,"Ġbiggest":7205,"Ġepis":7206,"Ġgardens":7207,"Ġgreenhouse":7208,"Ġmixture":7209,"Ġcomplicated":7210,"Ġsuffer":7211,"ĠArabic":7212,"Ġscreening":7213,"Ġaims":7214,"Ġprisoners":7215,"Ġranging":7216,"Ġarrested":7217,"ĠSenate":7218,"ĠDesign":7219,"ĠOrganization":7220,"Ġinactivation":7221,"imicrobial":7222,"'d":7223,"03":7224,"800":7225,"Ed":7226,"gans":7227,"host":7228,"ihood":7229,"nom":7230,"uar":7231,"Ġ#":7232,"Ġtall":7233,"inces":7234,"rection":7235,"Ġsight":7236,"Ġcort":7237,"Ġcaught":7238,"itt":7239,"Ġped":7240,"Ġbio":7241,"icide":7242,"Ġholid":7243,"ilateral":7244,"Ġluck":7245,"Ġgather":7246,"Ġgym":7247,"ĠCamp":7248,"Ġstre":7249,"eling":7250,"aded":7251,"ĠMake":7252,"ĠPsych":7253,"thrit":7254,"Ġdeeper":7255,"ĠBal":7256,"ĠBur":7257,"ĠHo":7258,"ums":7259,"ĠEU":7260,"ĠRoss":7261,"Ġneut":7262,"ĠNava":7263,"rous":7264,"ella":7265,"Ġdoor":7266,"Ġarr":7267,"ĠThough":7268,"ulty":7269,"Ġapplet":7270,"ails":7271,"ĠVen":7272,"phone":7273,"erman":7274,"Ġindigenous":7275,"Ġcounties":7276,"Ġdistant":7277,"Ġdownload":7278,"ĠAny":7279,"ringe":7280,"Ġreaders":7281,"Ġglass":7282,"Ġstanding":7283,"Ġveter":7284,"roduction":7285,"Ġprompt":7286,"Ġobser":7287,"Ġexamined":7288,"Ġhappy":7289,"Ġflower":7290,"Ġmoves":7291,"Ġcopyright":7292,"____":7293,"Ġintegration":7294,"Ġvegetation":7295,"Ġwavel":7296,"Ġroutine":7297,"hyth":7298,"Ġexpanded":7299,"ĠConference":7300,"Ġeliminate":7301,"Ġrenewable":7302,"Ġratio":7303,"Ġinhabit":7304,"Ġtrouble":7305,"Ġlesbian":7306,"ĠTibet":7307,"bestos":7308,"\")":7309,"79":7310,"Def":7311,"FIG":7312,"May":7313,"kins":7314,"Ġtasks":7315,"Ġsod":7316,"Ġwear":7317,"Ġdust":7318,"Ġdensity":7319,"Ġlake":7320,"Ġnan":7321,"Ġnodes":7322,"Ġbeings":7323,"Ġislands":7324,"raph":7325,"cho":7326,"ĠSud":7327,"ĠSup":7328,"âĢĺ":7329,"ulus":7330,"Ġexception":7331,"about":7332,"abric":7333,"Ġvan":7334,"ĠDet":7335,"ĠEqu":7336,"ĠFour":7337,"Ġran":7338,"Ġworship":7339,"Ġplus":7340,"ĠOpen":7341,"Ġadap":7342,"Ġresid":7343,"Ġunable":7344,"Ġuncon":7345,"Ġoutcomes":7346,"Ġpreval":7347,"anging":7348,"Ġ34":7349,"Ġundert":7350,"Ġpoem":7351,"Ġinvention":7352,"Ġintervention":7353,"Ġ65":7354,"Ġoccas":7355,"Ġcorrel":7356,"Ġsheep":7357,"Ġ1993":7358,"ĠScotland":7359,"ĠIndians":7360,"Ġexplicit":7361,"Ġrestore":7362,"ercury":7363,"Ġbrand":7364,"Ġanalog":7365,"ĠExper":7366,"Ġpreventing":7367,"Ġhappening":7368,"Ġmulti":7369,"Ġbeneficial":7370,"Ġcharacterized":7371,"Ġprotecting":7372,"Ġcreates":7373,"Ġdivision":7374,"ĠSecret":7375,"ĠPhilosoph":7376,"Ġembry":7377,"Ġimaging":7378,"Ġmachines":7379,"Ġsyncopation":7380,"ĠEgyptian":7381,"Ġharmful":7382,"ĠModern":7383,"ĠDarwin":7384,"ĠHungarian":7385,"Ġtomatoes":7386,"About":7387,"Ġlungs":7388,"Ġaccurate":7389,"Ġdedicated":7390,"Ġfertiliz":7391,"Ġprairie":7392,"ĠDisease":7393,"Ġrestrictions":7394,"athered":7395,"100":7396,"73":7397,"Cons":7398,"Comp":7399,"Jan":7400,"John":7401,"UT":7402,"lot":7403,"vin":7404,"Ġtank":7405,"Ġod":7406,"Ġsessions":7407,"esides":7408,"ediate":7409,"Ġmaster":7410,"Ġdiver":7411,"cture":7412,"Ġeld":7413,"ilation":7414,"Ġbell":7415,"ĠTitle":7416,"sey":7417,"rac":7418,"ether":7419,"ĠAD":7420,"ĠIV":7421,"Ġconclusion":7422,"ading":7423,"ĠMult":7424,"teries":7425,"eren":7426,"osion":7427,"acing":7428,"ĠRome":7429,"ĠFair":7430,"ĠNi":7431,"Ġchain":7432,"Ġru":7433,"Ġenzym":7434,"Ġspons":7435,"ĠOS":7436,"Ġinches":7437,"Ġpermitted":7438,"Ġscript":7439,"ube":7440,"Ġroots":7441,"ributes":7442,"Ġcalling":7443,"Ġrefuge":7444,"Ġdefense":7445,"Ġedge":7446,"Ġminerals":7447,"Ġcorruption":7448,"Ġentry":7449,"ĠIsa":7450,"Ġthoughts":7451,"Ġcontrols":7452,"Ġguidance":7453,"Ġ150":7454,"Ġlimestone":7455,"Ġplanted":7456,"syl":7457,"Ġchest":7458,"2004":7459,"ĠAbd":7460,"Ġfraction":7461,"IDS":7462,"Ġdominant":7463,"ĠKingdom":7464,"Ġconsumers":7465,"Ġessentially":7466,"Ġjudicial":7467,"Ġdiagram":7468,"ĠAmong":7469,"Ġexercises":7470,"ascular":7471,"ĠStudy":7472,"Ġcommitment":7473,"Ġlicense":7474,"Ġdefinite":7475,"Ġlifetime":7476,"ĠMountains":7477,"ĠSpecial":7478,"Ġcrucial":7479,"Teacher":7480,"Ġinherit":7481,"Ġalleged":7482,"Ġgalaxy":7483,"Ġisolated":7484,"Ġpreferred":7485,"Ġsubstantial":7486,"Ġnarrative":7487,"Ġthermal":7488,"Ġprofessionals":7489,"Ġsubsequent":7490,"ĠSlovakia":7491,"rapeut":7492,"ĠIraq":7493,"ĠSupreme":7494,"43":7495,"Can":7496,"EF":7497,"Pe":7498,"brid":7499,"cul":7500,"net":7501,"new":7502,"rey":7503,"Ġsons":7504,"itz":7505,"ittle":7506,"Ġbath":7507,"Ġbibl":7508,"Ġmoon":7509,"ican":7510,"Ġreef":7511,"ĠTem":7512,"olt":7513,"oler":7514,"Ġgained":7515,"ĠAccess":7516,"ĠClick":7517,"irit":7518,"Ġconclus":7519,"adow":7520,"ĠPt":7521,"ĠPlease":7522,"ĠBill":7523,"ivered":7524,"ĠDictionary":7525,"ĠEst":7526,"Ġchart":7527,"Ġchromos":7528,"Ġrice":7529,"Ġabd":7530,"ells":7531,"Ġintensity":7532,"Ġincent":7533,"Ġclock":7534,"Ġarrange":7535,"Ġtexts":7536,"Ġrecess":7537,"oking":7538,"Ġquiet":7539,"ĠVer":7540,"ĠVis":7541,"Ġgenetics":7542,"teenth":7543,"Ġcolour":7544,"Ġreliable":7545,"ribe":7546,"Ġacknow":7547,"rowing":7548,"Ġpreserve":7549,"ĠAsk":7550,"Ġeffectiveness":7551,"Ġdetected":7552,"Ġcommunications":7553,"ollowing":7554,"Ġdistricts":7555,"ounter":7556,"Ġvariable":7557,"Ġdesigns":7558,"Ġconfig":7559,"Ġclassified":7560,"Ġmarried":7561,"Ġdrives":7562,"Ġ1982":7563,"ĠLevel":7564,"prise":7565,"Ġrepresentatives":7566,"elfare":7567,"ĠUSB":7568,"Ġstopped":7569,"Ġreflected":7570,"Ġsuffered":7571,"Ġwait":7572,"Ġoccupied":7573,"Ġbegun":7574,"uracy":7575,"Ġconstantly":7576,"Ġfighting":7577,"Ġimplications":7578,"Ġsettled":7579,"Ġsenior":7580,"Ġannounced":7581,"Ġarchitecture":7582,"ĠStandard":7583,"Ġphenomenon":7584,"abulary":7585,"sylvan":7586,"95":7587,"cons":7588,"eur":7589,"rd":7590,"rin":7591,"uels":7592,"western":7593,"Ġ<":7594,"Ġ?":7595,"only":7596,"esh":7597,"oust":7598,"Ġdiverse":7599,"leys":7600,"asp":7601,"olar":7602,"Ġgiant":7603,"ĠSar":7604,"ĠSund":7605,"ĠCP":7606,"ĠIT":7607,"Ġstuff":7608,"amber":7609,"elve":7610,"ĠPs":7611,"osum":7612,"Ġhero":7613,"Ġcomfort":7614,"achers":7615,"aints":7616,"ĠDu":7617,"Ġseat":7618,"Ġseeds":7619,"Ġneuro":7620,"Ġsharing":7621,"Ġshift":7622,"ĠJr":7623,"ĠOk":7624,"Ġincl":7625,"Ġuniform":7626,"Ġsoy":7627,"iano":7628,"Ġthanks":7629,"Ġknee":7630,"Ġartificial":7631,"Ġminister":7632,"Ġminimize":7633,"Ġfinds":7634,"ĠScott":7635,"Ġreduces":7636,"Ġ800":7637,"Ġvisc":7638,"Ġdirections":7639,"Ġpublication":7640,"Ġhandling":7641,"Ġpassage":7642,"Ġimmediate":7643,"ograp":7644,"Ġviewed":7645,"Ġdelay":7646,"Ġnetworks":7647,"Ġdifficulties":7648,"Ġgasoline":7649,"Ġcattle":7650,"cellosis":7651,"Ġevolutionists":7652,"Ġalternatives":7653,"Ġheavily":7654,"Ġhabitats":7655,"Ġmagnet":7656,"Ġstrengthen":7657,"Ġjoin":7658,"ĠPrevention":7659,"Ġencouraged":7660,"Ġfeedback":7661,"Ġinstitution":7662,"Ġvirtually":7663,"Ġhypot":7664,"Ġconversion":7665,"Ġexcessive":7666,"Ġsongs":7667,"charge":7668,"Ġemotional":7669,"Ġeggs":7670,"Ġjuvenile":7671,"ĠNavy":7672,"Ġfisheries":7673,"Ġvoice":7674,"ĠNGOs":7675,"ĠUtah":7676,"Ġcerebral":7677,"Ġanxiety":7678,"Ġvulnerable":7679,"Ġwavelength":7680,"86":7681,"CV":7682,"Cop":7683,"MA":7684,"Of":7685,"Over":7686,"SP":7687,"bar":7688,"but":7689,"fts":7690,"foot":7691,"top":7692,"wan":7693,"Ġ*":7694,"Ġaer":7695,"real":7696,"esity":7697,"orter":7698,"itled":7699,"Ġboy":7700,"Ġmouse":7701,"Ġmaps":7702,"road":7703,"asant":7704,"omatic":7705,"Ġnode":7706,"sell":7707,"ĠSaint":7708,"ĠSupp":7709,"ĠCro":7710,"igan":7711,"Ġstations":7712,"irds":7713,"Ġconven":7714,"ĠMur":7715,"Ġorgans":7716,"ĠPo":7717,"ĠPop":7718,"oding":7719,"ĠBig":7720,"ĠHave":7721,"osc":7722,"ĠEz":7723,"ĠRus":7724,"ocated":7725,"ĠLands":7726,"Ġdose":7727,"Ġmanip":7728,"Ġevident":7729,"inder":7730,"ĠChile":7731,"ricted":7732,"Ġaged":7733,"Ġdesired":7734,"Ġroles":7735,"Ġadds":7736,"icked":7737,"Ġmedication":7738,"Ġtransc":7739,"Ġseeing":7740,"Ġdepart":7741,"Ġsignals":7742,"Ġcorner":7743,"Ġowner":7744,"Ġinsurance":7745,"Ġparas":7746,"Ġtestim":7747,"class":7748,"including":7749,"Ġslave":7750,"Ġslavery":7751,"Ġlowest":7752,"Ġobjective":7753,"Ġtrip":7754,"Ġperforming":7755,"Ġdrawn":7756,"Ġfaced":7757,"Ġ1984":7758,"ĠOnline":7759,"copene":7760,"oxide":7761,"Ġdiam":7762,"Ġasking":7763,"scale":7764,"Ġsituated":7765,"Ġcouncil":7766,"Ġcatch":7767,"liest":7768,"ĠPerhaps":7769,"Ġconsisting":7770,"Ġimagine":7771,"Ġevaluate":7772,"Ġpsychology":7773,"Ġbabies":7774,"uzz":7775,"ĠServices":7776,"Ġinspired":7777,"Ġneighb":7778,"Ġlegislation":7779,"Ġcategories":7780,"zyme":7781,"Ġgalaxies":7782,"pressure":7783,"ĠVietnam":7784,"Ġremarkable":7785,"Ġexplanation":7786,"Ġadequate":7787,"Ġthalamus":7788,"Because":7789,"GB":7790,"IL":7791,"WD":7792,"cup":7793,"eh":7794,"hio":7795,"nel":7796,"Ġtight":7797,"Ġtaught":7798,"held":7799,"Ġtheore":7800,"Ġtherapeut":7801,"ati":7802,"isk":7803,"Ġpus":7804,"Ġble":7805,"Ġbread":7806,"Ġfellow":7807,"Ġhits":7808,"Ġhole":7809,"ented":7810,"Ġnerve":7811,"Ġgro":7812,"ĠAcc":7813,"chron":7814,"ĠSO":7815,"Ġproof":7816,"ĠMA":7817,"ĠBa":7818,"ĠBre":7819,"Ġexclus":7820,"Ġhence":7821,"acent":7822,"ĠDO":7823,"ĠWin":7824,"ĠRoy":7825,"ĠRio":7826,"Ġchair":7827,"ĠLy":7828,"Ġshore":7829,"ogether":7830,"aked":7831,"ipedia":7832,"Ġmanager":7833,"Ġjump":7834,"ulture":7835,"ĠKings":7836,"Ġscar":7837,"ounded":7838,"Ġrecover":7839,"Ġdesire":7840,"Ġ37":7841,"Ġ38":7842,"Ġaccum":7843,"Ġaccuracy":7844,"Ġprovisions":7845,"ften":7846,"Ġintermed":7847,"ĠAssembly":7848,"Ġhighlight":7849,"Ġtransf":7850,"Ġrefused":7851,"Ġeditor":7852,"ĠAli":7853,"Ġenthus":7854,"ĠWeek":7855,"2011":7856,"Ġmarg":7857,"Ġadvances":7858,"ugs":7859,"Ġorigins":7860,"Ġmotors":7861,"ĠExp":7862,"Ġworksh":7863,"Ġsensory":7864,"Ġcreative":7865,"Ġstatistics":7866,"Ġargues":7867,"Ġliberal":7868,"rolled":7869,"Ġemerging":7870,"Ġsteam":7871,"Ġcampus":7872,"Ġmothers":7873,"Ġsuffering":7874,"Ġturning":7875,"Ġreveal":7876,"Ġreviewed":7877,"Ġmobility":7878,"Ġaimed":7879,"Ġdependent":7880,"Ġtimber":7881,"Ġpartnership":7882,"Ġinstruments":7883,"Ġvolunte":7884,"Ġinitiatives":7885,"Ġminority":7886,"Ġprotocols":7887,"Ġtrends":7888,"Ġtomato":7889,"Ġcooperation":7890,"ĠDistrict":7891,"Ġlaser":7892,"ĠPennsylvan":7893,"ivestock":7894,"52":7895,"Jew":7896,"Qu":7897,"awn":7898,"lation":7899,"mble":7900,"vard":7901,"Ġ×":7902,"Ġtack":7903,"inux":7904,"Ġoceans":7905,"aton":7906,"Ġcab":7907,"Ġfur":7908,"Ġing":7909,"Ġmature":7910,"Ġtom":7911,"Ġthr":7912,"Ġreuse":7913,"Ġgathered":7914,"idity":7915,"ĠCy":7916,"Ġprocl":7917,"Ġwithd":7918,"ĠPC":7919,"ĠPass":7920,"ĠDiff":7921,"ĠEastern":7922,"ĠRNA":7923,"ĠField":7924,"ĠNum":7925,"ĠNep":7926,"ĠGard":7927,"ĠLeg":7928,"Ġships":7929,"Ġenorm":7930,"ĠJo":7931,"Ġabnormal":7932,"Ġadm":7933,"enda":7934,"Ġ1920":7935,"Ġcomprom":7936,"eping":7937,"ishment":7938,"Ġcommission":7939,"ologic":7940,"obile":7941,"Ġactively":7942,"riting":7943,"Ġaccident":7944,"oves":7945,"Ġregime":7946,"Ġattitude":7947,"Ġearliest":7948,"angered":7949,"Ġmonu":7950,"Ġdepicted":7951,"Ġcurren":7952,"Ġinsc":7953,"ometers":7954,"Ġmaintained":7955,"Ġconsidering":7956,"Ġcharges":7957,"Ġconference":7958,"Ġantimicrobial":7959,"Ġpasses":7960,"ĠCentre":7961,"Ġfinished":7962,"Ġkeeps":7963,"Ġdelivered":7964,"Ġdiscussions":7965,"Ġheads":7966,"ĠAllah":7967,"ĠActs":7968,"Ġfunctional":7969,"Ġfunded":7970,"Ġcoverage":7971,"ependent":7972,"Ġholds":7973,"Ġuranium":7974,"Ġimprovement":7975,"Ġmolecule":7976,"ĠAppro":7977,"Ġpacket":7978,"Ġgraduate":7979,"Ġgradually":7980,"ĠMeteor":7981,"Ġaffecting":7982,"arios":7983,"ĠCommunity":7984,"ĠSimilar":7985,"ĠDaniel":7986,"Ġmissing":7987,"Ġcategory":7988,"Ġtraditions":7989,"Ġbillions":7990,"Ġintelligence":7991,"Ġtrafficking":7992,"ĠGrassi":7993,"96":7994,"Every":7995,"Not":7996,"RA":7997,"Ref":7998,"SC":7999,"Section":8000,"bec":8001,"jud":8002,"page":8003,"rif":8004,"sub":8005,"Ã¼":8006,"atra":8007,"encing":8008,"Ġcure":8009,"Ġcook":8010,"Ġwars":8011,"Ġwearing":8012,"Ġwelfare":8013,"isd":8014,"isdom":8015,"Ġfest":8016,"Ġfabric":8017,"icians":8018,"Ġreaches":8019,"omat":8020,"omach":8021,"idal":8022,"rays":8023,"ĠSpe":8024,"ĠCross":8025,"Ġstake":8026,"Ġstick":8027,"irr":8028,"eless":8029,"Ġasbestos":8030,"ĠMO":8031,"ĠMove":8032,"Ġalter":8033,"odox":8034,"Ġdeer":8035,"ĠHill":8036,"isting":8037,"Ġatoms":8038,"ĠDoes":8039,"ĠRob":8040,"ĠFed":8041,"Ġchor":8042,"ĠLo":8043,"Ġspaces":8044,"Ġplays":8045,"ĠOl":8046,"Ġcontamin":8047,"Ġadverse":8048,"ĠThree":8049,"Ġimpair":8050,"Ġuniversity":8051,"Ġpartner":8052,"Ġrepair":8053,"Ġblank":8054,"Ġ48":8055,"Ġdecide":8056,"Ġsupplement":8057,"ĠProp":8058,"Ġcallosum":8059,"Ġsmart":8060,"Ġextends":8061,"Ġprocessed":8062,"Ġbackward":8063,"Ġoccipital":8064,"Ġmining":8065,"Ġended":8066,"Ġ1991":8067,"Ġdownward":8068,"ĠIss":8069,"gener":8070,"ierarch":8071,"Ġskill":8072,"ĠResp":8073,"Ġmeasuring":8074,"ospitals":8075,"ĠClimate":8076,"Ġavailability":8077,"Ġaccessible":8078,"ĠYoung":8079,"ĠPlant":8080,"2009":8081,"aneously":8082,"Ġgrounds":8083,"Ġdeaths":8084,"Ġ140":8085,"Ġcharacteristic":8086,"Ġwindows":8087,"annah":8088,"ennes":8089,"ĠConservation":8090,"Ġmorph":8091,"Ġirre":8092,"Ġsediments":8093,"Ġremoval":8094,"ĠLawrence":8095,"Ġdrawing":8096,"Ġprinted":8097,"Ġdanger":8098,"Ġtumors":8099,"Ġboundaries":8100,"Ġbeauty":8101,"Ġdiscoveries":8102,"ĠSpecies":8103,"Ġancestors":8104,"Ġtrigger":8105,"ĠCheck":8106,"oshua":8107,"Ġimmigrants":8108,"ĠAuthor":8109,"ĠNECT":8110,"ĠMicrosoft":8111,"ĠRabbi":8112,"imensional":8113,"Ġchicken":8114,"otherapy":8115,"ĠNolen":8116,"Ġsucceeded":8117,".âĢĻ":8118,"51":8119,"72":8120,"Get":8121,"Hist":8122,"Per":8123,"TH":8124,"las":8125,"mary":8126,"sen":8127,"sky":8128,"Ġtu":8129,"atories":8130,"Ġcash":8131,"orne":8132,"ĠpH":8133,"Ġpace":8134,"alysis":8135,"Ġfer":8136,"Ġfought":8137,"Ġmg":8138,"Ġmood":8139,"Ġdict":8140,"rovers":8141,"Ġhab":8142,"Ġrely":8143,"Ġreaching":8144,"Ġloved":8145,"ĠAIDS":8146,"ĠSat":8147,"ĠCre":8148,"ĠCurrent":8149,"Ġstack":8150,"amples":8151,"ĠMad":8152,"ĠMach":8153,"ĠPet":8154,"ĠTheory":8155,"Ġdece":8156,"ĠBPA":8157,"Ġexchange":8158,"riers":8159,"ĠWord":8160,"keys":8161,"ĠFred":8162,"ĠGar":8163,"Ġnotion":8164,"ĠLang":8165,"Ġcancers":8166,"Ġenzyme":8167,"acts":8168,"acters":8169,"Ġevil":8170,"inds":8171,"Ġinfant":8172,"Ġsoils":8173,"reek":8174,"Ġtrained":8175,"Ġbeta":8176,"Ġanywhere":8177,"Ġamph":8178,"Ġprime":8179,"Ġresemb":8180,"inking":8181,"....":8182,"Ġdefines":8183,"Ġdetection":8184,"ommod":8185,"Ġseeking":8186,"Ġtechnological":8187,"Ġstatements":8188,"ĠWho":8189,"they":8190,"Ġ700":8191,"avement":8192,"Ġboot":8193,"2013":8194,"Ġguard":8195,"lishing":8196,"Ġoperated":8197,"Ġpointed":8198,"ĠClub":8199,"ĠAdd":8200,"Ġdramatic":8201,"Ġprominent":8202,"ĠBefore":8203,"Ġexisted":8204,"riday":8205,"Ġinvestment":8206,"shaped":8207,"Ġsentences":8208,"Ġfeelings":8209,"ĠCarl":8210,"factory":8211,"Ġearthqu":8212,"Ġreactions":8213,"Ġinjured":8214,"Ġfiber":8215,"holders":8216,"Ġembra":8217,"ĠEmperor":8218,"ĠPersian":8219,"Ġstreams":8220,"ĠHeritage":8221,"Ġinterpre":8222,"ĠDisord":8223,"Ġsustainability":8224,"ĠBuddhism":8225,"Ġarguments":8226,"Ġcoordinate":8227,"ĠAngeles":8228,"Ġlegislature":8229,"ĠConfed":8230,"laration":8231,"Ġreproductive":8232,"Ġfifth":8233,"ĠÃĩ":8234,"Ġdefeat":8235,"Ġsubsid":8236,"Ġaccompan":8237,"Ġmetabol":8238,"ĠRaymond":8239,"Ġmolasses":8240,"Ġstreets":8241,"ĠNavajo":8242,"Ġinhabitants":8243,"ĠSudan":8244,"ĠPhilosophy":8245,"ĠSunday":8246,"Ġingred":8247,"08":8248,"09":8249,"92":8250,"Am":8251,"Ge":8252,"Hz":8253,"MS":8254,"Met":8255,"Where":8256,"bul":8257,"chen":8258,"law":8259,"rators":8260,"tles":8261,"yles":8262,"Ã¢":8263,"Ġtires":8264,"Ġcub":8265,"Ġcemetery":8266,"isons":8267,"Ġpup":8268,"ald":8269,"icing":8270,"ctor":8271,"sts":8272,"omers":8273,"Ġninet":8274,"Ġbees":8275,"olving":8276,"etary":8277,"ĠSaf":8278,"irs":8279,"iral":8280,"iration":8281,"ami":8282,"Ġconvention":8283,"ady":8284,"ĠMid":8285,"ĠMoses":8286,"ĠMoon":8287,"ĠDom":8288,"ĠEmer":8289,"ĠEaster":8290,"ĠGestalt":8291,"ghan":8292,"action":8293,"ĠOtt":8294,"Ġincomp":8295,"iph":8296,"ipher":8297,"Ġ1950":8298,"Ġperpet":8299,"Ġevolved":8300,"Ġmaybe":8301,"Ġrail":8302,"ientists":8303,"Ġ43":8304,"evertheless":8305,"Ġintervent":8306,"Ġcorpor":8307,"ĠWeiner":8308,"stitutes":8309,"Ġcharacters":8310,"Ġserving":8311,"incial":8312,"Ġwriters":8313,"ĠAdv":8314,"Ġplanting":8315,"ĠZion":8316,"coming":8317,"Ġfarms":8318,"ographical":8319,"ĠLeague":8320,"ĠBeh":8321,"aneous":8322,"ĠTele":8323,"Ġstronger":8324,"ĠJohnson":8325,"Ġobservation":8326,"Ġparticipating":8327,"regon":8328,"Ġnetworking":8329,"Ġlibr":8330,"Ġchoices":8331,"Ġmeasurement":8332,"Ġbrings":8333,"Ġmoral":8334,"Ġsteel":8335,"Ġdivor":8336,"Ġ1960":8337,"Ġrespectively":8338,"Ġbringing":8339,"ĠMorris":8340,"Ġrotation":8341,"Ġrobust":8342,"Ġcapture":8343,"Ġultimate":8344,"effective":8345,"Ġcustomers":8346,"Ġconversation":8347,"onald":8348,"Ġbrothers":8349,"Ġscenarios":8350,"Ġhurric":8351,"ĠMartin":8352,"Ġdropped":8353,"Ġappointed":8354,"ĠAbraham":8355,"ĠConnect":8356,"Ġinflammation":8357,"Ġexempl":8358,"ĠHPV":8359,"Ġthorough":8360,"Ġenzymes":8361,"ĠPennsylvania":8362,")|":8363,"?âĢĿ":8364,"CH":8365,"Click":8366,"ba":8367,"br":8368,"cin":8369,"disc":8370,"kin":8371,"made":8372,"pd":8373,"Ĥ¬":8374,"Ġtables":8375,"hent":8376,"hether":8377,"requ":8378,"Ġov":8379,"Ġske":8380,"Ġsulf":8381,"Ġcav":8382,"itus":8383,"Ġbomb":8384,"Ġfate":8385,"Ġmur":8386,"asive":8387,"Ġhat":8388,"ila":8389,"stract":8390,"Ġbee":8391,"ĠTreatment":8392,"Ġgate":8393,"Ġstomach":8394,"amine":8395,"Ġorange":8396,"terol":8397,"ĠPic":8398,"ĠPoint":8399,"mented":8400,"mental":8401,"mentation":8402,"this":8403,"thodox":8404,"ĠHay":8405,"istical":8406,"ĠEr":8407,"ĠWed":8408,"ĠRO":8409,"ĠFe":8410,"ĠFund":8411,"Ġsees":8412,"Ġrational":8413,"ĠList":8414,"Ġspat":8415,"allow":8416,"apse":8417,"Ġplot":8418,"Ġplenty":8419,"ptions":8420,"ĠIns":8421,"aga":8422,"agan":8423,"Ġwheel":8424,"Ġcompounds":8425,"Ġimpressive":8426,"ordinary":8427,"Ġupward":8428,"Ġraising":8429,"Ġproven":8430,"Ġamaz":8431,"Ġphosph":8432,"Ġobst":8433,"Ġindirect":8434,"Ġ55":8435,"Ġmeteor":8436,"Ġmodule":8437,"Ġtransmit":8438,"century":8439,"Ġplane":8440,"Ġinstances":8441,"Ġvariation":8442,"Ġcurd":8443,"ocked":8444,"Ġbelt":8445,"cling":8446,"ĠPhnom":8447,"aterials":8448,"ĠChristmas":8449,"ĠZeal":8450,"Ġprovider":8451,"Ġfacing":8452,"Ġexamination":8453,"Ġaircraft":8454,"system":8455,"Ġassociate":8456,"ĠPoll":8457,"Ġdispute":8458,"Ġcontainer":8459,"Ġdivine":8460,"Ġprecip":8461,"Ġliterally":8462,"Ġuncertain":8463,"ĠImm":8464,"Ġsuscept":8465,"olesterol":8466,"Ġdealing":8467,"Ġsexuality":8468,"Ġvaccines":8469,"Ġcorrectly":8470,"ĠBerlin":8471,"Ġcelebrate":8472,"Ġmutations":8473,"ĠPhysical":8474,"Ġexpertise":8475,"ĠLaboratory":8476,"rague":8477,"Ġuniversal":8478,"Ġprescribed":8479,"ĠObama":8480,"Ġconcluded":8481,"Ġvessels":8482,"Ġcontamination":8483,"Students":8484,"Ġenforcement":8485,"Ġathletes":8486,"ĠIdent":8487,"Ġparameters":8488,"Ġenlarged":8489,"January":8490,"Copyright":8491,"Ġenormous":8492,".;":8493,"63":8494,"91":8495,"EPA":8496,"IF":8497,"Pre":8498,"Suz":8499,"bles":8500,"burn":8501,"cience":8502,"qih":8503,"rical":8504,"sm":8505,"vation":8506,"word":8507,"Ġtons":8508,"heres":8509,"inch":8510,"rem":8511,"Ġol":8512,"Ġcm":8513,"ala":8514,"Ġbiodiversity":8515,"Ġinner":8516,"Ġdates":8517,"Ġdoses":8518,"roke":8519,"rooms":8520,"omer":8521,"sets":8522,"rained":8523,"ĠSeveral":8524,"ĠCT":8525,"ĠCond":8526,"igate":8527,"igration":8528,"Ġstone":8529,"Ġstead":8530,"Ġstorms":8531,"Ġprox":8532,"ĠBang":8533,"ĠHy":8534,"ĠHam":8535,"ĠHCV":8536,"illance":8537,"estine":8538,"quir":8539,"Ġsevent":8540,"ĠNic":8541,"Ġcholesterol":8542,"ĠLu":8543,"ĠLes":8544,"ĠJob":8545,"actic":8546,"ĠUSA":8547,"Ġcontents":8548,"Ġcontribution":8549,"Ġcontrovers":8550,"Ġwheat":8551,"akistan":8552,"Ġclot":8553,"Ġouter":8554,"ĠChange":8555,"Ġteen":8556,"Ġroads":8557,"Ġaccord":8558,"Ġoffering":8559,"Ġobesity":8560,"Ġourselves":8561,"Ġacre":8562,"Ġacute":8563,"aware":8564,"grade":8565,"Ġcouldn":8566,"adequ":8567,"Ġplanets":8568,"Ġparticle":8569,"Ġcarries":8570,"Ġcurve":8571,"Ġentering":8572,"Ġactivation":8573,"ĠIndeed":8574,"Ġvisited":8575,"Ġconfidence":8576,"dev":8577,"ĠConst":8578,"Ġpresentation":8579,"ĠColl":8580,"Ġbelieves":8581,"Ġlabour":8582,"Ġterror":8583,"ĠSyria":8584,"Web":8585,"Ġrealize":8586,"ashion":8587,"Ġfunctioning":8588,"Ġresearcher":8589,"print":8590,"Ġoptim":8591,"Ġcreatures":8592,"Ġaddressed":8593,"ĠMinnes":8594,"Ġbattery":8595,"Ġensuring":8596,"ĠJuan":8597,"ĠHistorical":8598,"Ġthreats":8599,"Ġfaqih":8600,"Ġcrude":8601,"inois":8602,"Ġliteracy":8603,"Ġfulf":8604,"Ġvillagers":8605,"Ġbacterial":8606,"Ġwaiting":8607,"Ġorders":8608,"Ġtelecommunications":8609,"Ġpulley":8610,"Ġbanks":8611,"Ġruling":8612,"ĠDeclaration":8613,"Ġphysicians":8614,"Ġexhibit":8615,"ĠPhysics":8616,"Ġdimin":8617,"Ġrecommendations":8618,"Ġinherited":8619,"ĠFinally":8620,"ĠHungary":8621,"ĠKhmer":8622,"Ġinterpretation":8623,"Ġprayer":8624,"Ġinformed":8625,"Ġregistered":8626,"Ġapparently":8627,"ĠIllinois":8628,"Ġcrowd":8629,"ĠOxford":8630,"Ġflexible":8631,"ĠAgriculture":8632,"Ġhorizontal":8633,"Ġspoken":8634,"Ġtestimony":8635,"Despite":8636,"GY":8637,"IST":8638,"MP":8639,"Mar":8640,"QL":8641,"Your":8642,"after":8643,"bered":8644,"def":8645,"dimensional":8646,"fur":8647,"har":8648,"iological":8649,"mod":8650,"rÃŃ":8651,"vo":8652,"Ã¦":8653,"Ġton":8654,"ref":8655,"erally":8656,"Ġsales":8657,"Ġcave":8658,"orith":8659,"Ġblow":8660,"icut":8661,"Ġdys":8662,"roid":8663,"Ġthirty":8664,"Ġreverse":8665,"Ġnerv":8666,"Ġbeach":8667,"Ġgases":8668,"rand":8669,"otal":8670,"ĠIU":8671,"Ġstood":8672,"ĠMen":8673,"ĠPD":8674,"opp":8675,"ĠBush":8676,"ĠHa":8677,"Ġvac":8678,"ĠWhere":8679,"ĠFort":8680,"ĠNov":8681,"ĠGall":8682,"ĠLess":8683,"ĠLanguage":8684,"Ġspoke":8685,"alla":8686,"duction":8687,"Ġdisability":8688,"perate":8689,"asty":8690,"pler":8691,"iber":8692,"Ġbutton":8693,"epold":8694,"Ġark":8695,"ĠChall":8696,"Ġpref":8697,"Ġrooms":8698,"lected":8699,"Ġconsuls":8700,"iously":8701,"Ġrelax":8702,"Ġbless":8703,"Ġremed":8704,"Ġattributed":8705,"Ġinvasion":8706,"Ġtransplant":8707,"Ġhealthcare":8708,"ĠForce":8709,"Ġestuar":8710,"Ġcaps":8711,"Ġmyst":8712,"Ġlessons":8713,"Ġconfirm":8714,"ĠPhD":8715,"Ġmaritime":8716,"Ġdrain":8717,"Ġ1983":8718,"2005":8719,"Ġerad":8720,"ippi":8721,"Ġoils":8722,"white":8723,"Ġfalls":8724,"Ġfalling":8725,"Ġfocuses":8726,"ĠSoft":8727,"Ġflows":8728,"Ġconsideration":8729,"screen":8730,"Ġdamaged":8731,"gestion":8732,"Ġconducting":8733,"Ġsquid":8734,"Ġengineers":8735,"ĠChristianity":8736,"Ġbarrel":8737,"Ġstraw":8738,"Ġpredicted":8739,"Ġsustained":8740,"ĠEdward":8741,"Ġacquired":8742,"ĠAustralian":8743,"Ġcraw":8744,"Ġtelevision":8745,"Ġrobot":8746,"Ġjurisd":8747,"Ġfemales":8748,"ĠBuddhist":8749,"Ġadvantages":8750,"Ġofficer":8751,"ĠAtlanta":8752,"Ġqualities":8753,"Ġconverted":8754,"Ġpanel":8755,"ĠMichigan":8756,"Ġmathematical":8757,"ĠASD":8758,"ĠBattle":8759,"Ġcandidate":8760,"Ġmoisture":8761,"Ġredundancy":8762,"Ġtropical":8763,"Ġlycopene":8764,"Ġconfirmed":8765,"Ġbutterf":8766,"Ġjourney":8767,"Ġvoltage":8768,"ustainable":8769,"Ġholiday":8770,"thritis":8771,"ĠNiepold":8772,"People":8773,"Ġconclusions":8774,"ĠNECTA":8775,"Suzannah":8776,"ĠMinnesota":8777,"400":8778,"56":8779,"68":8780,"App":8781,"Rep":8782,"Table":8783,"Two":8784,"Today":8785,"mers":8786,"pass":8787,"rass":8788,"vi":8789,"whel":8790,"Ġtang":8791,"Ġtick":8792,"inition":8793,"Ġsad":8794,"Ġsail":8795,"Ġcul":8796,"Ġcup":8797,"itter":8798,"Ġfract":8799,"Ġinadequ":8800,"arn":8801,"Ġmater":8802,"Ġmunicipal":8803,"icity":8804,"Ġho":8805,"Ġhills":8806,"Ġhierarch":8807,"iliation":8808,"Ġreward":8809,"ĠTen":8810,"uto":8811,"urning":8812,"ĠSem":8813,"ĠCirc":8814,"Ġproceed":8815,"eland":8816,"ĠMot":8817,"ĠPrague":8818,"Ġven":8819,"ivities":8820,"ĠDou":8821,"ĠForm":8822,"ĠFish":8823,"ĠFamily":8824,"ocial":8825,"Ġchose":8826,"ĠLog":8827,"ĠJur":8828,"apor":8829,"Ġworry":8830,"activity":8831,"rub":8832,"rue":8833,"Ġinfect":8834,"Ġinfants":8835,"orses":8836,"anges":8837,"Ġtwelve":8838,"Ġoffices":8839,"issippi":8840,"nex":8841,"Ġpreservation":8842,"Ġdiscl":8843,"Ġinstant":8844,"conn":8845,"Ġsecre":8846,"ĠForum":8847,"Ġinspect":8848,"Ġcontinuing":8849,"2010":8850,"Ġdemands":8851,"Ġdemocratic":8852,"Ġrestricted":8853,"azon":8854,"Ġwrites":8855,"Ġ1986":8856,"Ġcomputing":8857,"Ġharder":8858,"Ġcheap":8859,"Ġspacecraft":8860,"Ġinfluences":8861,"Ġcircle":8862,"Ġcopies":8863,"Ġcopper":8864,"Ġinitially":8865,"Ġstriking":8866,"ĠMinor":8867,"ĠContin":8868,"Ġdemonstration":8869,"Ġregardless":8870,"ĠÂ»":8871,"Ġversus":8872,"ĠTrade":8873,"ĠBoard":8874,"Ġcalculated":8875,"Ġidentifying":8876,"Ġangles":8877,"Ġcardi":8878,"Ġoccupation":8879,"Ġsilver":8880,"Ġestablishing":8881,"Ġestablishment":8882,"Ġattempted":8883,"Ġstrategic":8884,"Ġlimitations":8885,"Ġtissues":8886,"Ġtube":8887,"ĠAvoid":8888,"Ġopinions":8889,"Ġaltered":8890,"ĠVolume":8891,"Ġspectrum":8892,"ĠScientific":8893,"ĠQueen":8894,"ĠCambod":8895,"Ġregistration":8896,"Ġbehaviors":8897,"Ġerrors":8898,"Ġtolerance":8899,"Ġaquatic":8900,"Ġprecisely":8901,"Ġclothing":8902,"ĠHGF":8903,"Ġnutrients":8904,"Ġabandoned":8905,"Ġplasma":8906,"Ġdescendants":8907,"Ġlawyers":8908,"Ġtherapeutic":8909,"ĠZealand":8910,"!\"":8911,"%.":8912,"300":8913,"42":8914,"54":8915,"Ear":8916,"RP":8917,"Sec":8918,"cut":8919,"door":8920,"green":8921,"lines":8922,"pent":8923,"rity":8924,"ya":8925,"Ġq":8926,"Ġtension":8927,"Ġaesthetic":8928,"inally":8929,"itarian":8930,"Ġfashion":8931,"Ġintern":8932,"icts":8933,"icular":8934,"Ġdies":8935,"rog":8936,"role":8937,"rove":8938,"Ġnice":8939,"Ġghost":8940,"utch":8941,"ĠAction":8942,"verteb":8943,"ĠIX":8944,"Ġstability":8945,"amous":8946,"Ġconstitute":8947,"ĠMB":8948,"ĠPL":8949,"throp":8950,"ĠBol":8951,"ĠBiology":8952,"osus":8953,"istence":8954,"emed":8955,"Ġsuit":8956,"quality":8957,"ĠDC":8958,"ĠDig":8959,"ĠDeng":8960,"ĠEp":8961,"ĠEss":8962,"ĠFOR":8963,"oche":8964,"ocent":8965,"Ġsearc":8966,"ĠGive":8967,"ĠGran":8968,"duate":8969,"Ġusual":8970,"Ġcontributed":8971,"agon":8972,"ipation":8973,"Ġ1930":8974,"ĠKl":8975,"ologically":8976,"ailable":8977,"onsin":8978,"Ġquas":8979,"Ġtrace":8980,"ieval":8981,"ificate":8982,"Ġrelie":8983,"Ġaccommod":8984,"ribes":8985,"oving":8986,"Ġneedle":8987,"Ġsubmit":8988,"ieth":8989,"Ġtransmitted":8990,"Ġgrain":8991,"conf":8992,"hemistry":8993,"Ġeveryday":8994,"Ġsolve":8995,"ĠIndust":8996,"Ġreader":8997,"Ġaffairs":8998,"Ġadvis":8999,"Ġguess":9000,"Ġmethane":9001,"Ġsitting":9002,"Ġwriter":9003,"Ġhybrid":9004,"Ġmusical":9005,"iscus":9006,"Ġrealized":9007,"Ġcombine":9008,"Ġlawn":9009,"Ġrequirement":9010,"ĠMusic":9011,"Ġoptic":9012,"Ġwatching":9013,"loom":9014,"Ġrepresentation":9015,"ĠPolice":9016,"ĠPolicy":9017,"Ġaddressing":9018,"ĠConserv":9019,"ĠMarine":9020,"Ġconsumer":9021,"olecular":9022,"Ġjudgment":9023,"Ġsurvived":9024,"Ġengineer":9025,"Ġemerged":9026,"Ġcrimes":9027,"profit":9028,"Ġliterary":9029,"Ġoxid":9030,"ĠSmall":9031,"Ġcleaning":9032,"Ġfossils":9033,"ĠVirt":9034,"Ġtracking":9035,"Ġcaptured":9036,"Ġcelebrated":9037,"Ġmembranes":9038,"Ġruled":9039,"Ġconstitutional":9040,"Ġlicensing":9041,"ĠTurkey":9042,"iotics":9043,"ĠPurim":9044,"Ġunemployment":9045,"Ġlinear":9046,"Ġsculpture":9047,"ĠAffairs":9048,"Ġadapted":9049,"Ġelder":9050,"Ġtheoretical":9051,"ghanistan":9052,"ĠConnecticut":9053,"Ġnervous":9054,"%)":9055,".||":9056,"07":9057,"BM":9058,"Col":9059,"FC":9060,"Har":9061,"Iran":9062,"Med":9063,"even":9064,"gers":9065,"hi":9066,"iotic":9067,"jan":9068,"rings":9069,"sis":9070,"uity":9071,"âĤ¬":9072,"inar":9073,"rea":9074,"Ġshed":9075,"enza":9076,"Ġcro":9077,"itar":9078,"Ġpair":9079,"Ġpupp":9080,"Ġfever":9081,"Ġinternet":9082,"Ġinherent":9083,"Ġmile":9084,"Ġmira":9085,"Ġreign":9086,"ĠTable":9087,"Ġgifts":9088,"utrition":9089,"Ġforb":9090,"owai":9091,"ĠSoy":9092,"ĠCAL":9093,"igible":9094,"Ġstrange":9095,"ifted":9096,"ĠParents":9097,"oded":9098,"ĠHindu":9099,"anda":9100,"ĠEDS":9101,"ĠWood":9102,"ighth":9103,"ntil":9104,"ĠRos":9105,"ĠFoster":9106,"Ġneck":9107,"ĠNazi":9108,"ĠLee":9109,"Ġshipping":9110,"Ġenerg":9111,"ĠJeff":9112,"dule":9113,"ardation":9114,"ĠOregon":9115,"ruit":9116,"agen":9117,"aka":9118,"Ġresc":9119,"Ġresidence":9120,"Ġarise":9121,"Ġapplies":9122,"ĠChief":9123,"Ġsciences":9124,"Ġpeer":9125,"Ġagent":9126,"ĠVan":9127,"Ġworker":9128,"Ġ33":9129,"Ġ39":9130,"Ġovercome":9131,"text":9132,"Ġracial":9133,"Ġattended":9134,"Ġmoderate":9135,"Ġears":9136,"ĠProcess":9137,"atherine":9138,"Ġmineral":9139,"Ġtreaty":9140,"ĠIslands":9141,"Ġhumanity":9142,"Ġboat":9143,"Ġmaintaining":9144,"Ġdemocracy":9145,"Ġpassion":9146,"Ġtriang":9147,"isconsin":9148,"gedy":9149,"Ġposted":9150,"Ġinduced":9151,"ĠPlace":9152,"Ġpromising":9153,"ĠMedia":9154,"Ġanalys":9155,"Ġ1989":9156,"spring":9157,"ĠBeing":9158,"Ġfrag":9159,"Ġprobability":9160,"Ġcircuit":9161,"Ġinteractivity":9162,"Ġargued":9163,"hetoric":9164,"umps":9165,"Ġpayment":9166,"Ġstrains":9167,"thernet":9168,"ĠHarry":9169,"ATION":9170,"Ġaudience":9171,"ursday":9172,"Ġtribal":9173,"Ġcitizen":9174,"Ġdefinitions":9175,"Ġstruck":9176,"Ġdocumentation":9177,"Ġvictory":9178,"eroids":9179,"ĠEducational":9180,"Ġautomatically":9181,"Ġtransferred":9182,"ĠSwed":9183,"Ġshuttle":9184,"Scientists":9185,"ĠEvolution":9186,"Ġbonding":9187,"ĠCapone":9188,"ĠMalays":9189,"ĠGrey":9190,"Before":9191,"ĠTerrit":9192,"ĠMississippi":9193,"Ġoccasionally":9194,"Ġmosquitoes":9195,"Ġcamera":9196,"Ġhormone":9197,"ĠPractice":9198,"Ġcortex":9199,"Ġunconform":9200,"Ġprevalence":9201,"Ġdiameter":9202,"ennessee":9203,"''":9204,"Back":9205,"DH":9206,"Des":9207,"Just":9208,"PO":9209,"Red":9210,"ech":9211,"hist":9212,"mm":9213,"oys":9214,"ugh":9215,"yer":9216,"Â®":9217,"Ġtap":9218,"Ġahead":9219,"hedule":9220,"Ġtheor":9221,"ester":9222,"orig":9223,"Ġpy":9224,"Ġbridge":9225,"arks":9226,"Ġment":9227,"Ġmine":9228,"ione":9229,"Ġdip":9230,"Ġlivestock":9231,"ĠTennessee":9232,"section":9233,"Ġgod":9234,"ĠAR":9235,"ĠSing":9236,"ĠSir":9237,"ĠSex":9238,"ĠCard":9239,"ĠCumber":9240,"Ġassemb":9241,"Ġcongregation":9242,"ĠMess":9243,"Ġ120":9244,"ĠPA":9245,"ĠPakistan":9246,"ĠBad":9247,"abs":9248,"osures":9249,"rive":9250,"Ġvom":9251,"Ġrou":9252,"ĠGap":9253,"ĠLittle":9254,"ogene":9255,"ĠOhio":9256,"Ġdisrupt":9257,"Ġincident":9258,"Ġcompare":9259,"Ġmeals":9260,"Ġimprint":9261,"ensation":9262,"Ġpartly":9263,"Ġagn":9264,"Ġagenda":9265,"Ġacting":9266,"Ġoverwhel":9267,"Ġrays":9268,"atively":9269,"rible":9270,"Ġempt":9271,"Ġregister":9272,"ĠHead":9273,"Ġ42":9274,"Ġ44":9275,"Ġpole":9276,"Ġfled":9277,"Ġflour":9278,"Ġflash":9279,"insula":9280,"Ġdetention":9281,"ĠAlaska":9282,"Ġrequiring":9283,"Ġsimult":9284,"Ġminim":9285,"Ġvariations":9286,"Ġvarieties":9287,"Ġmonoxide":9288,"Ġcapabilities":9289,"Ġelectro":9290,"ĠAnc":9291,"ĠSci":9292,"ĠSpirit":9293,"Ġdescriptions":9294,"Ġdirectory":9295,"Ġvalley":9296,"Ġobjectives":9297,"Ġwarning":9298,"Ġbehalf":9299,"nedy":9300,"Ġdevoted":9301,"Ġpainful":9302,"Ġmultip":9303,"Ġswim":9304,"Ġwindings":9305,"Ġmagazine":9306,"apping":9307,"Ġdomain":9308,"Ġsunlight":9309,"ylene":9310,"ulsion":9311,"verest":9312,"Ġprivile":9313,"Ġprivacy":9314,"ĠNev":9315,"Ġstrand":9316,"Ġarchae":9317,"Ġversions":9318,"ĠHarvard":9319,"iracy":9320,"ealog":9321,"Ġseriously":9322,"hammad":9323,"Ġspeaker":9324,"Ġreveals":9325,"Ġagreements":9326,"Health":9327,"Ġtranslation":9328,"ĠPlanning":9329,"Ġpriority":9330,"Ġborders":9331,"Ġutilization":9332,"Ġanalyzed":9333,"Ġphilosophical":9334,"Ġgirl":9335,"Ġfavorite":9336,"Ġlicenses":9337,"Ġinvolvement":9338,"ogenesis":9339,"Ġsynthetic":9340,"Ġhopes":9341,"ROM":9342,"Ġcontributions":9343,"Ġpaintings":9344,"ĠStephen":9345,"Ġtherapies":9346,"Ġunlikely":9347,"ĠPotter":9348,"Ġaggressive":9349,"Ġalgorith":9350,"Ġfluoride":9351,"ĠâĨ":9352,"olitan":9353,"Ġneurolog":9354,"Ġvocabulary":9355,"Ġpoetry":9356,"ĠEngineering":9357,"oglobulin":9358,"Ġhepatitis":9359,"Ġarranged":9360,"ĠSecretary":9361,"Ġspatial":9362,"ĠCumberland":9363,"81":9364,"87":9365,"Act":9366,"EA":9367,"Le":9368,"ML":9369,"OW":9370,"Or":9371,"Part":9372,"Please":9373,"Under":9374,"VD":9375,"bell":9376,"fri":9377,"lav":9378,"mid":9379,"power":9380,"words":9381,"Ġtag":9382,"Ġtip":9383,"Ġtied":9384,"Ġaw":9385,"reland":9386,"Ġsel":9387,"Ġsale":9388,"Ġsizes":9389,"Ġcents":9390,"Ġwake":9391,"Ġfurn":9392,"arg":9393,"arter":9394,"Ġhospitals":9395,"Ġlying":9396,"station":9397,"Ġgrants":9398,"imid":9399,"Ġforg":9400,"ĠSil":9401,"ĠSearch":9402,"ĠCare":9403,"ĠIb":9404,"ĠIreland":9405,"Ġconj":9406,"Ġconvey":9407,"Ġ110":9408,"ĠPage":9409,"ĠPoverty":9410,"mentia":9411,"ĠBab":9412,"ĠHon":9413,"ĠHor":9414,"ĠHum":9415,"abeth":9416,"ĠDam":9417,"ighter":9418,"ĠFact":9419,"ĠFace":9420,"Ġrating":9421,"ĠGas":9422,"Ġnoticed":9423,"antine":9424,"Ġdischarge":9425,"izabeth":9426,"ĠIniti":9427,"Ġadvent":9428,"Ġreson":9429,"Ġresidential":9430,"Ġ1918":9431,"aund":9432,"ubble":9433,"Ġaging":9434,"phalt":9435,"Ġwouldn":9436,"Ġrelating":9437,"Ġnoise":9438,"ĠYears":9439,"Ġregulation":9440,"Ġ41":9441,"Ġ46":9442,"ermat":9443,"grams":9444,"Ġearned":9445,"Ġheritage":9446,"Ġreferences":9447,"Ġartistic":9448,"Ġcommunic":9449,"Ġdifferently":9450,"ounced":9451,"Ġautism":9452,"Ġinsight":9453,"Ġboost":9454,"Ġserves":9455,"develop":9456,"Whish":9457,"Ġmarks":9458,"ĠAndrew":9459,"Ġeconomies":9460,"Ġanticip":9461,"ployment":9462,"Ġdevast":9463,"ĠAdditionally":9464,"ĠCommons":9465,"Ġpropag":9466,"Ġplayers":9467,"Ġposts":9468,"Ġchemistry":9469,"iculture":9470,"Ġindustries":9471,"Ġannually":9472,"ĠAfghanistan":9473,"ĠConsider":9474,"ĠNeu":9475,"Ġdispers":9476,"Ġdisputes":9477,"ĠWithout":9478,"1996":9479,"Ġpollut":9480,"Ġtraveled":9481,"Ġvideos":9482,"ĠMorgan":9483,"Ġcrack":9484,"Ġlifest":9485,"Ġcelebration":9486,"ĠKeep":9487,"Ġattracted":9488,"Ġsettings":9489,"Art":9490,"Ġconvert":9491,"ĠDemocratic":9492,"Ġtemporary":9493,"ĠLouisiana":9494,"elescope":9495,"ĠSuper":9496,"Ġcollaboration":9497,"Ġhouseholds":9498,"Ġpermits":9499,"Ġgolden":9500,"Ġmanufacturers":9501,"ĠLarge":9502,"Ġsurveillance":9503,"Ġmerchants":9504,"roscopic":9505,"Ġepisode":9506,"ĠAbdalla":9507,"Ġbiblical":9508,"Ġintermediate":9509,"Ġvolunteers":9510,"ĠMovement":9511,"Ġinadequate":9512,"ĠSoyuz":9513,"))":9514,"600":9515,"82":9516,"83":9517,"93":9518,"NE":9519,"Sem":9520,"Tra":9521,"Well":9522,"Water":9523,"ders":9524,"five":9525,"habil":9526,"iating":9527,"ked":9528,"she":9529,"was":9530,"worth":9531,"Ã±":9532,"Ö¼":9533,"Ġ000":9534,"Ġsoph":9535,"Ġcd":9536,"Ġcas":9537,"orters":9538,"itory":9539,"icides":9540,"Ġtooth":9541,"ashes":9542,"Ġnose":9543,"lyc":9544,"olph":9545,"rait":9546,"eting":9547,"ĠAge":9548,"urg":9549,"owered":9550,"ĠSon":9551,"ĠSometimes":9552,"irus":9553,"iratory":9554,"uli":9555,"Ġprolong":9556,"ela":9557,"Ġcongestion":9558,"ĠMeth":9559,"Ġyields":9560,"Ġoral":9561,"ĠPut":9562,"through":9563,"usc":9564,"ĠHot":9565,"osity":9566,"rium":9567,"estions":9568,"aine":9569,"Ġvag":9570,"ĠWisconsin":9571,"Ġhaven":9572,"ĠFire":9573,"ĠFDP":9574,"ĠFriday":9575,"ĠNon":9576,"Ġrhyth":9577,"Ġlecture":9578,"ĠLic":9579,"Ġshade":9580,"Ġshoes":9581,"ĠJane":9582,"ĠJoshua":9583,"Ġworst":9584,"outheast":9585,"ĠUV":9586,"ĠâĢ¢":9587,"Ġdisks":9588,"astro":9589,"pled":9590,"ĠmorerÃŃ":9591,"Ġadj":9592,"endment":9593,"Ġclient":9594,"ĠKids":9595,"avor":9596,"Ġprey":9597,"Ġschedule":9598,"owned":9599,"ternoon":9600,"Ġtraits":9601,"lude":9602,"Ġgenome":9603,"Ġaccidents":9604,"Ġblues":9605,"Ġdevelops":9606,"Ġoffspring":9607,"Ġobese":9608,"Ġexped":9609,"Ġsubmitted":9610,"Ġpron":9611,"Ġattitudes":9612,"Ġattributes":9613,"Ġmetals":9614,"ĠAsh":9615,"Ġsmoke":9616,"Ġminimal":9617,"Ġvaries":9618,"Ġauthent":9619,"Ġglac":9620,"Ġretardation":9621,"Ġlegs":9622,"Ġeducated":9623,"Ġbreaking":9624,"Ġproportion":9625,"Ġfinance":9626,"Ġreceives":9627,"Ġfaces":9628,"Ġ1985":9629,"Ġradical":9630,"Ġpasture":9631,"Ġgroundwater":9632,"Ġfails":9633,"Ġinfluential":9634,"Ġfocusing":9635,"Ġconcerning":9636,"shore":9637,"ilson":9638,"Ġconsumed":9639,"ĠAssess":9640,"Ġlibert":9641,"Ġportions":9642,"Ġsuggesting":9643,"Ġfluids":9644,"Ġcollective":9645,"Ġepit":9646,"ĠPeru":9647,"1999":9648,"Ġevolutionary":9649,"Ġmounted":9650,"mingb":9651,"Ġreflects":9652,"Ġcomplications":9653,"ĠInteg":9654,"Ġsalinity":9655,"Ġbitter":9656,"Ġmessages":9657,"ICEF":9658,"ĠBarcel":9659,"Ġrocket":9660,"aintance":9661,"Ġillustrate":9662,"ĠBuddhists":9663,"Ġexpanding":9664,"Ġmutual":9665,"Ġattractive":9666,"Ġtubes":9667,"Ġfifty":9668,"Ġscenario":9669,"Ġannounce":9670,"Ġburned":9671,"Ġnewspapers":9672,"Ġincorporated":9673,"Ġwonderful":9674,"ĠCambridge":9675,"Ġsurprised":9676,"Ġbehaviour":9677,"Ġroughly":9678,"Ġneighborhood":9679,"PDF":9680,"Ġhomosexuality":9681,"Ġshopping":9682,"ĠAzmet":9683,"Ġoutbreaks":9684,"Ġencryption":9685,"Ġoccasional":9686,"lotte":9687,"Ġmarginal":9688,"Jewish":9689,"Ġtackle":9690,"Ġhabits":9691,"Ġearthquake":9692,"ĠPollution":9693,"roleum":9694,"53":9695,"CS":9696,"Don":9697,"TO":9698,"bat":9699,"box":9700,"dation":9701,"iat":9702,"lights":9703,"mel":9704,"rong":9705,"trans":9706,"uct":9707,"Ġ;":9708,"Ġic":9709,"Ġties":9710,"Ġtens":9711,"health":9712,"inth":9713,"inery":9714,"Ġcord":9715,"Ġcrown":9716,"Ġwisdom":9717,"isition":9718,"itual":9719,"itting":9720,"Ġpec":9721,"Ġpush":9722,"Ġbare":9723,"Ġbands":9724,"arious":9725,"Ġmart":9726,"Ġmales":9727,"Ġdental":9728,"Ġduty":9729,"asy":9730,"Ġharsh":9731,"Ġhorses":9732,"Ġthro":9733,"Ġthinks":9734,"Ġerect":9735,"ilib":9736,"Ġrent":9737,"Ġlosing":9738,"Ġgestalt":9739,"rax":9740,"ĠAqu":9741,"urt":9742,"ĠSEL":9743,"ĠCul":9744,"ĠCall":9745,"ĠCart":9746,"ĠCold":9747,"ĠCreek":9748,"ĠIP":9749,"ador":9750,"ĠMic":9751,"ĠMond":9752,"ĠMarc":9753,"ifer":9754,"illa":9755,"Ġheter":9756,"udson":9757,"ĠDrug":9758,"ĠEthernet":9759,"ĠRh":9760,"Ġ250":9761,"ĠGet":9762,"ĠLight":9763,"Ġshapes":9764,"ogs":9765,"Ġintra":9766,"Ġweights":9767,"ptic":9768,"agree":9769,"akh":9770,"Ġincred":9771,"Ġ1911":9772,"Ġcompress":9773,"ĠKowai":9774,"Ġscope":9775,"ĠVT":9776,"ĠView":9777,"obra":9778,"ĠYear":9779,"Ġspecified":9780,"Ġsupplements":9781,"Ġassim":9782,"Ġpreserved":9783,"Ġinterior":9784,"exts":9785,"Ġwells":9786,"Ġtransp":9787,"Ġfactory":9788,"Ġrequests":9789,"formance":9790,"Ġapproval":9791,"Ġauton":9792,"Ġeverywhere":9793,"ĠIndex":9794,"Ġ85":9795,"Ġdesignated":9796,"Ġrestored":9797,"azare":9798,"ĠCentury":9799,"Ġbasin":9800,"Ġidentification":9801,"ĠClinical":9802,"NASA":9803,"Ġdraft":9804,"Ġpromise":9805,"Ġsafer":9806,"Ġcombat":9807,"Ġdetermining":9808,"Ġgrounding":9809,"Ġspecialist":9810,"Ġswitch":9811,"Ġfragment":9812,"ĠPolish":9813,"Ġseparation":9814,"Ġessay":9815,"Ġcounts":9816,"Ġpathways":9817,"Child":9818,"Ġimprovements":9819,"Ġheaven":9820,"Ġlogic":9821,"Ġlogical":9822,"Ġunclear":9823,"Ġspeaks":9824,"Ġpsychological":9825,"Ġsynchron":9826,"Ġextraordinary":9827,"Ġcouples":9828,"Ġquantity":9829,"Ġsequences":9830,"Ġwooden":9831,"Ġadministrative":9832,"Ġchallenging":9833,"Ġsampling":9834,"ĠWilliams":9835,"ĠProtocol":9836,"ypes":9837,"elligence":9838,"Ġexhibition":9839,"Ġvarying":9840,"Ġprohibits":9841,"ĠBelow":9842,"General":9843,"Researchers":9844,"Ġinstallation":9845,"Ġpesticide":9846,"Ġbeliefs":9847,"Ġinnovative":9848,"ĠBetween":9849,"ĠExtension":9850,"ĠPenh":9851,"ĠEconomic":9852,"ĠMuhammad":9853,"Ġfeuding":9854,"Ġfacilitate":9855,"Ġenemy":9856,"Ġsuddenly":9857,"Ġloyalty":9858,"Ġdismiss":9859,"Ġrevenue":9860,"ĠObserv":9861,"Ġracism":9862,"Using":9863,"ĠRossi":9864,"ĠRussell":9865,"Ġaccompanied":9866,"67":9867,"97":9868,"DI":9869,"DL":9870,"Day":9871,"Dep":9872,"Each":9873,"LO":9874,"View":9875,"ci":9876,"dep":9877,"hall":9878,"iables":9879,"mn":9880,"vic":9881,"vals":9882,"Ġtort":9883,"inced":9884,"reens":9885,"onents":9886,"Ġcensus":9887,"Ġwing":9888,"itate":9889,"itated":9890,"Ġpock":9891,"also":9892,"Ġbinding":9893,"Ġfles":9894,"Ġinert":9895,"Ġmurd":9896,"icious":9897,"Ġtox":9898,"Ġhall":9899,"entieth":9900,"Ġease":9901,"Ġlent":9902,"Ġlam":9903,"Ġlens":9904,"Ġlingu":9905,"Ġbeans":9906,"ĠText":9907,"oli":9908,"Ġgent":9909,"cha":9910,"ĠCWD":9911,"Ġproc":9912,"thal":9913,"ĠBC":9914,"ĠBatt":9915,"ĠHaw":9916,"Ġhealing":9917,"Ġatomic":9918,"ppers":9919,"Ġwash":9920,"ĠWorks":9921,"ĠRAID":9922,"ĠFa":9923,"ĠNY":9924,"ĠNear":9925,"ĠNote":9926,"ĠNext":9927,"Ġring":9928,"Ġrig":9929,"Ġritual":9930,"Ġspinal":9931,"ourse":9932,"Ġabol":9933,"Ġplumul":9934,"Ġintention":9935,"outatis":9936,"Ġresolve":9937,"Ġcloning":9938,"Ġapplying":9939,"ĠCho":9940,"ĠStart":9941,"ublished":9942,"Ġrecon":9943,"anger":9944,"Ġsomehow":9945,"ritten":9946,"ĠUnfortunately":9947,"Ġcounted":9948,"Ġflaw":9949,"Ġherself":9950,"Ġpersu":9951,"Ġartis":9952,"Those":9953,"ceptions":9954,"athers":9955,"Ġvariables":9956,"gged":9957,"Ġpossibilities":9958,"ĠIndividual":9959,"generation":9960,"Ġexploring":9961,"ropolitan":9962,"Ġwarrant":9963,"Ġseverity":9964,"ĠColon":9965,"Ġfreed":9966,"Ġtrem":9967,"Ġpropos":9968,"Ġprophet":9969,"Ġ1988":9970,"Ġhardly":9971,"Ġcheaper":9972,"Ass":9973,"Ġswit":9974,"Ġframe":9975,"Ġterminal":9976,"Any":9977,"Ġteams":9978,"Ġpaths":9979,"Ġpaying":9980,"Ġtotally":9981,"Ġutility":9982,"Ġviolent":9983,"Ġdebris":9984,"irable":9985,"Ġdeeply":9986,"matically":9987,"Ġpacking":9988,"Ġgradual":9989,"Ġapost":9990,"borne":9991,"Ġdocumented":9992,"Ġtelephone":9993,"Ġsemantic":9994,"Ġinvestigate":9995,"Ġinvestigations":9996,"Ġarrival":9997,"ĠFlag":9998,"Ġenhanced":9999,"Ġdisplayed":10000,"Ġbonds":10001,"ĠArchives":10002,"Ġcomprehension":10003,"Ġrevolutionary":10004,"ĠTurk":10005,"Research":10006,"Ġsacred":10007,"Ġpumps":10008,"ĠJustice":10009,"Ġassumed":10010,"ĠStandards":10011,"ĠScientists":10012,"ĠUpd":10013,"Ġrejected":10014,"Ġorbital":10015,"Ġaccomplished":10016,"Ġwireless":10017,"product":10018,"Ġwelcome":10019,"ĠKennedy":10020,"Ġscheduled":10021,"Ġgyri":10022,"ĠWikipedia":10023,"Ġfertilizer":10024,"Ġsponsored":10025,"Ġcontaminants":10026,"Ġmurder":10027,"ĠSoftware":10028,"Ġplumulosus":10029,"Eng":10030,"Europe":10031,"IM":10032,"MB":10033,"Use":10034,"WM":10035,"chest":10036,"hn":10037,"iop":10038,"iates":10039,"names":10040,"nai":10041,"pan":10042,"uits":10043,"ufficient":10044,"you":10045,"zz":10046,"zone":10047,"Â©":10048,"Ġape":10049,"erated":10050,"atre":10051,"atum":10052,"Ġcooking":10053,"Ġwise":10054,"isi":10055,"orient":10056,"alks":10057,"Ġbail":10058,"Ġbits":10059,"Ġfires":10060,"Ġfuels":10061,"Ġinland":10062,"Ġda":10063,"ashed":10064,"Ġhal":10065,"Ġthread":10066,"Ġlip":10067,"Ġbeats":10068,"ĠTown":10069,"ĠToutatis":10070,"Ġgran":10071,"otten":10072,"owers":10073,"ĠCell":10074,"ĠClear":10075,"vern":10076,"Ġstring":10077,"elihood":10078,"ĠPra":10079,"ĠPoly":10080,"ĠTherapy":10081,"opoly":10082,"ĠBall":10083,"ĠHur":10084,"ĠHad":10085,"ĠHop":10086,"ĠHard":10087,"ĠHug":10088,"ĠHaving":10089,"abama":10090,"estion":10091,"Ġvice":10092,"ĠDie":10093,"ĠWall":10094,"ĠFA":10095,"occ":10096,"una":10097,"ante":10098,"Ġsho":10099,"Ġenvelop":10100,"Ġenables":10101,"Ġspending":10102,"ĠJul":10103,"aping":10104,"actions":10105,"Ġintr":10106,"ĠUr":10107,"pert":10108,"Ġcontexts":10109,"agraph":10110,"Ġallerg":10111,"endix":10112,"Ġ1912":10113,"Ġclar":10114,"Ġmanaging":10115,"Ġarbit":10116,"ĠThursday":10117,"Ġmeal":10118,"ĠKamp":10119,"ĠKey":10120,"Ġsymp":10121,"Ġthemes":10122,"Ġrope":10123,"lections":10124,"Ġnewly":10125,"Ġdiffer":10126,"Ġaccused":10127,"Ġblind":10128,"Ġprovince":10129,"Ġprovincial":10130,"Ġphases":10131,"Ġexposures":10132,"Ġacoust":10133,"ranean":10134,"Ġsubt":10135,"Ġsubsc":10136,"othy":10137,"Ġmedieval":10138,"Ġmemories":10139,"Ġedited":10140,"ictions":10141,"Ġsecular":10142,"Ġdisturb":10143,"Ġmonarch":10144,"ĠIndo":10145,"Ġgrows":10146,"Ġexploration":10147,"Ġenvironmentally":10148,"Ġclassical":10149,"Ġmarry":10150,"Ġphysically":10151,"Ġmatch":10152,"Ġbreed":10153,"Ġbrack":10154,"Ġspeeds":10155,"Ġprophe":10156,"2002":10157,"2007":10158,"Ġcalend":10159,"ĠOrig":10160,"Ġrival":10161,"Ġindicating":10162,"Ġpathway":10163,"Ġcatal":10164,"Ġweekly":10165,"ĠAmazon":10166,"Ġburden":10167,"Ġfault":10168,"Ġvertical":10169,"Ġsteep":10170,"Ġirrit":10171,"Ġfatal":10172,"Ġmagnitude":10173,"Ġtraveling":10174,"Ġprogressive":10175,"Ġacceptable":10176,"Ġreferring":10177,"ĠAnton":10178,"Ġshallow":10179,"ĠPrime":10180,"Ġgraduates":10181,"Ġacquaintance":10182,"Ġcraft":10183,"Ġbreaks":10184,"Ġroutes":10185,"Ġtendency":10186,"ĠMonitor":10187,"Ġillustrated":10188,"Ġsemi":10189,"ĠMountain":10190,"Ġprinting":10191,"nesday":10192,"Ġsurrounded":10193,"Ġpetition":10194,"ĠRedu":10195,"Ġexperiencing":10196,"ĠReference":10197,"Ġcolonial":10198,"Ġfriendly":10199,"Ġlicensed":10200,"Ġemotions":10201,"CLOS":10202,"Ġfoam":10203,"Ġsuspected":10204,"ĠMoore":10205,"Ġantibiotics":10206,"Ġphenomena":10207,"Ġaccurately":10208,"Ġconstitu":10209,"Ġafternoon":10210,"Ġfinger":10211,"Ġkilometers":10212,"Ġtransformed":10213,"ĠLiterature":10214,"igorous":10215,"hydration":10216,"Ġmetamorphism":10217,"Ġdeficiency":10218,"Ġorientation":10219,"Ġguarantee":10220,"Ġdefinitely":10221,"Ġenthusi":10222,"ĠGarden":10223,"quiry":10224,"Ġsimultaneously":10225,"62":10226,"94":10227,"Ac":10228,"CA":10229,"Cat":10230,"Cent":10231,"El":10232,"HG":10233,"Ke":10234,"Once":10235,"SO":10236,"Sm":10237,"She":10238,"UD":10239,"],":10240,"cm":10241,"eath":10242,"fish":10243,"has":10244,"him":10245,"ja":10246,"nia":10247,"pin":10248,"sized":10249,"wave":10250,"inqu":10251,"onym":10252,"Ġsorts":10253,"Ġsaving":10254,"Ġcous":10255,"Ġcache":10256,"esar":10257,"Ġwed":10258,"Ġwip":10259,"Ġwider":10260,"iser":10261,"itic":10262,"Ġpad":10263,"Ġpanc":10264,"Ġpavement":10265,"Ġbark":10266,"Ġbases":10267,"anning":10268,"ioned":10269,"Ġdense":10270,"Ġdying":10271,"rov":10272,"Ġhill":10273,"ilk":10274,"illy":10275,"Ġlights":10276,"omon":10277,"ĠTurn":10278,"Ġgrid":10279,"raine":10280,"etically":10281,"ĠSet":10282,"ĠSalt":10283,"ĠMend":10284,"ĠMoh":10285,"ĠMax":10286,"opher":10287,"Ġdementia":10288,"ĠBus":10289,"ĠBack":10290,"ĠBran":10291,"ĠHas":10292,"ĠHyd":10293,"ĠHudson":10294,"emat":10295,"Ġatom":10296,"Ġvass":10297,"ĠRight":10298,"ĠNOT":10299,"ĠGround":10300,"ĠLater":10301,"Ġshadow":10302,"Ġenfor":10303,"Ġspo":10304,"Ġspelling":10305,"ffee":10306,"Ġdisabled":10307,"Ġcontag":10308,"ĠInn":10309,"agle":10310,"Ġresistant":10311,"Ġ1915":10312,"Ġclub":10313,"Ġarmed":10314,"Ġunity":10315,"iants":10316,"oked":10317,"Ġdesk":10318,"obic":10319,"Ġtwentieth":10320,"ysical":10321,"Ġprovision":10322,"Ġamyl":10323,"ools":10324,"Ġremem":10325,"Ġassistant":10326,"Ġhummingb":10327,"Ġcellular":10328,"Ġediting":10329,"Ġ1800":10330,"Ġsignature":10331,"Ġmyster":10332,"airy":10333,"Ġpersonnel":10334,"Ġvisits":10335,"Ġrises":10336,"Ġmargin":10337,"Ġlegit":10338,"Ġbroke":10339,"ĠCenters":10340,"Ġcultiv":10341,"Ġbeneath":10342,"Ġfreely":10343,"Ġleftover":10344,"Ġproviders":10345,"Ġdried":10346,"ĠPlay":10347,"Ġprevented":10348,"who":10349,"liminary":10350,"isticated":10351,"Ġoptimal":10352,"Ġresponsibilities":10353,"Ġwinds":10354,"Ġrepresenting":10355,"Ġcirculation":10356,"Ġkeyboard":10357,"Ġcomplexity":10358,"Ġbigger":10359,"regular":10360,"dominal":10361,"Ġfrontier":10362,"Also":10363,"Chapter":10364,"Ġstepping":10365,"Ġintegral":10366,"Ġremoving":10367,"Ġmeaningful":10368,"Ġsalmon":10369,"Ġspeakers":10370,"ĠISO":10371,"Ġexciting":10372,"Prof":10373,"Ġwalked":10374,"ĠDisabilities":10375,"Ġpulleys":10376,"ĠCommunist":10377,"Ġtargets":10378,"Ġloaded":10379,"Ġcoordinates":10380,"Ġsolidarity":10381,"Ġpolymer":10382,"Ġqualified":10383,"Ġdimensions":10384,"ioxid":10385,"Ġreproduction":10386,"auses":10387,"Ġpipeline":10388,"ĠArea":10389,"ĠForeign":10390,"rology":10391,"Ġignored":10392,"ĠGreater":10393,"Ġweapon":10394,"ĠElectric":10395,"Ġobviously":10396,"ĠVictorian":10397,"Ġcosm":10398,"Ġtower":10399,"Ġaccomplish":10400,"Ġlikelihood":10401,"Ġmortality":10402,"Ġchannel":10403,"Ġdiplomatic":10404,"Ġdegradation":10405,"ĠQuality":10406,"ĠHoover":10407,"Ġexplicitly":10408,"ĠNepal":10409,"Ġnineteenth":10410,"Ġcavity":10411,".]":10412,"Lear":10413,"Oct":10414,"PS":10415,"fl":10416,"fold":10417,"iatric":10418,"la":10419,"makers":10420,"nix":10421,"ois":10422,"Äģ":10423,"Ġion":10424,"Ġtire":10425,"Ġtrick":10426,"heastern":10427,"rend":10428,"Ġovers":10429,"atter":10430,"enh":10431,"enger":10432,"Ġpine":10433,"Ġpalm":10434,"Ġpuzz":10435,"Ġfet":10436,"aro":10437,"Ġtomb":10438,"Ġdign":10439,"Ġduration":10440,"Ġdye":10441,"Ġlapt":10442,"Ġnurs":10443,"ĠTrial":10444,"olutions":10445,"imb":10446,"imm":10447,"imity":10448,"idae":10449,"ĠAh":10450,"ĠAra":10451,"ĠAward":10452,"otion":10453,"owa":10454,"ĠSav":10455,"ĠCook":10456,"ĠCorn":10457,"ĠCertain":10458,"verage":10459,"irms":10460,"ulates":10461,"aments":10462,"Ġasp":10463,"ĠMercury":10464,"Ġ1000":10465,"Ġye":10466,"Ġalike":10467,"ĠBridge":10468,"ĠHus":10469,"ositive":10470,"Ġvs":10471,"Ġvot":10472,"Ġvotes":10473,"ĠDick":10474,"ĠDocu":10475,"ĠEverest":10476,"ĠWilson":10477,"ĠRam":10478,"ĠRather":10479,"ĠFront":10480,"ĠFRE":10481,"ocyt":10482,"reshold":10483,"Ġ210":10484,"ĠNeb":10485,"ĠGent":10486,"Ġshr":10487,"ogens":10488,"Then":10489,"ostic":10490,"ĠOak":10491,"Ġadvert":10492,"Ġresist":10493,"Ġcloud":10494,"Ġmanual":10495,"ĠKent":10496,"ĠKim":10497,"ĠKir":10498,"Ġsovere":10499,"ensively":10500,"berry":10501,"Ġcommem":10502,"ĠVien":10503,"Ġovert":10504,"Ġconsensus":10505,"Ġblo":10506,"Ġpoles":10507,"Ġprince":10508,"Ġattain":10509,"blem":10510,"Ġpreserv":10511,"Ġmeter":10512,"Ġmetap":10513,"Ġreforms":10514,"Ġextinction":10515,"uesday":10516,"Ġmini":10517,"Ġvaried":10518,"Ġmonks":10519,"Ġendangered":10520,"Ġentities":10521,"Ġentrance":10522,"Ġgovernor":10523,"Ġgovernance":10524,"ĠArist":10525,"Ġinsights":10526,"Ġmyself":10527,"Ġretired":10528,"Ġclassification":10529,"Ġwarri":10530,"ĠCollection":10531,"Ġidentical":10532,"ĠCluster":10533,"Ġeligible":10534,"Ġobserve":10535,"Ġfaculty":10536,"Ġ135":10537,"Ġbusy":10538,"2001":10539,"2006":10540,"astery":10541,"ĠGermans":10542,"ĠOrthodox":10543,"Ġfrequencies":10544,"ĠHealthwise":10545,"Ġceiling":10546,"Ġdemonstrates":10547,"Ġdietary":10548,"ĠCooper":10549,"attered":10550,"Ġdebt":10551,"Ġrespective":10552,"ĠBrain":10553,"Ġspreading":10554,"Ġ1905":10555,"Ġdenied":10556,"Ġfarming":10557,"Ġadopt":10558,"enthic":10559,"ĠElse":10560,"ĠElizabeth":10561,"ĠSystems":10562,"marks":10563,"Ġpowder":10564,"Ġvolunteer":10565,"Ġenjoyed":10566,"Ġspinning":10567,"Ġconsequence":10568,"Ġterritories":10569,"Ġuniversities":10570,"Ġelementary":10571,"Ġcryst":10572,"rusted":10573,"Ġcontributing":10574,"Ġinnovation":10575,"induced":10576,"Ġdefeated":10577,"Ġanthrop":10578,"Ġprospect":10579,"Ġastronaut":10580,"Ã³n":10581,"Ġmosquito":10582,"Ġenemies":10583,"Submitted":10584,"ĠAPI":10585,"Ġsatisf":10586,"Ġtorque":10587,"Ġinheritance":10588,"Ġingredients":10589,"ĠSafety":10590,"ĠGallery":10591,"Ġelderly":10592,"Ġrouter":10593,"ĠâĨĳ":10594,"friend":10595,"Ġpollutants":10596,"Ġlifestyle":10597,"ĠBarcelona":10598,"ilibrium":10599,".).":10600,"84":10601,"Aut":10602,"Ant":10603,"CN":10604,"Car":10605,"Find":10606,"HD":10607,"HP":10608,"High":10609,"Ju":10610,"Let":10611,"Ne":10612,"Net":10613,"November":10614,"OCR":10615,"Rel":10616,"World":10617,"da":10618,"dis":10619,"four":10620,"hot":10621,"iro":10622,"lah":10623,"natural":10624,"pm":10625,"rul":10626,"two":10627,"va":10628,"vit":10629,"Ã¨":10630,"Ġtends":10631,"Ġtapes":10632,"herence":10633,"erne":10634,"onia":10635,"attering":10636,"Ġsister":10637,"Ġcot":10638,"educ":10639,"Ġbore":10640,"Ġbite":10641,"Ġbought":10642,"anol":10643,"Ġdil":10644,"Ġdivers":10645,"roit":10646,"rose":10647,"Ġholy":10648,"Ġthy":10649,"Ġrevers":10650,"stud":10651,"Ġnom":10652,"ĠTO":10653,"ĠTy":10654,"ĠType":10655,"olk":10656,"ĠAud":10657,"Ġfornix":10658,"ĠSA":10659,"ĠSix":10660,"ĠCost":10661,"ĠCrit":10662,"ĠIce":10663,"Ġstores":10664,"amy":10665,"amation":10666,"Ġasks":10667,"Ġasphalt":10668,"Ġorch":10669,"Ġitem":10670,"ĠPAR":10671,"rix":10672,"ripts":10673,"ema":10674,"Ġvon":10675,"ĠFord":10676,"ĠFuture":10677,"resistant":10678,"ĠNeg":10679,"unc":10680,"ĠLim":10681,"ogenic":10682,"ĠOften":10683,"ewis":10684,"Ġcontest":10685,"econ":10686,"ecess":10687,"ideo":10688,"Ġadhes":10689,"Ġ1919":10690,"Ġ1914":10691,"Ġcomparing":10692,"Ġdoors":10693,"Ġclients":10694,"ĠThink":10695,"ultural":10696,"aug":10697,"ensitive":10698,"Ġscrat":10699,"Ġqueer":10700,"Ġoverview":10701,"Ġgenu":10702,"Ġphones":10703,"ooked":10704,"Ġexport":10705,"uclear":10706,"Ġattach":10707,"Ġ53":10708,"Ġassass":10709,"Ġsmoking":10710,"Ġdefining":10711,"Ġdetained":10712,"Ġdeterior":10713,"Ġartif":10714,"Through":10715,"type":10716,"Ġcarb":10717,"Ġcoral":10718,"Ġentitled":10719,"Ġcomplement":10720,"Ġorganize":10721,"ronius":10722,"Ġparagraph":10723,"ocking":10724,"eek":10725,"ĠPhot":10726,"Ġreporting":10727,"ĠResearchers":10728,"Ġlanding":10729,"Ġproductivity":10730,"Ġ95":10731,"Ġeducators":10732,"Ġforever":10733,"Ġprogramme":10734,"Ġbasically":10735,"Ġpointing":10736,"Ġlasted":10737,"Ġdramatically":10738,"Ġpolitically":10739,"ĠToxic":10740,"ĠMediter":10741,"Ġexamining":10742,"Ġbiom":10743,"Ġdescribing":10744,"alties":10745,"letal":10746,"Ġdetermination":10747,"Ġencounter":10748,"Ġfilter":10749,"Ġsenses":10750,"Ġtermed":10751,"Ġcircles":10752,"ĠRepresent":10753,"Ġsunscreen":10754,"ĠAustria":10755,"Ġportray":10756,"Ġhistorian":10757,"Ġhistorians":10758,"Ġsurviv":10759,"Ġconcentrated":10760,"Ġfrust":10761,"mospheric":10762,"Ġcuts":10763,"Ġcutting":10764,"monia":10765,"Ġ1940":10766,"ĠPhilipp":10767,"ĠCharlotte":10768,"âĢ¦âĢ¦":10769,"Ġavoided":10770,"ĠIntroduction":10771,"ĠMorisc":10772,"Ġgeomet":10773,"Ġevaluated":10774,"Ġ1906":10775,"Ġ1907":10776,"Ġangular":10777,"ĠISM":10778,"ĠOthers":10779,"aturation":10780,"ĠReading":10781,"Ġadministered":10782,"ĠMexican":10783,"Ġmomentum":10784,"ĠIncre":10785,"Ġpetroleum":10786,"ĠWorking":10787,"Arch":10788,"Ġmigration":10789,"ĠMajor":10790,"Ġpurchased":10791,"Ġbelonging":10792,"Ġschemes":10793,"Ġconvinced":10794,"Ġcolonies":10795,"ĠDarfur":10796,"Ġillnesses":10797,"Ġsynthesis":10798,"haust":10799,"Ġclosest":10800,"AIDS":10801,"Ġfrozen":10802,"Ġtherm":10803,"ĠRoad":10804,"Ġpermissions":10805,"ĠLabour":10806,"Ġsurprising":10807,"Ġreplacement":10808,"Ġsubsequently":10809,"Ġinterfere":10810,"Ġcoca":10811,"inosaur":10812,"Ġrows":10813,"Ġnoble":10814,"Ġrabb":10815,"ĠBruce":10816,"Ġchannels":10817,"ĠAstron":10818,"Ġepidemic":10819,"Ġabundance":10820,"Ġhippocampal":10821,"ediatrics":10822,"Ġcorrelation":10823,"Ġworkshop":10824,"rifice":10825,"Ġamphip":10826,"Ġexemplary":10827,"Ġaccordance":10828,"Ġtheorists":10829,"Ġvomiting":10830,"ĠFacebook":10831,"ĠInitiative":10832,"habilitation":10833,"Ġadjacent":10834,"ĠMonday":10835,"ĠHopkins":10836,"ĠMediterranean":10837,"Co":10838,"Comm":10839,"Her":10840,"June":10841,"LS":10842,"Mod":10843,"NL":10844,"Post":10845,"WA":10846,"WR":10847,"Will":10848,"aust":10849,"bra":10850,"casts":10851,"fs":10852,"lings":10853,"lades":10854,"oard":10855,"yte":10856,"zo":10857,"|#":10858,"×ķ":10859,"Ġtanks":10860,"rell":10861,"eries":10862,"Ġwings":10863,"itiz":10864,"itzer":10865,"Ġpin":10866,"Ġpale":10867,"Ġpiano":10868,"anth":10869,"ouds":10870,"Ġdw":10871,"Ġdance":10872,"leted":10873,"Ġrend":10874,"Ġrear":10875,"Ġbearing":10876,"ĠTu":10877,"ĠTreat":10878,"ĠTake":10879,"olly":10880,"Ġgerm":10881,"Ġgift":10882,"owed":10883,"ĠSC":10884,"ĠSign":10885,"ĠCra":10886,"ĠChes":10887,"ĠIde":10888,"Ġstyles":10889,"irror":10890,"aman":10891,"eld":10892,"elines":10893,"ĠMit":10894,"ĠMos":10895,"ĠMun":10896,"ĠPy":10897,"ĠPath":10898,"third":10899,"abling":10900,"Ġhel":10901,"rip":10902,"Ġcomets":10903,"quare":10904,"Ġvib":10905,"Ġvocal":10906,"ĠDue":10907,"ĠEV":10908,"ĠRest":10909,"Ġseal":10910,"ĠGiven":10911,"ials":10912,"ĠLast":10913,"ĠLip":10914,"ĠLocal":10915,"Ġshorter":10916,"Ġenact":10917,"ĠJun":10918,"Ġabstract":10919,"Ġabronius":10920,"ĠOper":10921,"pted":10922,"play":10923,"ĠInterior":10924,"Ġkings":10925,"Ġalliance":10926,"ressing":10927,"ĠKid":10928,"ĠKrom":10929,"ĠKatherine":10930,"Ġoutstanding":10931,"Ġscales":10932,"Ġscores":10933,"Ġrecall":10934,"ĠVe":10935,"Ġoverweight":10936,"Ġgenetically":10937,"Ġconsent":10938,"Ġrepet":10939,"Ġreluct":10940,"Ġprovinces":10941,"ova":10942,"Ġoblig":10943,"Ġsurge":10944,"ucid":10945,"rowth":10946,"Ġ51":10947,"Ġmedian":10948,"Ġgoats":10949,"Ġlocally":10950,"Ġreflection":10951,"Ġpersistent":10952,"Ġextending":10953,"ĠAlabama":10954,"Ġcoffee":10955,"Ġdistinction":10956,"Ġsheets":10957,"Ġsmallest":10958,"Ġparrot":10959,"Ġsocieties":10960,"Ġpossession":10961,"Ġexplaining":10962,"Ġlitter":10963,"Who":10964,"ropri":10965,"Ġlegacy":10966,"Ġrestaur":10967,"Ġantioxid":10968,"Ġwarts":10969,"Ġproport":10970,"Ġaccessed":10971,"Ġdrivers":10972,"Ġpromoting":10973,"Ġlisting":10974,"Ġrevised":10975,"Ġputs":10976,"Ġloads":10977,"Ġencomp":10978,"Ġspecialized":10979,"Ġcalm":10980,"Ġswamp":10981,"Ġinvestments":10982,"Ġinfluenza":10983,"Ġkillings":10984,"Ġlosses":10985,"ĠAustrian":10986,"ĠCarib":10987,"Ġstrikes":10988,"ĠBlood":10989,"Ġsuggestions":10990,"Ġcatast":10991,"Ġreasonable":10992,"Ġ1979":10993,"Ġsurviving":10994,"Char":10995,"Ġbarriers":10996,"Ġverteb":10997,"Ġbulb":10998,"Ġ1945":10999,"ĠPhilip":11000,"Ġminds":11001,"ĠPeace":11002,"Ġcalculations":11003,"ĠMean":11004,"Ġvegetable":11005,"nsic":11006,"Ġjoints":11007,"Ġdeclined":11008,"ĠAgain":11009,"Ġrotating":11010,"Ġacquire":11011,"ĠLaws":11012,"books":11013,"Ġspirits":11014,"Ġencourages":11015,"Ġquantities":11016,"Ġviruses":11017,"aturday":11018,"ĠRegional":11019,"Ġdemanded":11020,"Ġachievement":11021,"Ġeaten":11022,"Ġarrive":11023,"burgh":11024,"Ġsleeping":11025,"Ġsectors":11026,"Ġcomparable":11027,"Ġsnake":11028,"ĠModel":11029,"Ġpenet":11030,"Ġtiming":11031,"uminum":11032,"Ġconnecting":11033,"Ġancestry":11034,"uilding":11035,"Ġnaval":11036,"Ġhoped":11037,"Ġscholar":11038,"Ġincorporate":11039,"Ġlisteners":11040,"Ġstimulate":11041,"ĠCopyright":11042,"Ġappreciate":11043,"Ġfingers":11044,"ĠFreedom":11045,"Ġnutrient":11046,"Ġpreparation":11047,"Ġcameras":11048,"Ġdeposits":11049,"Ġkinase":11050,"Ġporcup":11051,"Ġobservers":11052,"Ġacknowled":11053,"Ġconfiguration":11054,"Ġwithdraw":11055,"ĠMeteorological":11056,"ĠFederation":11057,"Ġdeceased":11058,"Ġmetabolism":11059,"ĠOttoman":11060,"pdf":11061,"ĠPDF":11062,"Ġanalyses":11063,"ught":11064,"Ġempty":11065,"Ġswimming":11066,"ĠCulinary":11067,"Ġproposals":11068,"ladesh":11069,"57":11070,"Are":11071,"April":11072,"Current":11073,"IO":11074,"Lob":11075,"MM":11076,"Man":11077,"March":11078,"Reg":11079,"TA":11080,"bage":11081,"cor":11082,"dem":11083,"fil":11084,"fire":11085,"lishes":11086,"nings":11087,"pg":11088,"tically":11089,"world":11090,"yll":11091,"zes":11092,"Ġrom":11093,"Ġtact":11094,"Ġtong":11095,"Ġtamar":11096,"Ġawa":11097,"Ġwounded":11098,"isations":11099,"orious":11100,"ithe":11101,"Ġpill":11102,"Ġpile":11103,"Ġbip":11104,"Ġinev":11105,"Ġmud":11106,"Ġham":11107,"Ġthir":11108,"Ġlakes":11109,"ĠTom":11110,"ĠTCP":11111,"Ġgains":11112,"iders":11113,"raid":11114,"otle":11115,"ĠSustainable":11116,"ĠCON":11117,"igue":11118,"irical":11119,"amen":11120,"aming":11121,"Ġprol":11122,"ĠMDS":11123,"Ġanemia":11124,"thur":11125,"ĠBalt":11126,"Ġexch":11127,"umns":11128,"ivia":11129,"ĠEaton":11130,"ĠRE":11131,"ĠRand":11132,"ĠFar":11133,"Ġneare":11134,"ĠNC":11135,"ĠNI":11136,"ĠNat":11137,"ĠNevertheless":11138,"unar":11139,"Ġlets":11140,"ĠLewis":11141,"arther":11142,"ĠJay":11143,"ardo":11144,"Ġabdominal":11145,"Ġintact":11146,"ĠOcc":11147,"ĠOrange":11148,"ewards":11149,"Ġcontrary":11150,"agogue":11151,"Ġadul":11152,"Ġadmit":11153,"Ġadmitted":11154,"Ġ1910":11155,"Ġ1913":11156,"Ġ1917":11157,"Ġdozen":11158,"Ġclay":11159,"Ġjars":11160,"auc":11161,"ountered":11162,"Ġcommissure":11163,"ĠStan":11164,"ĠStrate":11165,"Ġscreens":11166,"Ġthank":11167,"Ġrecur":11168,"Ġtragedy":11169,"iffs":11170,"luded":11171,"Ġcolored":11172,"Ġrelatives":11173,"Ġblu":11174,"Ġdevelopers":11175,"Ġ47":11176,"Ġdecor":11177,"ertiary":11178,"Ġinvited":11179,"ĠProgress":11180,"Ġdeform":11181,"Ġextension":11182,"ĠAlc":11183,"heme":11184,"Ġenters":11185,"Ġsheet":11186,"ĠArsenic":11187,"Ġorganisation":11188,"ĠAnim":11189,"Ġboiling":11190,"Ġglory":11191,"Ġ''":11192,"Ġconfidential":11193,"Ġclassic":11194,"Ġequality":11195,"Ġpractition":11196,"Ġproductive":11197,"Ġguild":11198,"Ġoccurrence":11199,"ĠSeal":11200,"Ġforecast":11201,"Ġengagement":11202,"ĠAdam":11203,"Ġbrains":11204,"Ġfinish":11205,"ĠQur":11206,"Ġ1981":11207,"Ġloose":11208,"ĠBeyond":11209,"Ġencountered":11210,"Ġfilms":11211,"Ġdoctrine":11212,"Ġvolcan":11213,"ĠTech":11214,"---":11215,"Ġsensors":11216,"Ġfraud":11217,"Ġfragments":11218,"Ġdrum":11219,"Ġaddresses":11220,"Ġsummar":11221,"Ġstatue":11222,"Ġlineage":11223,"Ġconsume":11224,"Ġessence":11225,"1997":11226,"Ġirregular":11227,"Ġbulk":11228,"Ġprogression":11229,"Ġcollapse":11230,"Ġ1969":11231,"Ġacceptance":11232,"ĠDavis":11233,"Ġdeadly":11234,"Ġgeographic":11235,"Ġoxide":11236,"Ġfathers":11237,"Ġcapitalism":11238,"Ġsafely":11239,"Ġdangers":11240,"Ġultra":11241,"CCC":11242,"ĠKorean":11243,"Ġpresidential":11244,"ĠSurgery":11245,"Ġcustomer":11246,"Ġeliminated":11247,"Ġexceptional":11248,"oudini":11249,"Ġrepeat":11250,"Ġexecutive":11251,"Ġprescription":11252,"Ġweakness":11253,"Ġisolation":11254,"Ġcontinuously":11255,"iosity":11256,"Ġwitnesses":11257,"Ġownership":11258,"Ġdisappear":11259,"Ġcontaminated":11260,"amilton":11261,"Ġanthrax":11262,"ĠVillage":11263,"Ġoutbreak":11264,"Ġtunnel":11265,"Ġpoisoning":11266,"ĠTimothy":11267,"Ġrecycling":11268,"Ġbottle":11269,"Ġpilot":11270,"Ġpharmac":11271,"Ġneutral":11272,"Ġincentives":11273,"Ġarrangement":11274,"Ġinclusion":11275,"Ġconvenient":11276,"Ġinterpreted":11277,"Ġinterventions":11278,"ĠErn":11279,"Ġsusceptible":11280,"vertebrates":11281,"Ġconjunction":11282,"Ġsophisticated":11283,"Ġepithel":11284,"namese":11285,"Ġcalendar":11286,"lahoma":11287,"ĠCaribbean":11288,"2000":11289,"Based":11290,"Both":11291,"Feb":11292,"LI":11293,"Mark":11294,"Pr":11295,"Sim":11296,"Yes":11297,"aft":11298,"aism":11299,"bumin":11300,"dor":11301,"elect":11302,"found":11303,"function":11304,"gence":11305,"hum":11306,"ji":11307,"ket":11308,"kind":11309,"mates":11310,"rific":11311,"su":11312,"via":11313,"yard":11314,"Ġvel":11315,"heasant":11316,"inence":11317,"reation":11318,"atibility":11319,"Ġsake":11320,"Ġselling":11321,"Ġsaint":11322,"eness":11323,"enium":11324,"Ġwages":11325,"iture":11326,"itives":11327,"itored":11328,"Ġpap":11329,"edded":11330,"Ġbrid":11331,"Ġbrows":11332,"Ġmm":11333,"ioneer":11334,"Ġdual":11335,"Ġdermat":11336,"roc":11337,"asso":11338,"Ġhired":11339,"Ġhoney":11340,"omous":11341,"Ġnort":11342,"ĠTV":11343,"ĠTrust":11344,"Ġgolf":11345,"imore":11346,"ceeding":11347,"cephal":11348,"ĠACL":11349,"ĠSanta":11350,"ĠCape":11351,"igil":11352,"ĠIC":11353,"Ġstator":11354,"Ġstones":11355,"ulu":11356,"uliar":11357,"amrul":11358,"elly":11359,"Ġaside":11360,"Ġassets":11361,"ĠMatt":11362,"ĠProm":11363,"oping":11364,"opatra":11365,"Ġdeals":11366,"ĠBob":11367,"ĠBull":11368,"ĠHoudini":11369,"Ġexhaust":11370,"ista":11371,"emic":11372,"Ġsuicide":11373,"acular":11374,"Ġwashing":11375,"Ġvapor":11376,"ĠEvent":11377,"ĠEye":11378,"ĠFle":11379,"ĠFive":11380,"ĠFarm":11381,"ĠFDA":11382,"Ġsegments":11383,"ĠNO":11384,"Ġchap":11385,"Ġchip":11386,"ĠGi":11387,"ĠGer":11388,"ĠJones":11389,"âĢĻ,":11390,"Ġworn":11391,"arded":11392,"iae":11393,"iage":11394,"ĠUpper":11395,"pton":11396,"izers":11397,"ĠInstitutes":11398,"Ġadmin":11399,"ryan":11400,"Ġclinic":11401,"Ġjuries":11402,"Ġarthritis":11403,"Ġapple":11404,"Ġimpart":11405,"Ġunited":11406,"Ġinfo":11407,"berries":11408,"uble":11409,"Ġreconst":11410,"Ġpept":11411,"Ġtrading":11412,"redit":11413,"Ġdeveloper":11414,"ĠYes":11415,"Ġammonia":11416,"Ġexpelled":11417,"Ġdecent":11418,"olds":11419,"Ġ56":11420,"Ġinterval":11421,"Ġmodest":11422,"Ġtransverse":11423,"ĠProc":11424,"Ġfactories":11425,"Ġextinct":11426,"Ġmemor":11427,"Ġedges":11428,"ĠAltern":11429,"Ġbuying":11430,"Ġcoat":11431,"Ġmonitored":11432,"Ġcorrupt":11433,"Ġending":11434,"Ġowned":11435,"Ġcurves":11436,"Ġcream":11437,"Ġmapping":11438,"ĠArgent":11439,"Ġsolving":11440,"Ġ105":11441,"Ġmainstream":11442,"Ġcharts":11443,"Ġconfident":11444,"Ġopens":11445,"Ġgenerating":11446,"Ġpracticed":11447,"Ġhandled":11448,"Ġpassive":11449,"ĠEnter":11450,"Ġdonor":11451,"Ġpotato":11452,"Ġprofound":11453,"Ġpainted":11454,"Ġ07":11455,"Ġradi":11456,"Ġradar":11457,"Ġcondem":11458,"2003":11459,"Ġheaded":11460,"Ġcritics":11461,"being":11462,"Ġfiled":11463,"Ġerosion":11464,"Ġsexually":11465,"Ġsubstrate":11466,"Ġdiarr":11467,"Ġlearners":11468,"Ġflowing":11469,"annel":11470,"ennium":11471,"aughters":11472,"ymph":11473,"Ġtelling":11474,"Ġabsent":11475,"Ġcollecting":11476,"Ġurine":11477,"Ġintroduce":11478,"Ġdiets":11479,"ĠUNICEF":11480,"mingham":11481,"escription":11482,"Ġpoorly":11483,"Ġlogging":11484,"Ġavoiding":11485,"ITES":11486,"Ġdeclar":11487,"ĠGreeks":11488,"ĠCastro":11489,"Ġbroadcast":11490,"Ġhomogen":11491,"Ġexcited":11492,"Ġdrawings":11493,"second":11494,"ĠArabia":11495,"Ġattacked":11496,"Ġinvestigating":11497,"Ġinspiration":11498,"Ġpeaceful":11499,"Ġimplies":11500,"Ġpenal":11501,"Ġhypers":11502,"Ġhousing":11503,"Ġrainfall":11504,"ĠJersey":11505,"ĠMarshall":11506,"ĠAvailable":11507,"Ġharvested":11508,"ĠBrook":11509,"Ġperfectly":11510,"Ġjuice":11511,"Ġpunishment":11512,"Ġcriticism":11513,"Ġsubstantially":11514,"Ġperceive":11515,"itudinal":11516,"ĠAMP":11517,"Ġtradem":11518,"Ġadjusted":11519,"ĠVietnamese":11520,"Ġadvocates":11521,"Ġpalace":11522,"Ġfascinating":11523,"Ġinterference":11524,"Ġshelter":11525,"expected":11526,"ĠCaesar":11527,"Ġwidth":11528,"ovenant":11529,"Ġdistinguished":11530,"Ġabsolutely":11531,"Ġphotographs":11532,"Ġabundant":11533,"speaking":11534,"ĠIrish":11535,"ĠMaputo":11536,"ĠBuilding":11537,"Ġconservative":11538,"carbon":11539,"ĠTwitter":11540,"ĠHomo":11541,"Ġregulatory":11542,"Ġroutinely":11543,"Ġsodium":11544,"erenn":11545,"ĠTemple":11546,"ĠEzra":11547,"Ġexclusively":11548,"Ġmonument":11549,"ĠSimilarly":11550,"Ġdivorce":11551,"ĠWednesday":11552,"Ġolfactory":11553,"ĠBangladesh":11554,"Ġmystery":11555,"Ġbarrels":11556,"Ġsearches":11557,"ĠMalaysia":11558,"ĠTerritory":11559,"Ġprolonged":11560,"Ġpeculiar":11561,"Ġmetaphor":11562,"\";":11563,")).":11564,"64":11565,"AB":11566,"AV":11567,"Che":11568,"FA":11569,"GE":11570,"GR":11571,"His":11572,"Have":11573,"Like":11574,"Law":11575,"NU":11576,"Pres":11577,"School":11578,"WS":11579,"ez":11580,"eous":11581,"gars":11582,"group":11583,"hr":11584,"hu":11585,"home":11586,"iens":11587,"night":11588,"some":11589,"school":11590,"tains":11591,"vol":11592,"vier":11593,"£o":11594,"Ã£o":11595,"Ġ@":11596,"Ġtent":11597,"inh":11598,"rehe":11599,"Ġoste":11600,"erk":11601,"Ġsor":11602,"Ġsending":11603,"ena":11604,"Ġwine":11605,"Ġpiles":11606,"Ġpairs":11607,"Ġpiracy":11608,"Ġber":11609,"Ġbenthic":11610,"Ġhorn":11611,"ĠTM":11612,"ĠTro":11613,"ĠTour":11614,"olesc":11615,"imen":11616,"imeter":11617,"imedia":11618,"Ġforage":11619,"ĠSus":11620,"ĠSCD":11621,"ĠComb":11622,"ĠIowa":11623,"ĠMobile":11624,"ĠMaterials":11625,"ĠMolecular":11626,"Ġyard":11627,"ĠPWM":11628,"odd":11629,"Ġdeleg":11630,"ĠHubble":11631,"ĠHamilton":11632,"Ġexceed":11633,"essional":11634,"acchar":11635,"ainted":11636,"ĠDynam":11637,"ĠDVD":11638,"ĠEN":11639,"ĠEll":11640,"ĠWil":11641,"ĠWhether":11642,"ĠRa":11643,"ĠRing":11644,"ĠFil":11645,"ĠFisher":11646,"Ġseas":11647,"Ġsegment":11648,"Ġchamp":11649,"ĠGDP":11650,"Ġlean":11651,"Ġlease":11652,"ĠLith":11653,"Ġshield":11654,"Ġshaped":11655,"Ġshares":11656,"Ġencl":11657,"Ġenabled":11658,"Ġspell":11659,"ĠJim":11660,"Ġabilities":11661,"Ġpled":11662,"Ġweigh":11663,"Ġcontrad":11664,"ĠInvest":11665,"ouses":11666,"Ġadvers":11667,"Ġperipher":11668,"eps":11669,"Ġjpg":11670,"Ġpartially":11671,"Ġscore":11672,"Ġtracks":11673,"Ġworkplace":11674,"jects":11675,"Ġgenital":11676,"Ġconscience":11677,"Ġnewborn":11678,"Ġrepublic":11679,"ysics":11680,"ausea":11681,"ĠUnlike":11682,"ĠYaz":11683,"Ġproducers":11684,"ovascular":11685,"Ġ49":11686,"awa":11687,"away":11688,"Ġsystematic":11689,"Ġpreschool":11690,"Ġfeared":11691,"Inf":11692,"Ġhighlights":11693,"Ġnumer":11694,"Ġtransit":11695,"ĠAlbert":11696,"hematic":11697,"ĠArk":11698,"Ġinsufficient":11699,"Ġcontinent":11700,"Ġparliament":11701,"Ġservant":11702,"Ġconfront":11703,"Ġdevelopmental":11704,"Ġeconomics":11705,"Ġguitar":11706,"Ġprogramming":11707,"Ġengaging":11708,"Ġamongst":11709,"Ġpoliticians":11710,"Ġpaints":11711,"Ġ1987":11712,"Ġtruck":11713,"ĠExec":11714,"ĠExamples":11715,"Ġchemotherapy":11716,"Ġmeanings":11717,"Ġappearing":11718,"valu":11719,"Ġmembership":11720,"Ġswallow":11721,"Ġmovie":11722,"Ġasteroids":11723,"ĠUSS":11724,"Ġgrasses":11725,"ĠThatcher":11726,"riction":11727,"Ġinitiated":11728,"Ġmeetings":11729,"ĠBlog":11730,"Ġdigits":11731,"Ġ1972":11732,"Ġ1973":11733,"Christ":11734,"Ġreactor":11735,"Ġstrain":11736,"hester":11737,"Ġintegrity":11738,"Ġ1947":11739,"ĠTraining":11740,"ĠApplic":11741,"AND":11742,"ĠAntar":11743,"Ġappropriately":11744,"Ġimagery":11745,"ĠIndiana":11746,"Ġapes":11747,"Ġdeny":11748,"Ġdenaturation":11749,"Ġcustoms":11750,"Ġbalanced":11751,"ĠUsually":11752,"Ġseasonal":11753,"Ġrobots":11754,"ĠCommunications":11755,"ĠSimon":11756,"Ġpretreatment":11757,"Ġflooding":11758,"Ġfilesystem":11759,"headed":11760,"Ġanalyze":11761,"Ġsettlers":11762,"Ġbreath":11763,"Ġupdates":11764,"Ġbelongs":11765,"Ġappeals":11766,"Ġefficiently":11767,"Ġthickness":11768,"ĠCommer":11769,"Ġfoal":11770,"Ġdynamics":11771,"Ġsuspended":11772,"Ġsymbols":11773,"ĠTestament":11774,"Ġtourists":11775,"handed":11776,"Ġfoliage":11777,"Ġaxis":11778,"ĠFranklin":11779,"Ġfolder":11780,"Ġnesting":11781,"Ġconquered":11782,"Ġappreciation":11783,"Ġelevated":11784,"Ġrepeatedly":11785,"Ġpreparing":11786,"Ġunemployed":11787,"Contact":11788,"Ġalgae":11789,"Ġawarded":11790,"Ġmetamorphic":11791,"Ġstrictly":11792,"ĠDiabetes":11793,"Ġdiscipline":11794,"ĠKnowledge":11795,"ĠTibetan":11796,"Ġundertaken":11797,"Ġrefugees":11798,"olerance":11799,"Ġchromosome":11800,"Ġabdita":11801,"ĠDOE":11802,"History":11803,"ĠConfederate":11804,"Ġsubsidies":11805,"Ġpupils":11806,"Ġlibraries":11807,"Ġamazing":11808,"Ġproximity":11809,"Ġclothes":11810,"Ġeradication":11811,"Ġflesh":11812,"Ġartisans":11813,"ĠMonitoring":11814,"friendly":11815,"July":11816,".),":11817,"Bet":11818,"Following":11819,"Gl":11820,"LC":11821,"PR":11822,"TS":11823,"Up":11824,"Work":11825,"Week":11826,"bet":11827,"both":11828,"dal":11829,"dri":11830,"efficient":11831,"fast":11832,"fund":11833,"front":11834,"govern":11835,"high":11836,"kg":11837,"kisi":11838,"lis":11839,"list":11840,"mia":11841,"master":11842,"oids":11843,"pres":11844,"sa":11845,"site":11846,"vy":11847,"wid":11848,"when":11849,"yo":11850,"ÃĤ":11851,"×Ļ":11852,"Ġes":11853,"Ġtab":11854,"inner":11855,"reas":11856,"erts":11857,"atile":11858,"ener":11859,"itism":11860,"Ġpink":11861,"Ġports":11862,"Ġpests":11863,"Ġbang":11864,"Ġbinary":11865,"Ġfan":11866,"Ġinch":11867,"aris":11868,"Ġmissions":11869,"iche":11870,"Ġhide":11871,"Ġthou":11872,"Ġthrow":11873,"ctu":11874,"ctors":11875,"Ġnur":11876,"Ġbeer":11877,"ĠTs":11878,"ĠTell":11879,"ĠTuesday":11880,"semble":11881,"olis":11882,"Ġgut":11883,"Ġgang":11884,"ĠSD":11885,"ĠSed":11886,"ĠSens":11887,"ĠSite":11888,"ĠSunn":11889,"ĠSomal":11890,"ĠSQL":11891,"ĠCab":11892,"ĠCase":11893,"Ġonset":11894,"Ġupt":11895,"Ġstating":11896,"Ġstagn":11897,"iri":11898,"Ġprostitution":11899,"Ġconform":11900,"adi":11901,"ĠPrim":11902,"Ġaluminum":11903,"opic":11904,"opard":11905,"Ġdeemed":11906,"ĠBr":11907,"ĠBased":11908,"ĠBern":11909,"ĠHans":11910,"iller":11911,"uma":11912,"Ġhered":11913,"emen":11914,"quar":11915,"Ġvic":11916,"ĠDate":11917,"ĠDLL":11918,"ĠWW":11919,"ĠWal":11920,"ĠWay":11921,"ĠWalk":11922,"ĠRating":11923,"ĠFac":11924,"ĠFind":11925,"ĠFox":11926,"ĠFamil":11927,"ocyte":11928,"Ġchron":11929,"anted":11930,"Ġspan":11931,"Ġspider":11932,"oga":11933,"âĢĻ.":11934,"Ġintent":11935,"ewater":11936,"Ġdisse":11937,"Ġdisagree":11938,"Ġcompensation":11939,"aved":11940,"ishok":11941,"Ġoutdoor":11942,"ensed":11943,"ĠChair":11944,"Ġpartial":11945,"Ġscal":11946,"iley":11947,"Ġque":11948,"ĠVII":11949,"Ġconsolid":11950,"Ġunderground":11951,"Ġcolumns":11952,"ĠYO":11953,"Ġregulate":11954,"Ġsurg":11955,"Ġattraction":11956,"olding":11957,"neys":11958,"Ġsupplied":11959,"Ġinvasive":11960,"Ġinterven":11961,"Ġinterrupt":11962,"Ġdiscs":11963,"Ġfeels":11964,"Ġmodifications":11965,"Ġtransist":11966,"central":11967,"ĠProduct":11968,"chnology":11969,"Ġgrace":11970,"Ġdefault":11971,"ĠAlv":11972,"Ġcargo":11973,"Ġdistract":11974,"Ġsignaling":11975,"ĠArm":11976,"Ġinserted":11977,"Ġorganisations":11978,"Ġprotest":11979,"Ġdownstream":11980,"Ġparad":11981,"Ġparietal":11982,"ĠDeath":11983,"Ġretain":11984,"Ġretrie":11985,"Ġreturning":11986,"Ġfung":11987,"Ġequipped":11988,"Ġguides":11989,"Ġvein":11990,"Ġwarmer":11991,"Ġforensic":11992,"Ġprojected":11993,"Ġtrium":11994,"Ġtrips":11995,"elson":11996,"Ġuntreated":11997,"Ġoperator":11998,"Ġoperators":11999,"apeake":12000,"ĠZoo":12001,"pectives":12002,"Ġoriginated":12003,"Ġprofit":12004,"Ġviewing":12005,"Ġmeniscus":12006,"ĠPlants":12007,"Ġbiologist":12008,"ikh":12009,"Ġhappiness":12010,"Ġdiscussing":12011,"Ġcombinations":12012,"Ġdetermines":12013,"Ġgrey":12014,"Ġswelling":12015,"Ġprimitive":12016,"Ġfallen":12017,"Ġnecessity":12018,"Ġsubjected":12019,"Ġdestro":12020,"ependence":12021,"Ã©ia":12022,"ERS":12023,"Ġbatteries":12024,"Ġburied":12025,"Ġthreatening":12026,"Ġlaboratories":12027,"ĠPerformance":12028,"1995":12029,"cellular":12030,"Ġstepper":12031,"uket":12032,"Ġfatigue":12033,"Ġuncomm":12034,"Ġturf":12035,"Ġturkeys":12036,"Ġacquisition":12037,"ĠSchools":12038,"ĠCastle":12039,"Ġrenowned":12040,"ĠParliament":12041,"ĠPerspective":12042,"Ġadoption":12043,"Ġseverely":12044,"Ġplanetary":12045,"Ġpulled":12046,"Ġinvestigated":12047,"ĠSolomon":12048,"ĠProtect":12049,"United":12050,"Ġcoordination":12051,"ĠMcD":12052,"ĠJudges":12053,"Ġbreathe":12054,"Ġvoluntary":12055,"prises":12056,"Ġpanels":12057,"Ġceremon":12058,"Ġsettlements":12059,"ĠLearn":12060,"Ġclimb":12061,"ĠPalestine":12062,"Ġsacrifice":12063,"Ġdollar":12064,"Ġabsorb":12065,"Spec":12066,"ĠQuebec":12067,"Ġhorizon":12068,"ĠSummon":12069,"Ġintelligent":12070,"ĠDiseases":12071,"Ġshelf":12072,"Ġastronomers":12073,"points":12074,"Ġaccompany":12075,"ĠLiteracy":12076,"Ġrecipient":12077,"Ġcomprising":12078,"Ġsolely":12079,"ĠDuke":12080,"ĠOklahoma":12081,"ographer":12082,"Ġhypothesis":12083,"Ġproclaimed":12084,"Ġstakeholders":12085,"Ġfulfill":12086,"Ġjurisdiction":12087,"ĠVirtual":12088,"ĠSELinux":12089,"Ġmurdered":12090,"Ġgentle":12091,"European":12092,"ĠDiego":12093,"ĠElsevier":12094,"Ġsurvivors":12095,"width":12096,"!)":12097,"**":12098,"AA":12099,"Dav":12100,"GT":12101,"Home":12102,"IX":12103,"Imp":12104,"OC":12105,"SF":12106,"Source":12107,"Supp":12108,"THE":12109,"VM":12110,"cf":12111,"dam":12112,"del":12113,"dependent":12114,"ea":12115,"eared":12116,"gard":12117,"gian":12118,"han":12119,"human":12120,"kal":12121,"lan":12122,"lad":12123,"log":12124,"non":12125,"nih":12126,"oin":12127,"path":12128,"ratory":12129,"uilt":12130,"vate":12131,"ynt":12132,"Ö·":12133,"Ġ%":12134,"Ġ||":12135,"Ġtorn":12136,"Ġaz":12137,"atan":12138,"Ġcow":12139,"Ġcerv":12140,"Ġwand":12141,"Ġwives":12142,"eded":12143,"alg":12144,"Ġflying":12145,"inger":12146,"arians":12147,"oub":12148,"ouston":12149,"Ġdaughters":12150,"Ġhung":12151,"Ġthreshold":12152,"Ġrevel":12153,"Ġreass":12154,"struct":12155,"stands":12156,"Ġnick":12157,"ĠTyp":12158,"seud":12159,"Ġger":12160,"Ġgor":12161,"Ġgaining":12162,"uties":12163,"ethe":12164,"ĠAk":12165,"otation":12166,"ĠSher":12167,"ĠSep":12168,"ĠSaturday":12169,"ĠCut":12170,"igg":12171,"Ġstocks":12172,"amins":12173,"amination":12174,"Ġconve":12175,"ĠMind":12176,"Ġanomal":12177,"Ġ(âĢľ":12178,"ĠPR":12179,"ĠPi":12180,"ĠPier":12181,"Ġalert":12182,"oda":12183,"thood":12184,"ĠBio":12185,"ĠBox":12186,"ĠBeth":12187,"ĠHaz":12188,"rians":12189,"Ġvend":12190,"ĠDra":12191,"ĠDutch":12192,"ĠWould":12193,"ĠRoc":12194,"ĠFL":12195,"ĠFried":12196,"ocate":12197,"ĠNine":12198,"Ġride":12199,"ĠGates":12200,"Ġleak":12201,"Ġleague":12202,"ĠLady":12203,"Ġshops":12204,"Ġspots":12205,"ogi":12206,"roud":12207,"ĠJack":12208,"Ġplug":12209,"perial":12210,"Ġallies":12211,"Ġwheels":12212,"Ġ1900":12213,"Ġ1929":12214,"Ġcompuls":12215,"Ġclicking":12216,"Ġjaw":12217,"ĠThail":12218,"assion":12219,"aceut":12220,"Ġimpression":12221,"Ġunw":12222,"Ġunexpected":12223,"ĠKa":12224,"Ġinformal":12225,"ishop":12226,"Ġcommod":12227,"Ġcommander":12228,"ĠStock":12229,"Ġthereof":12230,"ricular":12231,"okes":12232,"Ġquad":12233,"Ġquills":12234,"Ġrover":12235,"Ġraces":12236,"Ġrape":12237,"Ġundergo":12238,"ĠYah":12239,"ĠYellow":12240,"ĠHeart":12241,"Ġindication":12242,"Ġsuppose":12243,"Ġassert":12244,"Ġpresum":12245,"Ġmodes":12246,"ĠProper":12247,"ĠProceed":12248,"Ġformula":12249,"Ġsmell":12250,"Ġmemorial":12251,"ructive":12252,"Ġcoinc":12253,"Ġrespected":12254,"Ġrespiratory":12255,"Ġcarrier":12256,"Ġdistances":12257,"Ġentertain":12258,"Ġauto":12259,"Ġestate":12260,"Ġ72":12261,"Ġactivists":12262,"Ġcompletion":12263,"Ġsocio":12264,"ĠScript":12265,"Ġglob":12266,"Ġconsiders":12267,"Ġstrat":12268,"Ġconfusion":12269,"ĠPharm":12270,"Ġretained":12271,"Ġguest":12272,"Ġguided":12273,"Ġlimiting":12274,"Ġprojectile":12275,"Ġpassages":12276,"Ġwritings":12277,"Ġbehave":12278,"ugu":12279,"ĠClark":12280,"Ġproposal":12281,"Ġapplicable":12282,"lux":12283,"Ġfacial":12284,"Ġdelinqu":12285,"Ġtrucks":12286,"Ġ06":12287,"Ġloop":12288,"ĠBeach":12289,"Ġcalories":12290,"Ġnevertheless":12291,"Ġsword":12292,"appy":12293,"Ġobserving":12294,"Ġparticipated":12295,"author":12296,"Ġdigit":12297,"Ġ504":12298,"Ġtraditionally":12299,"Ġanswered":12300,"Ġ1978":12301,"Ġdisposal":12302,"Ġverse":12303,"ESCO":12304,"Ġrecommends":12305,"Ġdivide":12306,"Ġdivisions":12307,"Ġwinning":12308,"Ġembedded":12309,"Ġsouls":12310,"Ġconsistently":12311,"Ġmixing":12312,"ĠImam":12313,"Ġacquainted":12314,"Ġmachinery":12315,"Ġremainder":12316,"ĠCountry":12317,"ĠUser":12318,"SoC":12319,"Ġcommercially":12320,"Ġinnocent":12321,"Ġvirtue":12322,"Ġblocked":12323,"ĠKepler":12324,"urable":12325,"Ġstruggling":12326,"Ġ1956":12327,"ÃŃs":12328,"Ġemphasize":12329,"ĠWorkers":12330,"ĠJudaism":12331,"Ġfertile":12332,"Ġupdate":12333,"Ġbelonged":12334,"Ġconvicted":12335,"Ġsavings":12336,"Ġrebell":12337,"Ġdupl":12338,"Ġcriticized":12339,"ĠPalace":12340,"ĠTorah":12341,"Ġdatas":12342,"ĠMemorial":12343,"information":12344,"Ġplatforms":12345,"Ġtrusted":12346,"ĠDiscuss":12347,"Ġrandomly":12348,"Ġguns":12349,"Ġflee":12350,"ĠATM":12351,"Ġfortun":12352,"ĠEconomy":12353,"Ġsupreme":12354,"Ġelevation":12355,"Ġpursue":12356,"ĠVilla":12357,"Ġathletic":12358,"Ġpreceding":12359,"ĠStatistics":12360,"Ġmanifestations":12361,"Ġhunters":12362,"Ġbrucellosis":12363,"ĠCleopatra":12364,"Ġsurveys":12365,"Ġsatisfact":12366,"Ġclusters":12367,"Ġconsciousness":12368,"Ġgathering":12369,"Ġobserver":12370,"Ġsoybean":12371,"ĠSupport":12372,"Ġthrone":12373,"ĠDifferent":12374,"ĠProphet":12375,"ĠLangston":12376,"ĠAdvanced":12377,"Ġtonnes":12378,"Ġcapsule":12379,"Ġsailors":12380,"ĠDigital":12381,"Iranian":12382,"Ġabolition":12383,"oriented":12384,"Ġbrackish":12385,"Ġvassals":12386,"Ġcontagious":12387,"ĠAristotle":12388,"William":12389,"ĠChesapeake":12390,"rehend":12391,"ĠThailand":12392,"Ag":12393,"Educ":12394,"FS":12395,"Gra":12396,"James":12397,"Lat":12398,"ME":12399,"MI":12400,"Min":12401,"Page":12402,"RL":12403,"RNA":12404,"Several":12405,"Take":12406,"VI":12407,"Yet":12408,"bow":12409,"bone":12410,"cat":12411,"cled":12412,"click":12413,"di":12414,"dn":12415,"data":12416,"iors":12417,"mount":12418,"mother":12419,"pers":12420,"raska":12421,"six":12422,"vial":12423,"Ã¤":12424,"Ġicon":12425,"Ġtut":12426,"Ġtill":12427,"Ġtast":12428,"Ġtread":12429,"inance":12430,"inite":12431,"inals":12432,"Ġoct":12433,"atus":12434,"Ġcovenant":12435,"isy":12436,"ori":12437,"orney":12438,"Ġpest":12439,"Ġpagan":12440,"Ġbes":12441,"Ġfitness":12442,"Ġfirms":12443,"anim":12444,"Ġmarch":12445,"Ġmelt":12446,"ouri":12447,"oured":12448,"ouling":12449,"ician":12450,"Ġtoll":12451,"Ġdating":12452,"Ġdolph":12453,"leep":12454,"Ġlos":12455,"Ġnoun":12456,"ĠTree":12457,"ĠTai":12458,"Ġgamb":12459,"imp":12460,"cepts":12461,"utation":12462,"uters":12463,"eterm":12464,"ĠAB":12465,"ĠAmb":12466,"urches":12467,"urbed":12468,"urora":12469,"otype":12470,"ĠSession":12471,"ĠCH":12472,"ĠCN":12473,"ĠCe":12474,"ĠCam":12475,"Ġster":12476,"Ġstiff":12477,"Ġstroke":12478,"aylor":12479,"Ġprobe":12480,"ĠMist":12481,"ifting":12482,"ifiers":12483,"ĠPa":12484,"ĠPit":12485,"opes":12486,"opithe":12487,"Ġdehydration":12488,"usive":12489,"ĠBow":12490,"ĠBos":12491,"ĠBiodiversity":12492,"ĠHal":12493,"illiant":12494,"osa":12495,"riages":12496,"acre":12497,"acle":12498,"Ġvoy":12499,"Ġvigil":12500,"ĠWars":12501,"ĠRog":12502,"ĠRap":12503,"ĠFT":12504,"ĠFIG":12505,"ĠFollowing":12506,"Ġseized":12507,"ĠNob":12508,"Ġric":12509,"Ġrhetoric":12510,"Ġnotable":12511,"antal":12512,"ĠLazare":12513,"Ġspont":12514,"ĠJoh":12515,"aples":12516,"Ġabroad":12517,"ellar":12518,"iagn":12519,"Ġweaken":12520,"ĠOri":12521,"agog":12522,"Ġkg":12523,"Ġkills":12524,"Ġadolesc":12525,"Ġreserves":12526,"Ġperme":12527,"Ġclip":12528,"ĠThird":12529,"Ġappl":12530,"Ġmeg":12531,"inda":12532,"Ġunn":12533,"ĠChris":12534,"Ġscattered":12535,"Ġscattering":12536,"ounding":12537,"Ġpeas":12538,"Ġpeppers":12539,"Ġaggreg":12540,"ĠVerm":12541,"rene":12542,"Ġ350":12543,"Ġgenus":12544,"ĠUnix":12545,"Ġrelates":12546,"Ġamid":12547,"issance":12548,"Ġemanc":12549,"Ġobl":12550,"Ġregulated":12551,"Ġsurprise":12552,"Ġ2020":12553,"Ġdecomp":12554,"Ġindivid":12555,"Ġsubd":12556,"Ġpries":12557,"Ġprone":12558,"Ġremind":12559,"peace":12560,"Ġpoems":12561,"blems":12562,"rowave":12563,"Ġ57":12564,"Ġassault":12565,"Ġinterconn":12566,"Ġtransactions":12567,"ĠProb":12568,"Ġherbs":12569,"Ġhumidity":12570,"Ġlocate":12571,"Ġfounder":12572,"Ġlongitudinal":12573,"Ġdetain":12574,"Thus":12575,"Ġhealthier":12576,"Ġvariability":12577,"Ġdepri":12578,"ĠWhich":12579,"thew":12580,"Ġentries":12581,"roscope":12582,"Ġautumn":12583,"ĠAnalysis":12584,"Ġreadily":12585,"Ġtemp":12586,"Ġexplored":12587,"Ġdesigning":12588,"ĠPhuket":12589,"ĠDead":12590,"Ġcaud":12591,"Ġretreat":12592,"Ġmilit":12593,"ĠAnderson":12594,"risk":12595,"Ġlegend":12596,"Ġunto":12597,"Ġprogrammes":12598,"ĠAtmospheric":12599,"Ġpotent":12600,"parts":12601,"ĠAdams":12602,"Ġterrible":12603,"ĠShould":12604,"Ġobsc":12605,"retion":12606,"Ġbioc":12607,"Ġmotivation":12608,"Ġheadache":12609,"Ġfunctionality":12610,"Ġfailing":12611,"Ġplacing":12612,"loads":12613,"Ġeventual":12614,"Ġdrilled":12615,"Ġdrilling":12616,"Ġdamages":12617,"ĠHealthy":12618,"Ġstatistical":12619,"ĠBlock":12620,"Ã©e":12621,"Ġportrait":12622,"umbold":12623,"Ġachieving":12624,"Ġcollections":12625,"Ġcoloring":12626,"rability":12627,"Ġmarketing":12628,"Ġburial":12629,"ĠWithin":12630,"Ġgardening":12631,"Ġverb":12632,"Ġcivilization":12633,"Ġcamps":12634,"prot":12635,"ĠHarbor":12636,"Ġprecision":12637,"Ġindependently":12638,"ĠApple":12639,"ĠAppleton":12640,"Ġlacked":12641,"Ġturkey":12642,"Ġpackage":12643,"Ġdecreases":12644,"Ġ1908":12645,"ĠCorpus":12646,"Ġbroader":12647,"Ġcompanion":12648,"ALL":12649,"Ġcrossed":12650,"Ġhonour":12651,"Ġfavour":12652,"Ġrobotic":12653,"Ġsilence":12654,"Ġtargeted":12655,"Ġdependence":12656,"Ġattempting":12657,"Ġconflicts":12658,"University":12659,"ĠGovernor":12660,"Ġquarters":12661,"Ġcontroller":12662,"Ġcontrolling":12663,"ĠSeeing":12664,"Ġrulers":12665,"Ġdistinctive":12666,"osexuality":12667,"Ġpowered":12668,"Ġconnectivity":12669,"species":12670,"Ġrenewed":12671,"Ġalleg":12672,"Ġemotion":12673,"ĠDefense":12674,"December":12675,"ĠVictoria":12676,"Ġpossessed":12677,"Ġcertificate":12678,"Ġafraid":12679,"Ġprosper":12680,"Ġmetabolic":12681,"Ġecosystems":12682,"ĠHandbook":12683,"ĠDelaware":12684,"Ġtalks":12685,"Ġmacro":12686,"ĠMahomat":12687,"ĠBirth":12688,"Ġdistinguish":12689,"ĠHolly":12690,"Ġshells":12691,"Ġcurrents":12692,"ĠDisorder":12693,"bullying":12694,"Ġthoroughly":12695,"Ġovarian":12696,"ĠPicasso":12697,"original":12698,"Ġforgotten":12699,"ĠmorerÃŃa":12700,"Ġthroat":12701,"Ġlinguistic":12702,"ĠHawai":12703,"onymous":12704,"Ġremembered":12705,"ĠOakland":12706,"Ġastronauts":12707,"vitational":12708,"Ġbiomass":12709,"ĠMoriscos":12710,"Lobos":12711,"Ġveloc":12712,"ĠArgentina":12713,"Ġuncommon":12714,"ĠProceedings":12715,"Ġindividually":12716,".-":12717,"Af":12718,"Av":12719,"Call":12720,"Did":12721,"Dec":12722,"Free":12723,"Further":12724,"Green":12725,"North":12726,"Next":12727,"OGY":12728,"Son":12729,"bes":12730,"case":12731,"diff":12732,"direct":12733,"first":12734,"gien":12735,"iac":12736,"iour":12737,"national":12738,"pre":12739,"patic":12740,"ril":12741,"ui":12742,"vents":12743,"will":12744,"Ö¸":12745,"Ġ`":12746,"Ġtough":12747,"Ġtended":12748,"Ġarose":12749,"inator":12750,"reced":12751,"Ġodd":12752,"erations":12753,"Ġsits":12754,"Ġcran":12755,"Ġcured":12756,"isible":12757,"itles":12758,"edience":12759,"alism":12760,"Ġbind":12761,"Ġbuck":12762,"Ġfarther":12763,"Ġfriction":12764,"anus":12765,"Ġinquiry":12766,"arid":12767,"Ġmul":12768,"Ġmast":12769,"icates":12770,"Ġdirty":12771,"asures":12772,"Ġthrown":12773,"ilst":12774,"Ġrew":12775,"Ġlunch":12776,"stro":12777,"sters":12778,"stable":12779,"lyn":12780,"lymp":12781,"ationally":12782,"ĠTH":12783,"ĠTerm":12784,"ĠTah":12785,"Ġgear":12786,"rage":12787,"ĠAug":12788,"urred":12789,"otics":12790,"Ġforum":12791,"ĠSS":12792,"ĠCat":12793,"ĠCas":12794,"ĠCensus":12795,"ĠCatal":12796,"ĠCobra":12797,"igious":12798,"ĠID":12799,"Ġstems":12800,"Ġstabil":12801,"ulous":12802,"Ġassembly":12803,"iths":12804,"ĠMas":12805,"ĠMain":12806,"ĠMau":12807,"ĠMuch":12808,"ĠMIT":12809,"ĠMamm":12810,"ifier":12811,"ĠPK":12812,"ĠPediatrics":12813,"Ġalarm":12814,"gered":12815,"Ġdeploy":12816,"ushed":12817,"ĠBon":12818,"ĠBloom":12819,"ĠHouston":12820,"Ġexile":12821,"illas":12822,"Ġheated":12823,"eme":12824,"Ġwast":12825,"Ġviable":12826,"ĠDak":12827,"ĠDelt":12828,"ĠEdition":12829,"ĠWales":12830,"ĠRout":12831,"ĠFer":12832,"ĠFat":12833,"ĠFlow":12834,"ĠFiles":12835,"ocry":12836,"Ġ220":12837,"Ġchamber":12838,"ĠGab":12839,"ĠGIS":12840,"ĠGHz":12841,"ĠLiver":12842,"Ġshame":12843,"Ġshark":12844,"Ġspite":12845,"Ġweed":12846,"Ġweeds":12847,"ĠOlymp":12848,"rup":12849,"ĠInv":12850,"agine":12851,"agger":12852,"endous":12853,"Ġresur":12854,"Ġresort":12855,"assed":12856,"assing":12857,"Ġapps":12858,"Ġimposed":12859,"Ġimpaired":12860,"ĠKra":12861,"aven":12862,"Ġoutflow":12863,"Ġcommands":12864,"Ġpredom":12865,"ĠStore":12866,"Ġsyringe":12867,"Ġquoted":12868,"Ġdesert":12869,"Ġrod":12870,"ervo":12871,"phant":12872,"version":12873,"Ġacted":12874,"Ġgenealog":12875,"Ġnewer":12876,"Ġwhenever":12877,"Ġunderm":12878,"Ġcoli":12879,"Ġampl":12880,"Ġamendment":12881,"ovation":12882,"Ġshouldn":12883,"Ġattribute":12884,"Ġmetric":12885,"Ġfee":12886,"Ġmedi":12887,"Ġmeditation":12888,"Ġherb":12889,"Ġgrave":12890,"Ġgrades":12891,"iversal":12892,"iversary":12893,"Ġafterwards":12894,"Ġeds":12895,"iolet":12896,"ĠAlb":12897,"Ġbug":12898,"Ġcoin":12899,"Ġcoaches":12900,"Ġ63":12901,"Ġvariants":12902,"Ġdepressed":12903,"ĠWhit":12904,"there":12905,"Ġimportantly":12906,"Ġinsult":12907,"ĠNewton":12908,"Ġorganizing":12909,"Ġreadings":12910,"Ġ84":12911,"Ġglobe":12912,"Ġlesser":12913,"learning":12914,"ĠDev":12915,"ĠDeut":12916,"ĠDeep":12917,"Ġskilled":12918,"Ġretina":12919,"Ġlandmark":12920,"Ġ900":12921,"aza":12922,"ĠCanon":12923,"Ġoperational":12924,"Ġidentifies":12925,"Ġmethodology":12926,"oidal":12927,"luent":12928,"Ġdrag":12929,"Ġbench":12930,"ĠShort":12931,"Ġlistening":12932,"Ġexamines":12933,"Ġairpl":12934,"ĠSym":12935,"ĠSynd":12936,"Ġproblematic":12937,"span":12938,"Ġnonprofit":12939,"Ġassociations":12940,"Ġmultilateral":12941,"ĠHispan":12942,"ĠGenetics":12943,"Ġprobable":12944,"Ġcreature":12945,"apped":12946,"anners":12947,"Ġdominated":12948,"Ġmodeling":12949,"Ġsummary":12950,"Ġ/>":12951,"ĠBlue":12952,"ĠComputer":12953,"ĠMarx":12954,"ĠMaria":12955,"ynasty":12956,"Ġchoosing":12957,"Ġ1976":12958,"Ġreplacing":12959,"Ġcitrus":12960,"Ġbrilliant":12961,"Ġexercised":12962,"Ġmechanics":12963,"ĠStudent":12964,"Ġfeatured":12965,"Ġimplementing":12966,"process":12967,"ĠGraduate":12968,"Ġnorthwest":12969,"Ġ1942":12970,"Ġ1944":12971,"Ġbirthday":12972,"Ġassessments":12973,"ORD":12974,"Ġjoining":12975,"ĠAnti":12976,"ĠPrinc":12977,"ĠPressure":12978,"Ġcustody":12979,"Ġcapitalist":12980,"Ġcrossing":12981,"ĠQuestions":12982,"Ġexcav":12983,"Ġeighty":12984,"Ġlift":12985,"ocolate":12986,"ĠMonth":12987,"Ġdisplays":12988,"ĠSolid":12989,"ĠProgramme":12990,"Ġcitizenship":12991,"Unlike":12992,"Ġofficially":12993,"ĠSamuel":12994,"Ġempirical":12995,"Ġbanned":12996,"ĠProvide":12997,"Ġautomator":12998,"Ġ1959":12999,"Ġparental":13000,"Ġruler":13001,"Ġboundary":13002,"Ġcornu":13003,"ĠSwitzer":13004,"Ġpitched":13005,"Ġvitamins":13006,"ĠEvidence":13007,"Ġdissolved":13008,"Ġprohibited":13009,"Ġdetectors":13010,"Ġfreshwater":13011,"ĠRelations":13012,"Ġcontracts":13013,"Ġunfortunately":13014,"Photo":13015,"Ġinhab":13016,"ĠCaroline":13017,"Ġabsorption":13018,"infected":13019,"Ġpleasure":13020,"Ġantibiotic":13021,"Ġconcludes":13022,"Ġmammal":13023,"Ġmammals":13024,"rophic":13025,"Ġchlorine":13026,"Ġinstructional":13027,"Ġdepths":13028,"Ġroofs":13029,"ĠBrazilian":13030,"Ġwealthy":13031,"ĠSlovakian":13032,"Ġexplanations":13033,"Ġpicked":13034,"Ġgallery":13035,"ĠMissouri":13036,"ĠAbrahim":13037,"Ġascending":13038,"ĠPrior":13039,"Ġexploitation":13040,"Ġkitchen":13041,"Ġunpreced":13042,"Ġstretch":13043,"ĠCuba":13044,"children":13045,"Ġearnings":13046,"Ġponds":13047,"Ġcomprises":13048,"lastname":13049,"Ġpharmaceut":13050,"Ġbiof":13051,"Ġruins":13052,"ĠOSHA":13053,"ĠPtole":13054,"Ġscarce":13055,"Ġfestival":13056,"Ġhurricane":13057,"Ġsteady":13058,"Ġestuarius":13059,"Ġdrainage":13060,"ĠJurÃ©ia":13061,"Second":13062,"Ġtriangular":13063,"Ġunconformity":13064,"ĠSexual":13065,"Semitism":13066,"Ġliberties":13067,"Children":13068,"ĠObservatory":13069,"Ġlentiform":13070,"Ġlamina":13071,"ĠFaith":13072,"ĠBusiness":13073,"ĠBranch":13074,"ĠNebraska":13075,"ĠVienna":13076,"economic":13077,"ropriate":13078,"ĠBaltimore":13079,"aucas":13080,"driven":13081,"quarters":13082,"ĠTaiwan":13083,"opithecus":13084,"Ġpriests":13085,"ĠSwitzerland":13086,"Ġunprecedented":13087,"\"),":13088,".:":13089,"Aust":13090,"August":13091,"Bo":13092,"Cal":13093,"Com":13094,"DD":13095,"GA":13096,"Gu":13097,"Hum":13098,"Key":13099,"LA":13100,"Make":13101,"NI":13102,"OD":13103,"Old":13104,"Search":13105,"Trans":13106,"bee":13107,"cost":13108,"don":13109,"ference":13110,"giving":13111,"hol":13112,"iography":13113,"ker":13114,"link":13115,"lovak":13116,"locked":13117,"mus":13118,"note":13119,"pa":13120,"powered":13121,"positive":13122,"sur":13123,"supp":13124,"true":13125,"Ġtul":13126,"Ġaids":13127,"heel":13128,"rett":13129,"Ġtheatre":13130,"erce":13131,"erness":13132,"enburg":13133,"Ġcing":13134,"Ġcourage":13135,"Ġwra":13136,"isa":13137,"oron":13138,"Ġpel":13139,"Ġpione":13140,"Ġbills":13141,"Ġff":13142,"Ġfool":13143,"Ġmi":13144,"Ġmes":13145,"Ġmask":13146,"rock":13147,"Ġhang":13148,"Ġlover":13149,"omics":13150,"sett":13151,"olas":13152,"olves":13153,"Ġgest":13154,"Ġgods":13155,"race":13156,"ĠAurora":13157,"urally":13158,"ownt":13159,"ĠSP":13160,"ĠSEO":13161,"ĠCert":13162,"ĠCode":13163,"igra":13164,"ayer":13165,"ĠMath":13166,"Ġyeast":13167,"Ġorchest":13168,"ĠPain":13169,"ĠPaper":13170,"Ġalign":13171,"ĠBot":13172,"ĠHE":13173,"ĠHog":13174,"ĠHend":13175,"ĠHep":13176,"ĠHuss":13177,"ĠHyp":13178,"oske":13179,"estry":13180,"Ġvign":13181,"ĠDream":13182,"ĠEs":13183,"ĠWa":13184,"ĠWor":13185,"ĠRan":13186,"ĠRun":13187,"ĠFri":13188,"ĠFather":13189,"ĠFull":13190,"ocene":13191,"Ġseaw":13192,"ĠNort":13193,"ĠNumber":13194,"unity":13195,"Ġcharm":13196,"Ġchains":13197,"Ġchances":13198,"Ġchurches":13199,"ĠGrant":13200,"antin":13201,"ortant":13202,"ĠLiving":13203,"ĠLead":13204,"Ġcanon":13205,"Ġshale":13206,"Ġspark":13207,"allic":13208,"ĠJacks":13209,"due":13210,"earl":13211,"ffer":13212,"ĠUlt":13213,"Ġkiss":13214,"Ġincons":13215,"Ġ1924":13216,"Ġ1936":13217,"Ġcompelling":13218,"Ġclouds":13219,"Ġmanagers":13220,"acha":13221,"achs":13222,"ultan":13223,"Ġappet":13224,"ordon":13225,"Ġinfer":13226,"Ġouts":13227,"Ġoutward":13228,"berta":13229,"Ġcommerce":13230,"ĠChap":13231,"ĠChamber":13232,"ĠChannel":13233,"ailing":13234,"Ġtrapped":13235,"Ġcolony":13236,"cession":13237,"Ġrelies":13238,"Ġrelate":13239,"Ġblisters":13240,"Ġtrunk":13241,"Ġsubtle":13242,"Ġsubstitute":13243,"Ġprints":13244,"Ġprisons":13245,"rowse":13246,"neg":13247,"Ġ54":13248,"Ġwhereby":13249,"Inter":13250,"insic":13251,"ĠProduction":13252,"Ġformally":13253,"Ġhumid":13254,"Ġrefusal":13255,"Ġfoundations":13256,"Ġimported":13257,"ixon":13258,"Ġkeys":13259,"Ġ64":13260,"Ġendocr":13261,"Ġ78":13262,"Ġactivated":13263,"Ġorganism":13264,"Ġcontinuity":13265,"Ġsolids":13266,"ĠScout":13267,"Ġexplos":13268,"Ġexplosion":13269,"ierra":13270,"Ġpersonally":13271,"Ġcaution":13272,"Ġplacement":13273,"iquity":13274,"Ġpracticing":13275,"Ġresting":13276,"Ġmethyl":13277,"Ġeducate":13278,"Ġhandful":13279,"ĠSelect":13280,"ĠCanal":13281,"Ġvector":13282,"Ġpassword":13283,"Ġuntrusted":13284,"ĠEnc":13285,"Ġsuccession":13286,"Ġ1789":13287,"Ġdriver":13288,"Ġimproves":13289,"Ġpromoted":13290,"Ġmotivated":13291,"Ġ04":13292,"Ġdiscusses":13293,"Ġshortages":13294,"ĠLeft":13295,"Ġmonthly":13296,"viously":13297,"Ġworkshe":13298,"Ġviral":13299,"ĠTeaching":13300,"Ġsimilarly":13301,"Ġsensor":13302,"Ġaston":13303,"Ġdrill":13304,"shire":13305,"Answ":13306,"Ġseparates":13307,"unting":13308,"Ġcope":13309,"Ġsummit":13310,"iami":13311,"ĠConsul":13312,"Ġindicators":13313,"Ġdigest":13314,"Ġteaches":13315,"Ġredirect":13316,"Ġcataly":13317,"Ġhistorically":13318,"ĠContent":13319,"Ġsymmet":13320,"Ġbattles":13321,"Ġreasoning":13322,"Ġsurely":13323,"Ġtexture":13324,"ĠManager":13325,"ĠGuidelines":13326,"ĠUNCLOS":13327,"Ġintegrate":13328,"Ġpollen":13329,"prof":13330,"prov":13331,"month":13332,"monary":13333,"ĠHarold":13334,"Ġ1967":13335,"Ġefficacy":13336,"Ġcyber":13337,"Ġsoup":13338,"Ġassessed":13339,"Ġtalked":13340,"ĠAgree":13341,"Ġimagination":13342,"Ġecology":13343,"ĠPrint":13344,"Ġevaluating":13345,"Ġacidosis":13346,"Ġreviews":13347,"Ġmoments":13348,"Ġsynagogue":13349,"Ġrocky":13350,"ĠPerson":13351,"Ġstresses":13352,"ĠArticle":13353,"Ġwoods":13354,"Ġpulse":13355,"ĠPlanet":13356,"Ġutilized":13357,"Ġfaithful":13358,"ĠUnderstanding":13359,"ISE":13360,"ĠTransport":13361,"Ġrounded":13362,"Ġworthy":13363,"Ġpermanently":13364,"Ġmissed":13365,"Ġpipes":13366,"Science":13367,"Ġcontempl":13368,"Ġfavorable":13369,"Ġprohibit":13370,"Ġratified":13371,"Ġsynthes":13372,"Ġinterpretations":13373,"Ġbandwidth":13374,"Ġdrops":13375,"Ġabsorbed":13376,"Ġreceptors":13377,"Ġnarrator":13378,"Ġwitnessed":13379,"Ġhurt":13380,"Ġmistaken":13381,"OLOGY":13382,"Ġphrases":13383,"Ġhemispheres":13384,"Ġpurely":13385,"Ġconstituted":13386,"feeding":13387,"Ġlesbians":13388,"Ġcertified":13389,"Ġfirmly":13390,"phalon":13391,"Ġcandidates":13392,"Ġspraying":13393,"Ġhunger":13394,"Ġoutlined":13395,"ĠClean":13396,"Ġprosecut":13397,"Ġprevents":13398,"ĠRomans":13399,"Ġimperial":13400,"ĠPublishing":13401,"speed":13402,"Ġramus":13403,"ĠPtosis":13404,"Ġacknowledge":13405,"Ġcomfortable":13406,"Ġwavelengths":13407,"Ġneighbors":13408,"Ġcommissioned":13409,"Ġinscriptions":13410,"Ġtuber":13411,"ĠFreder":13412,"ĠCarlos":13413,"Ġhurricanes":13414,"Ġsulfate":13415,"ĠConditions":13416,"ĠLuis":13417,"ĠCambodia":13418,"ĠBolivia":13419,"ĠIndustrial":13420,"Ġrescue":13421,"Ġprivilege":13422,"Ġmartyr":13423,"Ġpockets":13424,"Ġinertia":13425,"Ġbailiff":13426,"Ġenthusiasts":13427,"Ġmysterious":13428,"Ġcommemor":13429,"Related":13430,"Ġcotton":13431,"Ġorchid":13432,"Posted":13433,"Ġtongue":13434,"Ġnearest":13435,"Ġdiarrhea":13436,"ĠLithuan":13437,"ĠExecutive":13438,"David":13439,"Ġcaudate":13440,"ĠDelta":13441,",âĢĻ":13442,"</":13443,"?)":13444,"Cast":13445,"Go":13446,"La":13447,"Location":13448,"Mass":13449,"Ret":13450,"Rem":13451,"Time":13452,"TION":13453,"aic":13454,"bro":13455,"counter":13456,"hill":13457,"hard":13458,"hman":13459,"km":13460,"lihood":13461,"mo":13462,"main":13463,"post":13464,"pend":13465,"rise":13466,"sun":13467,"tia":13468,"vance":13469,"yan":13470,"Ãº":13471,"âĦ":13472,"ãĥ":13473,"heart":13474,"inz":13475,"incy":13476,"reach":13477,"Ġoval":13478,"erver":13479,"oni":13480,"onite":13481,"Ġsibl":13482,"Ġsaints":13483,"energy":13484,"Ġcob":13485,"Ġcodes":13486,"Ġwax":13487,"itted":13488,"itects":13489,"Ġpm":13490,"Ġpt":13491,"Ġpuls":13492,"Ġproud":13493,"alin":13494,"Ġbaking":13495,"Ġborrow":13496,"Ġfring":13497,"Ġfilling":13498,"Ġinability":13499,"Ġinexp":13500,"Ġmuc":13501,"Ġmirror":13502,"ouver":13503,"Ġdy":13504,"Ġdens":13505,"Ġdump":13506,"lem":13507,"Ġhast":13508,"iler":13509,"Ġrender":13510,"Ġlion":13511,"Ġlad":13512,"Ġlining":13513,"Ġloud":13514,"Ġlighter":13515,"stown":13516,"Ġnemat":13517,"Ġglands":13518,"Ġgrie":13519,"idic":13520,"rared":13521,"uther":13522,"etch":13523,"ĠAth":13524,"uri":13525,"urate":13526,"otypes":13527,"owing":13528,"ĠSY":13529,"ĠSac":13530,"ĠCru":13531,"ĠCaucas":13532,"Ġumb":13533,"verbs":13534,"ĠIR":13535,"ĠIBS":13536,"irth":13537,"Ġash":13538,"Ġcongress":13539,"ĠMC":13540,"ĠMes":13541,"ĠMiami":13542,"ĠPu":13543,"odor":13544,"opathy":13545,"ĠBan":13546,"ĠBesides":13547,"ĠHem":13548,"ĠHence":13549,"orence":13550,"osm":13551,"ositions":13552,"oscop":13553,"andal":13554,"empor":13555,"esty":13556,"Ġsuited":13557,"Ġvascular":13558,"ĠDat":13559,"ĠDry":13560,"ĠEric":13561,"ĠWrite":13562,"ĠFall":13563,"ĠFlu":13564,"ĠFalls":13565,"Ġseign":13566,"ĠNa":13567,"ĠNutrition":13568,"Ġchips":13569,"ĠGust":13570,"ĠLT":13571,"ĠLau":13572,"Ġspik":13573,"ĠJVM":13574,"arding":13575,"ello":13576,"eller":13577,"Ġplun":13578,"ĠUntil":13579,"ptical":13580,"Ġdisasters":13581,"rubs":13582,"pless":13583,"Ġresident":13584,"Ġ1939":13585,"Ġbutt":13586,"Ġje":13587,"Ġjunction":13588,"Ġarteries":13589,"ĠThy":13590,"ĠThings":13591,"aceous":13592,"Ġmeets":13593,"ĠKol":13594,"âĢĿ)":13595,"Ġinfringe":13596,"ĠChromos":13597,"Ġpreacher":13598,"Ġpreliminary":13599,"ĠStill":13600,"Ġscrub":13601,"Ġteens":13602,"Ġrecalled":13603,"Ġdesirable":13604,"ĠVit":13605,"Ġtraced":13606,"Ġoverse":13607,"Ġgenomic":13608,"tein":13609,"ificant":13610,"Ġoffset":13611,"oval":13612,"Ġspecimens":13613,"Ġtran":13614,"Ġexported":13615,"athan":13616,"Ġattending":13617,"Ġcountless":13618,"Ġassent":13619,"Ġassisted":13620,"Ġinvisible":13621,"Ġintervals":13622,"Ġdiscrim":13623,"oyle":13624,"Ġgram":13625,"ĠAmericas":13626,"Ġevening":13627,"Ġdeformation":13628,"Ġ180":13629,"1970":13630,"ĠAlong":13631,"Ġbund":13632,"ahu":13633,"Ġsecured":13634,"Ġrequested":13635,"Ġpatches":13636,"Ġtyros":13637,"Ġapproached":13638,"Ġtreats":13639,"Ġcompleting":13640,"Ġcapability":13641,"Ġsocially":13642,"Ġreads":13643,"Ġboom":13644,"Ġ82":13645,"Ġ83":13646,"Ġmaintains":13647,"Ġdesigner":13648,"Ġstront":13649,"Ġpublicly":13650,"Ġmarrow":13651,"Ġslide":13652,"Ġequity":13653,"Ġequilibrium":13654,"Ġphysiology":13655,"azz":13656,"ccessful":13657,"Ġmaturity":13658,"Ġmathematic":13659,"Ġhandic":13660,"engers":13661,"lessly":13662,"Ġcultivation":13663,"Ġimmense":13664,"Ġpropri":13665,"Ġconstra":13666,"Ġhomework":13667,"Ġmenu":13668,"Ġposter":13669,"ĠShia":13670,"Ġpromised":13671,"Ġpromotes":13672,"Ġnamely":13673,"ĠMedic":13674,"Ġauthorized":13675,"ĠExerc":13676,"Ġrealistic":13677,"letion":13678,"Ġshortly":13679,"Ġcritically":13680,"Ġreleases":13681,"Ġzoster":13682,"Step":13683,"ĠOrder":13684,"Ġwinding":13685,"ĠGeological":13686,"lementary":13687,"scheme":13688,"Ġdestination":13689,"Ġsixth":13690,"ylon":13691,"PAC":13692,"ĠComprehens":13693,"acco":13694,"Ġcitations":13695,"Ġsquee":13696,"sector":13697,"Ġbrush":13698,"1993":13699,"1998":13700,"Ġcivilian":13701,"Ġstops":13702,"Ġalternating":13703,"ucky":13704,"ĠTraditional":13705,"Ġremoves":13706,"Ġnationwide":13707,"Ġ1965":13708,"Ġembarr":13709,"Ġcalculate":13710,"restrial":13711,"Ġcomplaints":13712,"Ġsalts":13713,"riptive":13714,"eedback":13715,"Ġselecting":13716,"ĠEmployment":13717,"Ġmicrobial":13718,"Ġnuts":13719,"Ġwebsites":13720,"Ġtransported":13721,"Ġgotten":13722,"Ġillustration":13723,"Ġillustrates":13724,"Ġinnings":13725,"ĠRegister":13726,"Ġphilos":13727,"Ġsurroundings":13728,"Ġethylene":13729,"Ġharmony":13730,"Ġstrengths":13731,"Ġstayed":13732,"Expl":13733,"ĠAlexand":13734,"Ġautomatic":13735,"ĠUnderstands":13736,"Ã¡t":13737,"black":13738,"Ġexceptions":13739,"Ġcrust":13740,"Ġtemporarily":13741,"uminous":13742,"ausing":13743,"Ġranges":13744,"ĠArchae":13745,"ilingual":13746,"ĠAreas":13747,"Ġancestor":13748,"ĠFinland":13749,"Ġscenes":13750,"Ġignor":13751,"Ġcrypt":13752,"iii":13753,"Ġsickness":13754,"ĠNaval":13755,"Ġfrog":13756,"Ġunsu":13757,"Ġcooperative":13758,"ĠMagazine":13759,"Ġconclude":13760,"ĠGalen":13761,"Ġdisappeared":13762,"Ġwetlands":13763,"oglio":13764,"Ġrubber":13765,"Ġextracted":13766,"Ġsatellites":13767,"Ġmitigation":13768,"ĠPortug":13769,"Ġaccelerate":13770,"athyroid":13771,"Ġchickens":13772,"Ġgallon":13773,"ĠRadio":13774,"Ġtherapist":13775,"Ġpremature":13776,"Ġinjection":13777,"ĠEcosystem":13778,"Ġsprayed":13779,"Ġabandon":13780,"Ġmanifestation":13781,"Ġcounselor":13782,"Ġtunnels":13783,"Ġnutritional":13784,"Ġrecycled":13785,"September":13786,"Ġclustering":13787,"ĠExplore":13788,"ĠEffects":13789,"ĠPolitical":13790,"Image":13791,"ĠCreative":13792,"Ġodds":13793,"Ġallegedly":13794,"Ġabdomen":13795,"Ġpushed":13796,"Ġbleeding":13797,"Ġtransfers":13798,"ĠWeekly":13799,"Ġimpairment":13800,"ĠDisorders":13801,"Ġgateway":13802,"Ġcontroversial":13803,"Ġmaternal":13804,"Ġinfectious":13805,"Ġcardiovascular":13806,"ĠGranada":13807,"Harry":13808,"Ġenergized":13809,"Ġfragile":13810,"Desalination":13811,"Ġoverwhelming":13812,"Ġdevastating":13813,"ĠAssessment":13814,"Ġtremendous":13815,"ĠMendel":13816,"Ġlegitimate":13817,"ĠTreaty":13818,"ĠMeanwhile":13819,"ewardship":13820,"Ġpractitioners":13821,"Ġepithelial":13822,"Ġpenalty":13823,"erennial":13824,"lishers":13825,"Ġnurse":13826,"Ġpharmaceutical":13827,"âĦ¢":13828,"Ġsiblings":13829,"\").":13830,"++":13831,"Bel":13832,"GS":13833,"Good":13834,"Hung":13835,"Human":13836,"Having":13837,"Life":13838,"MET":13839,"MENT":13840,"Pers":13841,"Pri":13842,"Published":13843,"Top":13844,"UL":13845,"aissance":13846,"bian":13847,"cal":13848,"call":13849,"cogene":13850,"dale":13851,"eight":13852,"falls":13853,"hang":13854,"mination":13855,"person":13856,"tered":13857,"tures":13858,"tension":13859,"uf":13860,"uer":13861,"wl":13862,"zens":13863,"Ġions":13864,"Ġtears":13865,"instein":13866,"inburgh":13867,"atar":13868,"attle":13869,"Ġwished":13870,"Ġwires":13871,"isse":13872,"orus":13873,"oria":13874,"orous":13875,"alo":13876,"Ġbass":13877,"Ġbars":13878,"Ġfant":13879,"Ġfier":13880,"Ġfusion":13881,"Ġfoster":13882,"Ġfouling":13883,"Ġmercury":13884,"Ġtoys":13885,"Ġdirt":13886,"Ġduties":13887,"Ġhatch":13888,"Ġthumb":13889,"Ġecho":13890,"Ġeighth":13891,"ilty":13892,"Ġlunar":13893,"omnia":13894,"Ġbeaches":13895,"ĠTel":13896,"ĠTag":13897,"ĠTaj":13898,"sea":13899,"search":13900,"Ġgel":13901,"Ġgms":13902,"ceeds":13903,"racle":13904,"utable":13905,"eti":13906,"ĠACT":13907,"ĠABS":13908,"chi":13909,"Ġforty":13910,"owell":13911,"ĠSab":13912,"ĠSoutheast":13913,"ĠCr":13914,"ĠCod":13915,"ĠCover":13916,"ĠCIA":13917,"ĠChemistry":13918,"ulose":13919,"advant":13920,"ĠMaking":13921,"Ġanat":13922,"Ġwhale":13923,"ĠPSoC":13924,"three":13925,"ersion":13926,"erem":13927,"ĠBu":13928,"ĠBest":13929,"ĠBah":13930,"ĠBird":13931,"ectar":13932,"ĠHind":13933,"ĠHold":13934,"ĠHills":13935,"ĠHumbold":13936,"oretto":13937,"oser":13938,"oslovak":13939,"ando":13940,"Ġheal":13941,"esthet":13942,"ivative":13943,"ĠDid":13944,"ĠWright":13945,"ĠWriting":13946,"ighters":13947,"nty":13948,"ntario":13949,"ĠRF":13950,"ĠNuclear":13951,"ĠNelson":13952,"Ġleuk":13953,"ĠLink":13954,"Ġcanv":13955,"Ġenrolled":13956,"Ġenabling":13957,"Ġsperm":13958,"ogg":13959,"ogly":13960,"ogel":13961,"ĠJam":13962,"ouring":13963,"Ġintens":13964,"Ġintimid":13965,"ĠOt":13966,"Ġdispar":13967,"plants":13968,"ecs":13969,"aren":13970,"velt":13971,"ustion":13972,"Ġ1916":13973,"Ġ1933":13974,"rypt":13975,"Ġclays":13976,"Ġclips":13977,"Ġjew":13978,"Ġjack":13979,"assy":13980,"Ġunch":13981,"ĠKos":13982,"Ġinfilt":13983,"Ġoutdo":13984,"Ġprejud":13985,"cester":13986,"Ġupright":13987,"Ġrecru":13988,"Ġrecited":13989,"Ġrecalls":13990,"Ġsomewhere":13991,"ĠVo":13992,"ĠVar":13993,"ĠViol":13994,"phabet":13995,"phony":13996,"obility":13997,"Ġconsp":13998,"Ġraises":13999,"Ġknife":14000,"Ġunderway":14001,"Ġuseless":14002,"ĠUnit":14003,"ĠYu":14004,"ossary":14005,"Ġproducer":14006,"Ġspecially":14007,"Ġexpend":14008,"Ġdecay":14009,"Ġdeciding":14010,"henk":14011,"Ġsubur":14012,"erto":14013,"Ġmetast":14014,"Ġfeat":14015,"Ġfees":14016,"Ġflavor":14017,"Ġmodification":14018,"Ġgrab":14019,"Ġgrams":14020,"Ġrefrig":14021,"Ġperspectives":14022,"Ġafterlife":14023,"cking":14024,"Ġcoating":14025,"Ġ61":14026,"Ġpatri":14027,"Ġpatron":14028,"Ġsignifies":14029,"Ġentity":14030,"Ġapproaching":14031,"Ġorganised":14032,"ĠWeather":14033,"Ġsolvent":14034,"ĠIndependence":14035,"Ġtempt":14036,"ĠSpect":14037,"Ġvisiting":14038,"Ġservants":14039,"Ġaffirm":14040,"Ġaffinity":14041,"ohyd":14042,"Ġopium":14043,"iencies":14044,"Ġmarvel":14045,"Ġequations":14046,"ĠResults":14047,"Ġeconomically":14048,"Ġguilty":14049,"Ġ94":14050,"ĠSept":14051,"Ġhygien":14052,"ĠAdditional":14053,"iscal":14054,"pectral":14055,"Ġpurple":14056,"Ġtops":14057,"ĠPlato":14058,"Ġbiologists":14059,"Ġdeliber":14060,"ophila":14061,"Ġ05":14062,"ĠActivity":14063,"ĠActivities":14064,"beans":14065,"valuation":14066,"ductor":14067,"limited":14068,"Ġalongside":14069,"Ġconsiderably":14070,"Ġfundament":14071,"abitat":14072,"Ġgrasp":14073,"Ġcircular":14074,"Ġseparately":14075,"Ġclaiming":14076,"Ġdestiny":14077,"Ġlivelihood":14078,
[...]
